{
  "version": "1.0",
  "truncation": null,
  "padding": null,
  "added_tokens": [
    {
      "id": 0,
      "content": "[UNK]",
      "single_word": false,
      "lstrip": false,
      "rstrip": false,
      "normalized": false,
      "special": true
    },
    {
      "id": 1,
      "content": "[PAD]",
      "single_word": false,
      "lstrip": false,
      "rstrip": false,
      "normalized": false,
      "special": true
    },
    {
      "id": 2,
      "content": "[EOS]",
      "single_word": false,
      "lstrip": false,
      "rstrip": false,
      "normalized": false,
      "special": true
    },
    {
      "id": 3,
      "content": "[USER]",
      "single_word": false,
      "lstrip": false,
      "rstrip": false,
      "normalized": false,
      "special": true
    },
    {
      "id": 4,
      "content": "[AI]",
      "single_word": false,
      "lstrip": false,
      "rstrip": false,
      "normalized": false,
      "special": true
    }
  ],
  "normalizer": null,
  "pre_tokenizer": {
    "type": "Sequence",
    "pretokenizers": [
      {
        "type": "Whitespace"
      },
      {
        "type": "Digits",
        "individual_digits": true
      },
      {
        "type": "Punctuation",
        "behavior": "Isolated"
      }
    ]
  },
  "post_processor": null,
  "decoder": null,
  "model": {
    "type": "BPE",
    "dropout": null,
    "unk_token": "[UNK]",
    "continuing_subword_prefix": null,
    "end_of_word_suffix": null,
    "fuse_unk": false,
    "byte_fallback": false,
    "ignore_merges": false,
    "vocab": {
      "[UNK]": 0,
      "[PAD]": 1,
      "[EOS]": 2,
      "[USER]": 3,
      "[AI]": 4,
      "!": 5,
      "\"": 6,
      "#": 7,
      "$": 8,
      "%": 9,
      "&": 10,
      "'": 11,
      "(": 12,
      ")": 13,
      "*": 14,
      "+": 15,
      ",": 16,
      "-": 17,
      ".": 18,
      "/": 19,
      "0": 20,
      "1": 21,
      "2": 22,
      "3": 23,
      "4": 24,
      "5": 25,
      "6": 26,
      "7": 27,
      "8": 28,
      "9": 29,
      ":": 30,
      ";": 31,
      "<": 32,
      "=": 33,
      ">": 34,
      "?": 35,
      "@": 36,
      "[": 37,
      "\\": 38,
      "]": 39,
      "^": 40,
      "_": 41,
      "`": 42,
      "a": 43,
      "b": 44,
      "c": 45,
      "d": 46,
      "e": 47,
      "f": 48,
      "g": 49,
      "h": 50,
      "i": 51,
      "j": 52,
      "k": 53,
      "l": 54,
      "m": 55,
      "n": 56,
      "o": 57,
      "p": 58,
      "q": 59,
      "r": 60,
      "s": 61,
      "t": 62,
      "u": 63,
      "v": 64,
      "w": 65,
      "x": 66,
      "y": 67,
      "z": 68,
      "|": 69,
      "}": 70,
      "~": 71,
      "he": 72,
      "in": 73,
      "the": 74,
      "an": 75,
      "re": 76,
      "on": 77,
      "at": 78,
      "er": 79,
      "en": 80,
      "or": 81,
      "al": 82,
      "es": 83,
      "is": 84,
      "it": 85,
      "of": 86,
      "ed": 87,
      "and": 88,
      "to": 89,
      "ou": 90,
      "ar": 91,
      "ing": 92,
      "as": 93,
      "ic": 94,
      "ion": 95,
      "st": 96,
      "le": 97,
      "ro": 98,
      "ent": 99,
      "se": 100,
      "ac": 101,
      "il": 102,
      "ve": 103,
      "be": 104,
      "om": 105,
      "de": 106,
      "ch": 107,
      "ly": 108,
      "for": 109,
      "lo": 110,
      "hat": 111,
      "im": 112,
      "ation": 113,
      "am": 114,
      "ct": 115,
      "su": 116,
      "ol": 117,
      "ad": 118,
      "are": 119,
      "ig": 120,
      "that": 121,
      "we": 122,
      "ce": 123,
      "con": 124,
      "no": 125,
      "un": 126,
      "pro": 127,
      "ver": 128,
      "ir": 129,
      "et": 130,
      "ab": 131,
      "mo": 132,
      "ut": 133,
      "ho": 134,
      "id": 135,
      "ay": 136,
      "us": 137,
      "ter": 138,
      "ur": 139,
      "his": 140,
      "ag": 141,
      "ith": 142,
      "com": 143,
      "you": 144,
      "if": 145,
      "te": 146,
      "with": 147,
      "ul": 148,
      "pe": 149,
      "tr": 150,
      "res": 151,
      "ap": 152,
      "ne": 153,
      "po": 154,
      "ment": 155,
      "ts": 156,
      "ex": 157,
      "per": 158,
      "pl": 159,
      "so": 160,
      "fe": 161,
      "ate": 162,
      "ain": 163,
      "ess": 164,
      "ies": 165,
      "ill": 166,
      "ther": 167,
      "ha": 168,
      "all": 169,
      "by": 170,
      "this": 171,
      "ity": 172,
      "ke": 173,
      "can": 174,
      "ive": 175,
      "ld": 176,
      "qu": 177,
      "rom": 178,
      "iv": 179,
      "out": 180,
      "oun": 181,
      "co": 182,
      "act": 183,
      "ers": 184,
      "art": 185,
      "was": 186,
      "from": 187,
      "wh": 188,
      "est": 189,
      "igh": 190,
      "our": 191,
      "od": 192,
      "um": 193,
      "ant": 194,
      "em": 195,
      "wor": 196,
      "do": 197,
      "cl": 198,
      "ci": 199,
      "not": 200,
      "one": 201,
      "red": 202,
      "gr": 203,
      "ple": 204,
      "ge": 205,
      "pr": 206,
      "have": 207,
      "ical": 208,
      "ud": 209,
      "ort": 210,
      "ll": 211,
      "ind": 212,
      "li": 213,
      "ren": 214,
      "dis": 215,
      "man": 216,
      "whe": 217,
      "ma": 218,
      "sh": 219,
      "they": 220,
      "but": 221,
      "str": 222,
      "age": 223,
      "ions": 224,
      "ich": 225,
      "ould": 226,
      "gh": 227,
      "use": 228,
      "me": 229,
      "ure": 230,
      "der": 231,
      "ine": 232,
      "ated": 233,
      "their": 234,
      "go": 235,
      "ist": 236,
      "low": 237,
      "ans": 238,
      "ide": 239,
      "fo": 240,
      "end": 241,
      "other": 242,
      "your": 243,
      "ard": 244,
      "its": 245,
      "bo": 246,
      "af": 247,
      "ight": 248,
      "br": 249,
      "which": 250,
      "ough": 251,
      "more": 252,
      "ally": 253,
      "will": 254,
      "wn": 255,
      "iz": 256,
      "ous": 257,
      "has": 258,
      "ound": 259,
      "port": 260,
      "able": 261,
      "ie": 262,
      "ip": 263,
      "form": 264,
      "cre": 265,
      "up": 266,
      "ia": 267,
      "ass": 268,
      "ome": 269,
      "pre": 270,
      "du": 271,
      "ast": 272,
      "king": 273,
      "ib": 274,
      "cr": 275,
      "ca": 276,
      "sy": 277,
      "ear": 278,
      "ial": 279,
      "pres": 280,
      "tim": 281,
      "her": 282,
      "av": 283,
      "comm": 284,
      "ev": 285,
      "ong": 286,
      "ks": 287,
      "ary": 288,
      "ach": 289,
      "ater": 290,
      "sp": 291,
      "ction": 292,
      "ta": 293,
      "ations": 294,
      "gen": 295,
      "cont": 296,
      "also": 297,
      "ild": 298,
      "spe": 299,
      "how": 300,
      "were": 301,
      "ence": 302,
      "cent": 303,
      "bl": 304,
      "there": 305,
      "ber": 306,
      "ust": 307,
      "dr": 308,
      "part": 309,
      "han": 310,
      "ents": 311,
      "stud": 312,
      "ef": 313,
      "hy": 314,
      "when": 315,
      "new": 316,
      "who": 317,
      "op": 318,
      "ign": 319,
      "log": 320,
      "these": 321,
      "cess": 322,
      "pos": 323,
      "ace": 324,
      "alt": 325,
      "col": 326,
      "ser": 327,
      "el": 328,
      "way": 329,
      "about": 330,
      "ition": 331,
      "ice": 332,
      "di": 333,
      "ack": 334,
      "some": 335,
      "ty": 336,
      "ame": 337,
      "what": 338,
      "ance": 339,
      "ase": 340,
      "very": 341,
      "may": 342,
      "cor": 343,
      "comp": 344,
      "them": 345,
      "ite": 346,
      "ces": 347,
      "ory": 348,
      "most": 349,
      "che": 350,
      "now": 351,
      "ang": 352,
      "ors": 353,
      "ens": 354,
      "hing": 355,
      "year": 356,
      "inter": 357,
      "gre": 358,
      "des": 359,
      "fr": 360,
      "than": 361,
      "int": 362,
      "day": 363,
      "over": 364,
      "mar": 365,
      "cur": 366,
      "bet": 367,
      "fect": 368,
      "like": 369,
      "ep": 370,
      "fl": 371,
      "time": 372,
      "med": 373,
      "sa": 374,
      "dif": 375,
      "je": 376,
      "work": 377,
      "ates": 378,
      "pt": 379,
      "cho": 380,
      "ile": 381,
      "peo": 382,
      "any": 383,
      "hr": 384,
      "tw": 385,
      "coun": 386,
      "used": 387,
      "ian": 388,
      "ish": 389,
      "ult": 390,
      "been": 391,
      "into": 392,
      "people": 393,
      "fir": 394,
      "min": 395,
      "la": 396,
      "prov": 397,
      "hel": 398,
      "ful": 399,
      "uc": 400,
      "ms": 401,
      "io": 402,
      "get": 403,
      "tre": 404,
      "mon": 405,
      "many": 406,
      "feren": 407,
      "rel": 408,
      "ob": 409,
      "under": 410,
      "alth": 411,
      "lear": 412,
      "fore": 413,
      "had": 414,
      "ok": 415,
      "child": 416,
      "stem": 417,
      "such": 418,
      "vers": 419,
      "ds": 420,
      "ting": 421,
      "ating": 422,
      "par": 423,
      "land": 424,
      "soci": 425,
      "ific": 426,
      "lect": 427,
      "incl": 428,
      "produ": 429,
      "only": 430,
      "ities": 431,
      "cal": 432,
      "eng": 433,
      "thr": 434,
      "lop": 435,
      "ual": 436,
      "cause": 437,
      "ments": 438,
      "sur": 439,
      "ning": 440,
      "cy": 441,
      "reg": 442,
      "son": 443,
      "need": 444,
      "arch": 445,
      "would": 446,
      "cer": 447,
      "first": 448,
      "car": 449,
      "off": 450,
      "deve": 451,
      "system": 452,
      "ative": 453,
      "help": 454,
      "ject": 455,
      "develop": 456,
      "through": 457,
      "well": 458,
      "ue": 459,
      "sel": 460,
      "ail": 461,
      "pat": 462,
      "water": 463,
      "ten": 464,
      "ree": 465,
      "met": 466,
      "ational": 467,
      "add": 468,
      "vi": 469,
      "read": 470,
      "ular": 471,
      "ied": 472,
      "ck": 473,
      "two": 474,
      "ics": 475,
      "ire": 476,
      "les": 477,
      "pu": 478,
      "where": 479,
      "stand": 480,
      "serv": 481,
      "ph": 482,
      "vel": 483,
      "bu": 484,
      "ak": 485,
      "differen": 486,
      "rese": 487,
      "my": 488,
      "after": 489,
      "bas": 490,
      "tain": 491,
      "lif": 492,
      "pol": 493,
      "ange": 494,
      "ric": 495,
      "row": 496,
      "sci": 497,
      "fin": 498,
      "old": 499,
      "sup": 500,
      "vir": 501,
      "world": 502,
      "ict": 503,
      "high": 504,
      "air": 505,
      "ss": 506,
      "stru": 507,
      "sub": 508,
      "inv": 509,
      "trans": 510,
      "ility": 511,
      "then": 512,
      "plan": 513,
      "ble": 514,
      "ons": 515,
      "als": 516,
      "main": 517,
      "less": 518,
      "just": 519,
      "ced": 520,
      "should": 521,
      "uring": 522,
      "ible": 523,
      "sul": 524,
      "ise": 525,
      "health": 526,
      "see": 527,
      "att": 528,
      "publ": 529,
      "gener": 530,
      "requ": 531,
      "long": 532,
      "wer": 533,
      "cond": 534,
      "years": 535,
      "au": 536,
      "oc": 537,
      "lar": 538,
      "come": 539,
      "bot": 540,
      "ween": 541,
      "ick": 542,
      "make": 543,
      "org": 544,
      "even": 545,
      "sim": 546,
      "she": 547,
      "hum": 548,
      "between": 549,
      "sol": 550,
      "gu": 551,
      "ress": 552,
      "ra": 553,
      "peri": 554,
      "because": 555,
      "exam": 556,
      "ures": 557,
      "ot": 558,
      "wr": 559,
      "amer": 560,
      "ings": 561,
      "spec": 562,
      "val": 563,
      "jo": 564,
      "fun": 565,
      "could": 566,
      "ins": 567,
      "ps": 568,
      "war": 569,
      "tech": 570,
      "know": 571,
      "num": 572,
      "mat": 573,
      "sm": 574,
      "cons": 575,
      "fact": 576,
      "while": 577,
      "import": 578,
      "ious": 579,
      "vis": 580,
      "tem": 581,
      "ident": 582,
      "found": 583,
      "hist": 584,
      "inst": 585,
      "effect": 586,
      "tur": 587,
      "logy": 588,
      "uni": 589,
      "life": 590,
      "ily": 591,
      "inform": 592,
      "nat": 593,
      "iss": 594,
      "fol": 595,
      "using": 596,
      "hed": 597,
      "gy": 598,
      "ger": 599,
      "includ": 600,
      "dat": 601,
      "chool": 602,
      "ural": 603,
      "try": 604,
      "tho": 605,
      "set": 606,
      "app": 607,
      "var": 608,
      "cour": 609,
      "sk": 610,
      "ted": 611,
      "different": 612,
      "mu": 613,
      "call": 614,
      "lin": 615,
      "ited": 616,
      "led": 617,
      "during": 618,
      "sign": 619,
      "national": 620,
      "every": 621,
      "sure": 622,
      "incre": 623,
      "inte": 624,
      "each": 625,
      "commun": 626,
      "thing": 627,
      "children": 628,
      "americ": 629,
      "mal": 630,
      "school": 631,
      "fer": 632,
      "fic": 633,
      "those": 634,
      "ness": 635,
      "vent": 636,
      "ists": 637,
      "being": 638,
      "char": 639,
      "press": 640,
      "ri": 641,
      "state": 642,
      "mem": 643,
      "ages": 644,
      "cus": 645,
      "rest": 646,
      "xt": 647,
      "hor": 648,
      "gram": 649,
      "ives": 650,
      "food": 651,
      "person": 652,
      "bod": 653,
      "process": 654,
      "back": 655,
      "fam": 656,
      "students": 657,
      "vie": 658,
      "bre": 659,
      "ution": 660,
      "ety": 661,
      "self": 662,
      "cap": 663,
      "rect": 664,
      "ically": 665,
      "resul": 666,
      "partic": 667,
      "present": 668,
      "aw": 669,
      "ved": 670,
      "research": 671,
      "information": 672,
      "ices": 673,
      "howe": 674,
      "level": 675,
      "data": 676,
      "aut": 677,
      "however": 678,
      "ys": 679,
      "lead": 680,
      "ris": 681,
      "prote": 682,
      "resp": 683,
      "important": 684,
      "say": 685,
      "blo": 686,
      "said": 687,
      "eas": 688,
      "follow": 689,
      "own": 690,
      "tern": 691,
      "cord": 692,
      "ism": 693,
      "take": 694,
      "view": 695,
      "ves": 696,
      "both": 697,
      "nor": 698,
      "much": 699,
      "good": 700,
      "find": 701,
      "don": 702,
      "cell": 703,
      "study": 704,
      "organ": 705,
      "ath": 706,
      "does": 707,
      "care": 708,
      "grou": 709,
      "light": 710,
      "top": 711,
      "lit": 712,
      "here": 713,
      "line": 714,
      "phy": 715,
      "ade": 716,
      "made": 717,
      "ry": 718,
      "net": 719,
      "let": 720,
      "cept": 721,
      "ize": 722,
      "play": 723,
      "por": 724,
      "before": 725,
      "omet": 726,
      "ized": 727,
      "power": 728,
      "proble": 729,
      "public": 730,
      "plo": 731,
      "pop": 732,
      "gover": 733,
      "sum": 734,
      "down": 735,
      "clo": 736,
      "comple": 737,
      "program": 738,
      "tri": 739,
      "hin": 740,
      "ways": 741,
      "contro": 742,
      "cial": 743,
      "treat": 744,
      "same": 745,
      "class": 746,
      "place": 747,
      "educ": 748,
      "ward": 749,
      "poss": 750,
      "grow": 751,
      "human": 752,
      "show": 753,
      "ving": 754,
      "small": 755,
      "gg": 756,
      "hand": 757,
      "often": 758,
      "ital": 759,
      "sin": 760,
      "del": 761,
      "ude": 762,
      "great": 763,
      "test": 764,
      "tal": 765,
      "ability": 766,
      "har": 767,
      "activ": 768,
      "again": 769,
      "put": 770,
      "issu": 771,
      "envir": 772,
      "ner": 773,
      "elect": 774,
      "environ": 775,
      "bal": 776,
      "ality": 777,
      "kno": 778,
      "design": 779,
      "body": 780,
      "wom": 781,
      "ient": 782,
      "him": 783,
      "ener": 784,
      "cle": 785,
      "ters": 786,
      "leg": 787,
      "pect": 788,
      "govern": 789,
      "thin": 790,
      "nt": 791,
      "ivid": 792,
      "ship": 793,
      "pot": 794,
      "far": 795,
      "tion": 796,
      "struct": 797,
      "vol": 798,
      "appro": 799,
      "versity": 800,
      "mark": 801,
      "number": 802,
      "beg": 803,
      "prof": 804,
      "plic": 805,
      "provid": 806,
      "hree": 807,
      "kes": 808,
      "three": 809,
      "mic": 810,
      "known": 811,
      "allow": 812,
      "contin": 813,
      "build": 814,
      "mus": 815,
      "change": 816,
      "based": 817,
      "writ": 818,
      "order": 819,
      "around": 820,
      "cu": 821,
      "os": 822,
      "example": 823,
      "ished": 824,
      "environment": 825,
      "ben": 826,
      "hough": 827,
      "equ": 828,
      "right": 829,
      "ants": 830,
      "states": 831,
      "though": 832,
      "typ": 833,
      "ix": 834,
      "bro": 835,
      "turn": 836,
      "pract": 837,
      "phys": 838,
      "understand": 839,
      "hs": 840,
      "flu": 841,
      "did": 842,
      "point": 843,
      "must": 844,
      "fac": 845,
      "dep": 846,
      "large": 847,
      "sho": 848,
      "grap": 849,
      "men": 850,
      "energy": 851,
      "lim": 852,
      "tle": 853,
      "support": 854,
      "cas": 855,
      "iving": 856,
      "including": 857,
      "mer": 858,
      "another": 859,
      "ield": 860,
      "quest": 861,
      "pur": 862,
      "somet": 863,
      "development": 864,
      "hers": 865,
      "tribut": 866,
      "law": 867,
      "called": 868,
      "oper": 869,
      "techno": 870,
      "pare": 871,
      "curren": 872,
      "ulation": 873,
      "adv": 874,
      "product": 875,
      "bur": 876,
      "start": 877,
      "social": 878,
      "increas": 879,
      "chang": 880,
      "dec": 881,
      "history": 882,
      "tra": 883,
      "ross": 884,
      "ines": 885,
      "na": 886,
      "ually": 887,
      "move": 888,
      "home": 889,
      "project": 890,
      "experi": 891,
      "ease": 892,
      "common": 893,
      "sit": 894,
      "ord": 895,
      "still": 896,
      "direct": 897,
      "ustr": 898,
      "imp": 899,
      "acter": 900,
      "ids": 901,
      "learn": 902,
      "mater": 903,
      "itions": 904,
      "gn": 905,
      "sym": 906,
      "que": 907,
      "ouse": 908,
      "face": 909,
      "individ": 910,
      "uro": 911,
      "since": 912,
      "mill": 913,
      "ton": 914,
      "anal": 915,
      "sto": 916,
      "ential": 917,
      "head": 918,
      "without": 919,
      "econ": 920,
      "cult": 921,
      "depend": 922,
      "loc": 923,
      "mil": 924,
      "econom": 925,
      "bar": 926,
      "sing": 927,
      "chr": 928,
      "pass": 929,
      "individual": 930,
      "university": 931,
      "ban": 932,
      "miss": 933,
      "within": 934,
      "report": 935,
      "sour": 936,
      "book": 937,
      "disease": 938,
      "action": 939,
      "lab": 940,
      "fa": 941,
      "fort": 942,
      "control": 943,
      "plant": 944,
      "material": 945,
      "want": 946,
      "iven": 947,
      "imate": 948,
      "government": 949,
      "bus": 950,
      "term": 951,
      "might": 952,
      "american": 953,
      "ired": 954,
      "ones": 955,
      "ury": 956,
      "appe": 957,
      "post": 958,
      "ency": 959,
      "logical": 960,
      "last": 961,
      "ken": 962,
      "came": 963,
      "itive": 964,
      "keep": 965,
      "ask": 966,
      "outh": 967,
      "sen": 968,
      "uses": 969,
      "learning": 970,
      "non": 971,
      "ond": 972,
      "pain": 973,
      "ples": 974,
      "nam": 975,
      "meas": 976,
      "anim": 977,
      "lang": 978,
      "bers": 979,
      "ization": 980,
      "sever": 981,
      "gl": 982,
      "early": 983,
      "women": 984,
      "ights": 985,
      "look": 986,
      "free": 987,
      "area": 988,
      "real": 989,
      "risk": 990,
      "hen": 991,
      "fur": 992,
      "house": 993,
      "blood": 994,
      "addition": 995,
      "associ": 996,
      "interest": 997,
      "science": 998,
      "god": 999,
      "group": 1000,
      "ature": 1001,
      "ref": 1002,
      "scient": 1003,
      "hol": 1004,
      "ars": 1005,
      "dom": 1006,
      "best": 1007,
      "beli": 1008,
      "proper": 1009,
      "cording": 1010,
      "ute": 1011,
      "pa": 1012,
      "metho": 1013,
      "ider": 1014,
      "ven": 1015,
      "ug": 1016,
      "second": 1017,
      "inal": 1018,
      "ste": 1019,
      "mont": 1020,
      "ason": 1021,
      "ived": 1022,
      "orig": 1023,
      "dam": 1024,
      "ets": 1025,
      "til": 1026,
      "possible": 1027,
      "maj": 1028,
      "name": 1029,
      "ele": 1030,
      "bio": 1031,
      "pho": 1032,
      "bir": 1033,
      "langu": 1034,
      "suc": 1035,
      "vari": 1036,
      "family": 1037,
      "type": 1038,
      "ains": 1039,
      "why": 1040,
      "current": 1041,
      "include": 1042,
      "ared": 1043,
      "education": 1044,
      "ium": 1045,
      "few": 1046,
      "ga": 1047,
      "field": 1048,
      "bor": 1049,
      "open": 1050,
      "avail": 1051,
      "mean": 1052,
      "ek": 1053,
      "hes": 1054,
      "ians": 1055,
      "better": 1056,
      "list": 1057,
      "ats": 1058,
      "several": 1059,
      "ier": 1060,
      "too": 1061,
      "usu": 1062,
      "according": 1063,
      "access": 1064,
      "ground": 1065,
      "works": 1066,
      "major": 1067,
      "cost": 1068,
      "natural": 1069,
      "become": 1070,
      "among": 1071,
      "prevent": 1072,
      "comes": 1073,
      "certain": 1074,
      "ww": 1075,
      "tt": 1076,
      "iness": 1077,
      "provide": 1078,
      "ients": 1079,
      "und": 1080,
      "conne": 1081,
      "hal": 1082,
      "feel": 1083,
      "four": 1084,
      "against": 1085,
      "species": 1086,
      "cut": 1087,
      "artic": 1088,
      "rad": 1089,
      "near": 1090,
      "benef": 1091,
      "bs": 1092,
      "flow": 1093,
      "wa": 1094,
      "hig": 1095,
      "ional": 1096,
      "mit": 1097,
      "treatment": 1098,
      "itical": 1099,
      "arth": 1100,
      "united": 1101,
      "ination": 1102,
      "key": 1103,
      "glo": 1104,
      "sw": 1105,
      "text": 1106,
      "fil": 1107,
      "period": 1108,
      "descr": 1109,
      "vo": 1110,
      "times": 1111,
      "centr": 1112,
      "trad": 1113,
      "model": 1114,
      "resour": 1115,
      "ator": 1116,
      "ext": 1117,
      "ify": 1118,
      "redu": 1119,
      "hn": 1120,
      "making": 1121,
      "exp": 1122,
      "today": 1123,
      "iate": 1124,
      "reco": 1125,
      "particular": 1126,
      "arr": 1127,
      "means": 1128,
      "technology": 1129,
      "happ": 1130,
      "signific": 1131,
      "case": 1132,
      "ues": 1133,
      "aim": 1134,
      "others": 1135,
      "den": 1136,
      "ences": 1137,
      "invol": 1138,
      "fig": 1139,
      "systems": 1140,
      "step": 1141,
      "ended": 1142,
      "ft": 1143,
      "plac": 1144,
      "run": 1145,
      "think": 1146,
      "sis": 1147,
      "general": 1148,
      "exper": 1149,
      "available": 1150,
      "following": 1151,
      "local": 1152,
      "mor": 1153,
      "ls": 1154,
      "city": 1155,
      "things": 1156,
      "nal": 1157,
      "ills": 1158,
      "az": 1159,
      "stre": 1160,
      "ni": 1161,
      "bi": 1162,
      "pto": 1163,
      "bab": 1164,
      "percent": 1165,
      "sun": 1166,
      "profess": 1167,
      "dev": 1168,
      "country": 1169,
      "space": 1170,
      "industr": 1171,
      "cam": 1172,
      "lish": 1173,
      "ply": 1174,
      "ye": 1175,
      "areas": 1176,
      "mid": 1177,
      "aining": 1178,
      "ified": 1179,
      "pap": 1180,
      "comput": 1181,
      "due": 1182,
      "affect": 1183,
      "remain": 1184,
      "cir": 1185,
      "ards": 1186,
      "ii": 1187,
      "youn": 1188,
      "occur": 1189,
      "mis": 1190,
      "hus": 1191,
      "side": 1192,
      "sc": 1193,
      "nort": 1194,
      "medic": 1195,
      "little": 1196,
      "wo": 1197,
      "ories": 1198,
      "mot": 1199,
      "cop": 1200,
      "gress": 1201,
      "prim": 1202,
      "success": 1203,
      "mult": 1204,
      "tail": 1205,
      "later": 1206,
      "dist": 1207,
      "given": 1208,
      "object": 1209,
      "ides": 1210,
      "south": 1211,
      "language": 1212,
      "function": 1213,
      "manage": 1214,
      "says": 1215,
      "mind": 1216,
      "consider": 1217,
      "author": 1218,
      "room": 1219,
      "protect": 1220,
      "idence": 1221,
      "never": 1222,
      "arc": 1223,
      "colle": 1224,
      "earth": 1225,
      "teac": 1226,
      "ilar": 1227,
      "beha": 1228,
      "north": 1229,
      "euro": 1230,
      "expl": 1231,
      "hard": 1232,
      "community": 1233,
      "invest": 1234,
      "ox": 1235,
      "ling": 1236,
      "prove": 1237,
      "acc": 1238,
      "dro": 1239,
      "once": 1240,
      "ped": 1241,
      "short": 1242,
      "although": 1243,
      "problems": 1244,
      "similar": 1245,
      "cancer": 1246,
      "position": 1247,
      "comb": 1248,
      "century": 1249,
      "specific": 1250,
      "acy": 1251,
      "further": 1252,
      "rece": 1253,
      "defin": 1254,
      "course": 1255,
      "significant": 1256,
      "words": 1257,
      "word": 1258,
      "stat": 1259,
      "behavi": 1260,
      "ior": 1261,
      "ina": 1262,
      "spect": 1263,
      "until": 1264,
      "recent": 1265,
      "amoun": 1266,
      "levels": 1267,
      "ready": 1268,
      "clear": 1269,
      "mag": 1270,
      "une": 1271,
      "posed": 1272,
      "usually": 1273,
      "nut": 1274,
      "likely": 1275,
      "related": 1276,
      "lands": 1277,
      "going": 1278,
      "ont": 1279,
      "wide": 1280,
      "chan": 1281,
      "problem": 1282,
      "sequ": 1283,
      "working": 1284,
      "black": 1285,
      "days": 1286,
      "heart": 1287,
      "fut": 1288,
      "cells": 1289,
      "cially": 1290,
      "ches": 1291,
      "create": 1292,
      "result": 1293,
      "prin": 1294,
      "const": 1295,
      "ests": 1296,
      "studies": 1297,
      "bon": 1298,
      "instit": 1299,
      "ming": 1300,
      "along": 1301,
      "fall": 1302,
      "minis": 1303,
      "active": 1304,
      "next": 1305,
      "plants": 1306,
      "abo": 1307,
      "boo": 1308,
      "ah": 1309,
      "bit": 1310,
      "special": 1311,
      "tom": 1312,
      "sal": 1313,
      "effective": 1314,
      "green": 1315,
      "death": 1316,
      "rele": 1317,
      "business": 1318,
      "sugg": 1319,
      "europe": 1320,
      "big": 1321,
      "white": 1322,
      "ru": 1323,
      "kind": 1324,
      "dig": 1325,
      "moder": 1326,
      "temper": 1327,
      "results": 1328,
      "gar": 1329,
      "hold": 1330,
      "cing": 1331,
      "give": 1332,
      "always": 1333,
      "exist": 1334,
      "ering": 1335,
      "tries": 1336,
      "cul": 1337,
      "hab": 1338,
      "quality": 1339,
      "pet": 1340,
      "toge": 1341,
      "brain": 1342,
      "oid": 1343,
      "together": 1344,
      "sympto": 1345,
      "hom": 1346,
      "sens": 1347,
      "patients": 1348,
      "ledge": 1349,
      "sed": 1350,
      "ends": 1351,
      "applic": 1352,
      "future": 1353,
      "suf": 1354,
      "connect": 1355,
      "types": 1356,
      "ither": 1357,
      "young": 1358,
      "increase": 1359,
      "christ": 1360,
      "necess": 1361,
      "mass": 1362,
      "something": 1363,
      "aring": 1364,
      "ann": 1365,
      "dont": 1366,
      "jour": 1367,
      "tool": 1368,
      "discus": 1369,
      "aged": 1370,
      "seem": 1371,
      "medical": 1372,
      "character": 1373,
      "population": 1374,
      "diffic": 1375,
      "ash": 1376,
      "experience": 1377,
      "various": 1378,
      "changes": 1379,
      "estab": 1380,
      "wal": 1381,
      "pal": 1382,
      "researc": 1383,
      "conditions": 1384,
      "strong": 1385,
      "emplo": 1386,
      "ane": 1387,
      "sam": 1388,
      "hous": 1389,
      "having": 1390,
      "strate": 1391,
      "lat": 1392,
      "whether": 1393,
      "labor": 1394,
      "begin": 1395,
      "complete": 1396,
      "cover": 1397,
      "fed": 1398,
      "higher": 1399,
      "lot": 1400,
      "win": 1401,
      "chem": 1402,
      "ju": 1403,
      "improve": 1404,
      "histor": 1405,
      "needs": 1406,
      "ances": 1407,
      "loo": 1408,
      "respons": 1409,
      "ained": 1410,
      "ever": 1411,
      "gas": 1412,
      "full": 1413,
      "ision": 1414,
      "ought": 1415,
      "hir": 1416,
      "physical": 1417,
      "relation": 1418,
      "effects": 1419,
      "aps": 1420,
      "espe": 1421,
      "polic": 1422,
      "production": 1423,
      "above": 1424,
      "vious": 1425,
      "tic": 1426,
      "atic": 1427,
      "paren": 1428,
      "grad": 1429,
      "ctor": 1430,
      "issue": 1431,
      "million": 1432,
      "hic": 1433,
      "role": 1434,
      "count": 1435,
      "ned": 1436,
      "climate": 1437,
      "especially": 1438,
      "source": 1439,
      "past": 1440,
      "communic": 1441,
      "analys": 1442,
      "tract": 1443,
      "imm": 1444,
      "sco": 1445,
      "team": 1446,
      "across": 1447,
      "brit": 1448,
      "lower": 1449,
      "afric": 1450,
      "international": 1451,
      "cat": 1452,
      "issues": 1453,
      "require": 1454,
      "away": 1455,
      "symptoms": 1456,
      "force": 1457,
      "countries": 1458,
      "hour": 1459,
      "article": 1460,
      "photo": 1461,
      "john": 1462,
      "resources": 1463,
      "impact": 1464,
      "engine": 1465,
      "ster": 1466,
      "left": 1467,
      "aster": 1468,
      "concer": 1469,
      "ators": 1470,
      "society": 1471,
      "imes": 1472,
      "represent": 1473,
      "ler": 1474,
      "wat": 1475,
      "ws": 1476,
      "west": 1477,
      "pan": 1478,
      "knowledge": 1479,
      "expect": 1480,
      "chall": 1481,
      "building": 1482,
      "activity": 1483,
      "aging": 1484,
      "least": 1485,
      "nature": 1486,
      "ilities": 1487,
      "micro": 1488,
      "intro": 1489,
      "althy": 1490,
      "loss": 1491,
      "wood": 1492,
      "atures": 1493,
      "fri": 1494,
      "teach": 1495,
      "rate": 1496,
      "ently": 1497,
      "subject": 1498,
      "range": 1499,
      "pay": 1500,
      "influ": 1501,
      "init": 1502,
      "aves": 1503,
      "indic": 1504,
      "mach": 1505,
      "ses": 1506,
      "cit": 1507,
      "pression": 1508,
      "fully": 1509,
      "sha": 1510,
      "global": 1511,
      "psy": 1512,
      "cro": 1513,
      "selves": 1514,
      "eth": 1515,
      "offic": 1516,
      "management": 1517,
      "growt": 1518,
      "atory": 1519,
      "oney": 1520,
      "question": 1521,
      "gs": 1522,
      "cases": 1523,
      "ately": 1524,
      "verse": 1525,
      "story": 1526,
      "enough": 1527,
      "researchers": 1528,
      "value": 1529,
      "center": 1530,
      "growth": 1531,
      "introdu": 1532,
      "live": 1533,
      "ised": 1534,
      "tar": 1535,
      "tradition": 1536,
      "thir": 1537,
      "service": 1538,
      "member": 1539,
      "company": 1540,
      "ires": 1541,
      "paper": 1542,
      "economic": 1543,
      "ially": 1544,
      "ention": 1545,
      "spr": 1546,
      "itor": 1547,
      "sof": 1548,
      "rather": 1549,
      "ago": 1550,
      "lay": 1551,
      "pred": 1552,
      "below": 1553,
      "drug": 1554,
      "color": 1555,
      "ank": 1556,
      "reason": 1557,
      "five": 1558,
      "chur": 1559,
      "termin": 1560,
      "rights": 1561,
      "tell": 1562,
      "pose": 1563,
      "diag": 1564,
      "english": 1565,
      "inc": 1566,
      "weight": 1567,
      "ham": 1568,
      "explo": 1569,
      "ze": 1570,
      "ark": 1571,
      "particip": 1572,
      "phil": 1573,
      "oil": 1574,
      "consum": 1575,
      "site": 1576,
      "ns": 1577,
      "potential": 1578,
      "understanding": 1579,
      "groups": 1580,
      "yet": 1581,
      "activities": 1582,
      "web": 1583,
      "market": 1584,
      "healthy": 1585,
      "products": 1586,
      "eral": 1587,
      "def": 1588,
      "sent": 1589,
      "tu": 1590,
      "flo": 1591,
      "mand": 1592,
      "bed": 1593,
      "thus": 1594,
      "recogn": 1595,
      "thern": 1596,
      "event": 1597,
      "makes": 1598,
      "frequ": 1599,
      "soil": 1600,
      "observ": 1601,
      "sch": 1602,
      "toward": 1603,
      "contribut": 1604,
      "seen": 1605,
      "uel": 1606,
      "became": 1607,
      "amount": 1608,
      "dy": 1609,
      "syn": 1610,
      "htt": 1611,
      "onic": 1612,
      "size": 1613,
      "modern": 1614,
      "close": 1615,
      "environmental": 1616,
      "sou": 1617,
      "multi": 1618,
      "services": 1619,
      "collect": 1620,
      "sle": 1621,
      "bul": 1622,
      "relig": 1623,
      "amin": 1624,
      "ables": 1625,
      "lines": 1626,
      "feed": 1627,
      "exer": 1628,
      "ental": 1629,
      "hip": 1630,
      "fire": 1631,
      "avoid": 1632,
      "electr": 1633,
      "skills": 1634,
      "acks": 1635,
      "ik": 1636,
      "week": 1637,
      "acts": 1638,
      "continu": 1639,
      "taken": 1640,
      "developed": 1641,
      "achie": 1642,
      "reduce": 1643,
      "assess": 1644,
      "saf": 1645,
      "living": 1646,
      "sea": 1647,
      "coming": 1648,
      "ined": 1649,
      "difficult": 1650,
      "questions": 1651,
      "analysis": 1652,
      "road": 1653,
      "spir": 1654,
      "practice": 1655,
      "sex": 1656,
      "ison": 1657,
      "surface": 1658,
      "rich": 1659,
      "fat": 1660,
      "either": 1661,
      "members": 1662,
      "already": 1663,
      "pen": 1664,
      "done": 1665,
      "address": 1666,
      "chemical": 1667,
      "remo": 1668,
      "effic": 1669,
      "ley": 1670,
      "uary": 1671,
      "therefore": 1672,
      "load": 1673,
      "sound": 1674,
      "actions": 1675,
      "scal": 1676,
      "stress": 1677,
      "really": 1678,
      "meet": 1679,
      "forms": 1680,
      "fish": 1681,
      "ibility": 1682,
      "diet": 1683,
      "single": 1684,
      "recomm": 1685,
      "upon": 1686,
      "plement": 1687,
      "ening": 1688,
      "skin": 1689,
      "ilt": 1690,
      "ched": 1691,
      "situ": 1692,
      "civ": 1693,
      "evidence": 1694,
      "reading": 1695,
      "og": 1696,
      "associated": 1697,
      "vered": 1698,
      "vit": 1699,
      "hu": 1700,
      "mission": 1701,
      "ames": 1702,
      "priv": 1703,
      "ore": 1704,
      "fail": 1705,
      "liter": 1706,
      "political": 1707,
      "pressure": 1708,
      "online": 1709,
      "half": 1710,
      "inste": 1711,
      "emp": 1712,
      "published": 1713,
      "outs": 1714,
      "review": 1715,
      "claim": 1716,
      "struction": 1717,
      "return": 1718,
      "detail": 1719,
      "animals": 1720,
      "parents": 1721,
      "depart": 1722,
      "focus": 1723,
      "materials": 1724,
      "whole": 1725,
      "normal": 1726,
      "increased": 1727,
      "famil": 1728,
      "forest": 1729,
      "writing": 1730,
      "parts": 1731,
      "pread": 1732,
      "round": 1733,
      "aver": 1734,
      "duct": 1735,
      "cise": 1736,
      "ification": 1737,
      "taking": 1738,
      "personal": 1739,
      "gest": 1740,
      "clean": 1741,
      "ged": 1742,
      "emer": 1743,
      "safe": 1744,
      "sometimes": 1745,
      "bill": 1746,
      "formed": 1747,
      "simple": 1748,
      "yes": 1749,
      "central": 1750,
      "created": 1751,
      "suggest": 1752,
      "ping": 1753,
      "opport": 1754,
      "ival": 1755,
      "mber": 1756,
      "ae": 1757,
      "maintain": 1758,
      "condition": 1759,
      "idered": 1760,
      "opportun": 1761,
      "istic": 1762,
      "docu": 1763,
      "secur": 1764,
      "check": 1765,
      "subst": 1766,
      "uk": 1767,
      "considered": 1768,
      "motion": 1769,
      "approach": 1770,
      "individuals": 1771,
      "river": 1772,
      "complex": 1773,
      "computer": 1774,
      "smo": 1775,
      "necessary": 1776,
      "ference": 1777,
      "squ": 1778,
      "almost": 1779,
      "student": 1780,
      "moun": 1781,
      "eve": 1782,
      "ports": 1783,
      "utions": 1784,
      "relationship": 1785,
      "princi": 1786,
      "got": 1787,
      "scr": 1788,
      "neg": 1789,
      "church": 1790,
      "factors": 1791,
      "ending": 1792,
      "quick": 1793,
      "books": 1794,
      "yor": 1795,
      "rus": 1796,
      "link": 1797,
      "therap": 1798,
      "iction": 1799,
      "tro": 1800,
      "page": 1801,
      "regular": 1802,
      "rap": 1803,
      "actually": 1804,
      "print": 1805,
      "infect": 1806,
      "wild": 1807,
      "compan": 1808,
      "rit": 1809,
      "lives": 1810,
      "guide": 1811,
      "news": 1812,
      "ese": 1813,
      "civil": 1814,
      "techni": 1815,
      "training": 1816,
      "hind": 1817,
      "ave": 1818,
      "stor": 1819,
      "eds": 1820,
      "instead": 1821,
      "clin": 1822,
      "div": 1823,
      "themselves": 1824,
      "thought": 1825,
      "sat": 1826,
      "regard": 1827,
      "visit": 1828,
      "money": 1829,
      "required": 1830,
      "town": 1831,
      "carbon": 1832,
      "mental": 1833,
      "needed": 1834,
      "job": 1835,
      "cannot": 1836,
      "content": 1837,
      "schools": 1838,
      "measure": 1839,
      "hib": 1840,
      "produce": 1841,
      "record": 1842,
      "hre": 1843,
      "jud": 1844,
      "wall": 1845,
      "appear": 1846,
      "ensive": 1847,
      "method": 1848,
      "diagno": 1849,
      "super": 1850,
      "male": 1851,
      "idea": 1852,
      "lying": 1853,
      "journal": 1854,
      "total": 1855,
      "pie": 1856,
      "sl": 1857,
      "conf": 1858,
      "san": 1859,
      "throughout": 1860,
      "provides": 1861,
      "behavior": 1862,
      "reduc": 1863,
      "kill": 1864,
      "ased": 1865,
      "tru": 1866,
      "scientists": 1867,
      "ded": 1868,
      "sleep": 1869,
      "popular": 1870,
      "america": 1871,
      "describ": 1872,
      "commit": 1873,
      "entire": 1874,
      "ands": 1875,
      "heav": 1876,
      "respon": 1877,
      "bol": 1878,
      "covered": 1879,
      "igr": 1880,
      "image": 1881,
      "sect": 1882,
      "wes": 1883,
      "board": 1884,
      "security": 1885,
      "thre": 1886,
      "york": 1887,
      "sil": 1888,
      "draw": 1889,
      "president": 1890,
      "ured": 1891,
      "aud": 1892,
      "note": 1893,
      "standard": 1894,
      "night": 1895,
      "benefits": 1896,
      "six": 1897,
      "discuss": 1898,
      "cup": 1899,
      "share": 1900,
      "sust": 1901,
      "built": 1902,
      "evol": 1903,
      "degre": 1904,
      "vide": 1905,
      "previous": 1906,
      "region": 1907,
      "tax": 1908,
      "music": 1909,
      "conduct": 1910,
      "increasing": 1911,
      "experim": 1912,
      "uck": 1913,
      "months": 1914,
      "fill": 1915,
      "fre": 1916,
      "heat": 1917,
      "ief": 1918,
      "ays": 1919,
      "rul": 1920,
      "hun": 1921,
      "pattern": 1922,
      "ba": 1923,
      "ising": 1924,
      "table": 1925,
      "separ": 1926,
      "star": 1927,
      "break": 1928,
      "safety": 1929,
      "roy": 1930,
      "dou": 1931,
      "hood": 1932,
      "ose": 1933,
      "itself": 1934,
      "ging": 1935,
      "ney": 1936,
      "card": 1937,
      "took": 1938,
      "ints": 1939,
      "wel": 1940,
      "industry": 1941,
      "date": 1942,
      "positive": 1943,
      "geo": 1944,
      "fair": 1945,
      "origin": 1946,
      "fru": 1947,
      "employ": 1948,
      "temperature": 1949,
      "hon": 1950,
      "contact": 1951,
      "structure": 1952,
      "austr": 1953,
      "izing": 1954,
      "true": 1955,
      "love": 1956,
      "inde": 1957,
      "reli": 1958,
      "respect": 1959,
      "deep": 1960,
      "electric": 1961,
      "policy": 1962,
      "itary": 1963,
      "vere": 1964,
      "meaning": 1965,
      "decl": 1966,
      "original": 1967,
      "ching": 1968,
      "culture": 1969,
      "ford": 1970,
      "ges": 1971,
      "pers": 1972,
      "usion": 1973,
      "dle": 1974,
      "eco": 1975,
      "viol": 1976,
      "cross": 1977,
      "sense": 1978,
      "bel": 1979,
      "resist": 1980,
      "integr": 1981,
      "crim": 1982,
      "causes": 1983,
      "gard": 1984,
      "dete": 1985,
      "bacter": 1986,
      "select": 1987,
      "section": 1988,
      "ption": 1989,
      "canad": 1990,
      "ened": 1991,
      "began": 1992,
      "jan": 1993,
      "establ": 1994,
      "adminis": 1995,
      "ense": 1996,
      "surv": 1997,
      "ram": 1998,
      "www": 1999,
      "late": 2000,
      "eat": 2001,
      "methods": 2002,
      "habit": 2003,
      "terms": 2004,
      "matter": 2005,
      "easy": 2006,
      "stop": 2007,
      "vision": 2008,
      "opt": 2009,
      "extre": 2010,
      "british": 2011,
      "mechan": 2012,
      "teachers": 2013,
      "scre": 2014,
      "bring": 2015,
      "identify": 2016,
      "independ": 2017,
      "shows": 2018,
      "hours": 2019,
      "drin": 2020,
      "correct": 2021,
      "essential": 2022,
      "mother": 2023,
      "aug": 2024,
      "abs": 2025,
      "genet": 2026,
      "wind": 2027,
      "kids": 2028,
      "yle": 2029,
      "court": 2030,
      "enter": 2031,
      "written": 2032,
      "utes": 2033,
      "progress": 2034,
      "longer": 2035,
      "perfor": 2036,
      "iation": 2037,
      "average": 2038,
      "aware": 2039,
      "determin": 2040,
      "jap": 2041,
      "alu": 2042,
      "movement": 2043,
      "programs": 2044,
      "stren": 2045,
      "designed": 2046,
      "ino": 2047,
      "spread": 2048,
      "ax": 2049,
      "figure": 2050,
      "target": 2051,
      "caused": 2052,
      "ivity": 2053,
      "regul": 2054,
      "erous": 2055,
      "mess": 2056,
      "mac": 2057,
      "nov": 2058,
      "third": 2059,
      "bat": 2060,
      "response": 2061,
      "front": 2062,
      "compet": 2063,
      "accept": 2064,
      "media": 2065,
      "cular": 2066,
      "da": 2067,
      "east": 2068,
      "ather": 2069,
      "ips": 2070,
      "improv": 2071,
      "lling": 2072,
      "reach": 2073,
      "western": 2074,
      "pict": 2075,
      "dest": 2076,
      "provided": 2077,
      "includes": 2078,
      "department": 2079,
      "basic": 2080,
      "generally": 2081,
      "ensure": 2082,
      "pul": 2083,
      "assist": 2084,
      "encour": 2085,
      "greater": 2086,
      "surve": 2087,
      "tex": 2088,
      "foot": 2089,
      "contain": 2090,
      "poor": 2091,
      "network": 2092,
      "respond": 2093,
      "rain": 2094,
      "ding": 2095,
      "ugh": 2096,
      "anti": 2097,
      "lon": 2098,
      "sources": 2099,
      "streng": 2100,
      "performan": 2101,
      "cks": 2102,
      "foods": 2103,
      "simply": 2104,
      "growing": 2105,
      "fection": 2106,
      "aft": 2107,
      "born": 2108,
      "finan": 2109,
      "sem": 2110,
      "middle": 2111,
      "lam": 2112,
      "colon": 2113,
      "helps": 2114,
      "looking": 2115,
      "agric": 2116,
      "demon": 2117,
      "challeng": 2118,
      "animal": 2119,
      "shown": 2120,
      "etc": 2121,
      "doing": 2122,
      "nation": 2123,
      "aily": 2124,
      "relative": 2125,
      "ners": 2126,
      "solar": 2127,
      "ishing": 2128,
      "series": 2129,
      "ably": 2130,
      "astic": 2131,
      "concept": 2132,
      "agricult": 2133,
      "ring": 2134,
      "appl": 2135,
      "getting": 2136,
      "bes": 2137,
      "dia": 2138,
      "consist": 2139,
      "distribut": 2140,
      "reported": 2141,
      "scientific": 2142,
      "japan": 2143,
      "brid": 2144,
      "daily": 2145,
      "rs": 2146,
      "ades": 2147,
      "constit": 2148,
      "events": 2149,
      "damage": 2150,
      "variety": 2151,
      "eye": 2152,
      "joy": 2153,
      "farm": 2154,
      "cast": 2155,
      "fle": 2156,
      "account": 2157,
      "manu": 2158,
      "corpor": 2159,
      "anci": 2160,
      "mediate": 2161,
      "psycho": 2162,
      "father": 2163,
      "ift": 2164,
      "istics": 2165,
      "conserv": 2166,
      "park": 2167,
      "tree": 2168,
      "believe": 2169,
      "placed": 2170,
      "implement": 2171,
      "demand": 2172,
      "developing": 2173,
      "appropr": 2174,
      "nia": 2175,
      "dry": 2176,
      "tor": 2177,
      "compon": 2178,
      "produced": 2179,
      "fast": 2180,
      "contr": 2181,
      "particularly": 2182,
      "federal": 2183,
      "manufact": 2184,
      "cil": 2185,
      "outside": 2186,
      "tered": 2187,
      "travel": 2188,
      "continue": 2189,
      "argu": 2190,
      "ball": 2191,
      "bad": 2192,
      "primary": 2193,
      "itis": 2194,
      "code": 2195,
      "attle": 2196,
      "probab": 2197,
      "gi": 2198,
      "won": 2199,
      "evalu": 2200,
      "diseas": 2201,
      "host": 2202,
      "performance": 2203,
      "traditional": 2204,
      "attention": 2205,
      "inary": 2206,
      "answer": 2207,
      "theory": 2208,
      "lled": 2209,
      "ried": 2210,
      "month": 2211,
      "vacc": 2212,
      "austral": 2213,
      "acade": 2214,
      "india": 2215,
      "crit": 2216,
      "infl": 2217,
      "http": 2218,
      "sites": 2219,
      "involved": 2220,
      "sustain": 2221,
      "therapy": 2222,
      "ana": 2223,
      "refer": 2224,
      "oce": 2225,
      "ery": 2226,
      "extreme": 2227,
      "veget": 2228,
      "aches": 2229,
      "lu": 2230,
      "numbers": 2231,
      "graph": 2232,
      "fit": 2233,
      "gal": 2234,
      "bud": 2235,
      "investig": 2236,
      "express": 2237,
      "fuel": 2238,
      "pts": 2239,
      "protection": 2240,
      "tit": 2241,
      "inj": 2242,
      "rock": 2243,
      "legal": 2244,
      "leaders": 2245,
      "cry": 2246,
      "concl": 2247,
      "german": 2248,
      "birt": 2249,
      "scale": 2250,
      "feet": 2251,
      "pi": 2252,
      "engt": 2253,
      "lic": 2254,
      "eks": 2255,
      "college": 2256,
      "diseases": 2257,
      "points": 2258,
      "ials": 2259,
      "tools": 2260,
      "slow": 2261,
      "waste": 2262,
      "probably": 2263,
      "serious": 2264,
      "bey": 2265,
      "libr": 2266,
      "additional": 2267,
      "analy": 2268,
      "mas": 2269,
      "rup": 2270,
      "poll": 2271,
      "search": 2272,
      "auto": 2273,
      "ises": 2274,
      "sus": 2275,
      "nes": 2276,
      "cies": 2277,
      "ideas": 2278,
      "iting": 2279,
      "gold": 2280,
      "march": 2281,
      "version": 2282,
      "multiple": 2283,
      "teaching": 2284,
      "prior": 2285,
      "ques": 2286,
      "rench": 2287,
      "patient": 2288,
      "attem": 2289,
      "held": 2290,
      "appropriate": 2291,
      "military": 2292,
      "copy": 2293,
      "cali": 2294,
      "err": 2295,
      "pus": 2296,
      "orders": 2297,
      "takes": 2298,
      "decre": 2299,
      "agree": 2300,
      "document": 2301,
      "pret": 2302,
      "estim": 2303,
      "advant": 2304,
      "medicine": 2305,
      "deal": 2306,
      "critical": 2307,
      "hosp": 2308,
      "write": 2309,
      "included": 2310,
      "video": 2311,
      "nit": 2312,
      "minim": 2313,
      "wise": 2314,
      "soon": 2315,
      "tox": 2316,
      "stay": 2317,
      "equip": 2318,
      "cred": 2319,
      "diabet": 2320,
      "companies": 2321,
      "exercise": 2322,
      "lack": 2323,
      "ene": 2324,
      "iam": 2325,
      "spo": 2326,
      "allows": 2327,
      "ancient": 2328,
      "apr": 2329,
      "trees": 2330,
      "wish": 2331,
      "digital": 2332,
      "ached": 2333,
      "broad": 2334,
      "arily": 2335,
      "county": 2336,
      "humans": 2337,
      "vert": 2338,
      "arm": 2339,
      "aries": 2340,
      "ites": 2341,
      "inside": 2342,
      "pack": 2343,
      "transport": 2344,
      "deb": 2345,
      "enced": 2346,
      "limited": 2347,
      "communities": 2348,
      "demo": 2349,
      "compared": 2350,
      "dang": 2351,
      "fav": 2352,
      "internet": 2353,
      "ults": 2354,
      "thous": 2355,
      "difference": 2356,
      "py": 2357,
      "european": 2358,
      "base": 2359,
      "prepare": 2360,
      "accur": 2361,
      "sav": 2362,
      "acid": 2363,
      "poly": 2364,
      "administr": 2365,
      "leading": 2366,
      "stream": 2367,
      "offer": 2368,
      "established": 2369,
      "infection": 2370,
      "aking": 2371,
      "reflect": 2372,
      "oth": 2373,
      "added": 2374,
      "trade": 2375,
      "supply": 2376,
      "termine": 2377,
      "concentr": 2378,
      "revol": 2379,
      "deli": 2380,
      "determine": 2381,
      "protein": 2382,
      "china": 2383,
      "attack": 2384,
      "quite": 2385,
      "hors": 2386,
      "birth": 2387,
      "negative": 2388,
      "quant": 2389,
      "easily": 2390,
      "ctions": 2391,
      "cultural": 2392,
      "construction": 2393,
      "threat": 2394,
      "gro": 2395,
      "indian": 2396,
      "beginning": 2397,
      "office": 2398,
      "achieve": 2399,
      "unique": 2400,
      "hydro": 2401,
      "someone": 2402,
      "nuc": 2403,
      "workers": 2404,
      "nas": 2405,
      "washing": 2406,
      "speed": 2407,
      "graphy": 2408,
      "anced": 2409,
      "ipt": 2410,
      "friend": 2411,
      "box": 2412,
      "strateg": 2413,
      "severe": 2414,
      "talk": 2415,
      "mob": 2416,
      "native": 2417,
      "max": 2418,
      "iat": 2419,
      "wort": 2420,
      "spirit": 2421,
      "started": 2422,
      "blue": 2423,
      "itation": 2424,
      "island": 2425,
      "ake": 2426,
      "financial": 2427,
      "van": 2428,
      "cru": 2429,
      "lun": 2430,
      "chap": 2431,
      "rac": 2432,
      "french": 2433,
      "tware": 2434,
      "located": 2435,
      "adap": 2436,
      "doctor": 2437,
      "nel": 2438,
      "immediate": 2439,
      "larger": 2440,
      "setting": 2441,
      "tas": 2442,
      "software": 2443,
      "communication": 2444,
      "coast": 2445,
      "mom": 2446,
      "proced": 2447,
      "iency": 2448,
      "families": 2449,
      "desp": 2450,
      "promo": 2451,
      "ties": 2452,
      "tests": 2453,
      "spring": 2454,
      "jes": 2455,
      "compl": 2456,
      "tend": 2457,
      "cture": 2458,
      "behind": 2459,
      "institute": 2460,
      "isions": 2461,
      "images": 2462,
      "capital": 2463,
      "reve": 2464,
      "commer": 2465,
      "fight": 2466,
      "organization": 2467,
      "highly": 2468,
      "ension": 2469,
      "location": 2470,
      "rome": 2471,
      "typically": 2472,
      "cycl": 2473,
      "thinking": 2474,
      "mc": 2475,
      "perh": 2476,
      "game": 2477,
      "pp": 2478,
      "purpose": 2479,
      "mary": 2480,
      "quickly": 2481,
      "command": 2482,
      "places": 2483,
      "nav": 2484,
      "rid": 2485,
      "values": 2486,
      "asons": 2487,
      "remember": 2488,
      "perhaps": 2489,
      "map": 2490,
      "hope": 2491,
      "mes": 2492,
      "muse": 2493,
      "except": 2494,
      "believ": 2495,
      "examples": 2496,
      "cou": 2497,
      "mole": 2498,
      "wers": 2499,
      "ided": 2500,
      "imag": 2501,
      "ission": 2502,
      "serve": 2503,
      "went": 2504,
      "testing": 2505,
      "aff": 2506,
      "summer": 2507,
      "private": 2508,
      "ai": 2509,
      "dark": 2510,
      "june": 2511,
      "distr": 2512,
      "aspect": 2513,
      "monitor": 2514,
      "inf": 2515,
      "hot": 2516,
      "califor": 2517,
      "eating": 2518,
      "directly": 2519,
      "winter": 2520,
      "please": 2521,
      "item": 2522,
      "application": 2523,
      "path": 2524,
      "lengt": 2525,
      "towards": 2526,
      "stage": 2527,
      "altern": 2528,
      "ceed": 2529,
      "features": 2530,
      "sep": 2531,
      "block": 2532,
      "ively": 2533,
      "expected": 2534,
      "secre": 2535,
      "cold": 2536,
      "youre": 2537,
      "cape": 2538,
      "mix": 2539,
      "nations": 2540,
      "creating": 2541,
      "lost": 2542,
      "russ": 2543,
      "oles": 2544,
      "expo": 2545,
      "historical": 2546,
      "sn": 2547,
      "rates": 2548,
      "cool": 2549,
      "solution": 2550,
      "nearly": 2551,
      "mountain": 2552,
      "dav": 2553,
      "birds": 2554,
      "vic": 2555,
      "cate": 2556,
      "august": 2557,
      "pair": 2558,
      "speak": 2559,
      "virus": 2560,
      "perform": 2561,
      "lets": 2562,
      "elements": 2563,
      "memory": 2564,
      "projects": 2565,
      "overall": 2566,
      "stone": 2567,
      "useful": 2568,
      "reser": 2569,
      "museum": 2570,
      "adults": 2571,
      "hund": 2572,
      "oud": 2573,
      "capac": 2574,
      "swe": 2575,
      "african": 2576,
      "season": 2577,
      "april": 2578,
      "union": 2579,
      "teacher": 2580,
      "oso": 2581,
      "association": 2582,
      "ancy": 2583,
      "currently": 2584,
      "dece": 2585,
      "nutr": 2586,
      "restr": 2587,
      "religious": 2588,
      "band": 2589,
      "windo": 2590,
      "gene": 2591,
      "exe": 2592,
      "vehic": 2593,
      "dead": 2594,
      "neuro": 2595,
      "hundred": 2596,
      "enjoy": 2597,
      "diabetes": 2598,
      "display": 2599,
      "organiz": 2600,
      "obtain": 2601,
      "ado": 2602,
      "sugar": 2603,
      "ert": 2604,
      "install": 2605,
      "webs": 2606,
      "consequ": 2607,
      "importance": 2608,
      "fel": 2609,
      "gir": 2610,
      "standards": 2611,
      "whose": 2612,
      "forts": 2613,
      "onom": 2614,
      "choose": 2615,
      "professor": 2616,
      "saw": 2617,
      "july": 2618,
      "visual": 2619,
      "volum": 2620,
      "calcul": 2621,
      "hur": 2622,
      "mi": 2623,
      "quar": 2624,
      "army": 2625,
      "egg": 2626,
      "applications": 2627,
      "despite": 2628,
      "party": 2629,
      "citiz": 2630,
      "dog": 2631,
      "situation": 2632,
      "fib": 2633,
      "cum": 2634,
      "ocean": 2635,
      "influence": 2636,
      "decision": 2637,
      "leaves": 2638,
      "rection": 2639,
      "beyond": 2640,
      "weeks": 2641,
      "mention": 2642,
      "africa": 2643,
      "uries": 2644,
      "devices": 2645,
      "hands": 2646,
      "seems": 2647,
      "gor": 2648,
      "professional": 2649,
      "ker": 2650,
      "detect": 2651,
      "craft": 2652,
      "lor": 2653,
      "isms": 2654,
      "bert": 2655,
      "beaut": 2656,
      "ff": 2657,
      "techniques": 2658,
      "requires": 2659,
      "offe": 2660,
      "weather": 2661,
      "thats": 2662,
      "else": 2663,
      "rare": 2664,
      "california": 2665,
      "costs": 2666,
      "carry": 2667,
      "enhan": 2668,
      "exact": 2669,
      "final": 2670,
      "generation": 2671,
      "americans": 2672,
      "minutes": 2673,
      "file": 2674,
      "bacteria": 2675,
      "contains": 2676,
      "rapid": 2677,
      "dim": 2678,
      "website": 2679,
      "property": 2680,
      "processes": 2681,
      "abilities": 2682,
      "hop": 2683,
      "repe": 2684,
      "largest": 2685,
      "finally": 2686,
      "william": 2687,
      "forces": 2688,
      "symbol": 2689,
      "goal": 2690,
      "everything": 2691,
      "users": 2692,
      "shall": 2693,
      "jesus": 2694,
      "mel": 2695,
      "user": 2696,
      "polit": 2697,
      "ases": 2698,
      "rot": 2699,
      "nothing": 2700,
      "recently": 2701,
      "alco": 2702,
      "genetic": 2703,
      "ump": 2704,
      "southern": 2705,
      "colum": 2706,
      "za": 2707,
      "ology": 2708,
      "span": 2709,
      "techn": 2710,
      "unit": 2711,
      "logies": 2712,
      "nutrition": 2713,
      "received": 2714,
      "frame": 2715,
      "ret": 2716,
      "christian": 2717,
      "prop": 2718,
      "cele": 2719,
      "eyes": 2720,
      "collection": 2721,
      "click": 2722,
      "ously": 2723,
      "iption": 2724,
      "perfect": 2725,
      "weak": 2726,
      "lier": 2727,
      "tempor": 2728,
      "practices": 2729,
      "estic": 2730,
      "described": 2731,
      "antic": 2732,
      "grade": 2733,
      "idents": 2734,
      "preser": 2735,
      "formation": 2736,
      "constant": 2737,
      "former": 2738,
      "efforts": 2739,
      "emotion": 2740,
      "occup": 2741,
      "buy": 2742,
      "brought": 2743,
      "confl": 2744,
      "operation": 2745,
      "ounds": 2746,
      "exposure": 2747,
      "approx": 2748,
      "via": 2749,
      "celebr": 2750,
      "ama": 2751,
      "laws": 2752,
      "counter": 2753,
      "urban": 2754,
      "asked": 2755,
      "anc": 2756,
      "northern": 2757,
      "sac": 2758,
      "classroom": 2759,
      "survey": 2760,
      "bank": 2761,
      "izes": 2762,
      "everyone": 2763,
      "resol": 2764,
      "told": 2765,
      "predict": 2766,
      "virt": 2767,
      "planet": 2768,
      "tour": 2769,
      "clinical": 2770,
      "alcohol": 2771,
      "providing": 2772,
      "rise": 2773,
      "pregn": 2774,
      "philoso": 2775,
      "interesting": 2776,
      "tember": 2777,
      "option": 2778,
      "efficient": 2779,
      "ny": 2780,
      "older": 2781,
      "becomes": 2782,
      "plat": 2783,
      "radio": 2784,
      "vill": 2785,
      "inct": 2786,
      "mir": 2787,
      "income": 2788,
      "himself": 2789,
      "surround": 2790,
      "genes": 2791,
      "responsible": 2792,
      "harm": 2793,
      "phas": 2794,
      "september": 2795,
      "ulations": 2796,
      "immune": 2797,
      "affected": 2798,
      "mr": 2799,
      "ime": 2800,
      "ibe": 2801,
      "tele": 2802,
      "evolution": 2803,
      "died": 2804,
      "successful": 2805,
      "teeth": 2806,
      "economy": 2807,
      "eter": 2808,
      "remains": 2809,
      "resh": 2810,
      "conce": 2811,
      "construct": 2812,
      "equipment": 2813,
      "giving": 2814,
      "anything": 2815,
      "miles": 2816,
      "freed": 2817,
      "octo": 2818,
      "models": 2819,
      "retr": 2820,
      "sand": 2821,
      "vitamin": 2822,
      "revolution": 2823,
      "convent": 2824,
      "bran": 2825,
      "degree": 2826,
      "suffer": 2827,
      "gin": 2828,
      "machine": 2829,
      "ale": 2830,
      "ience": 2831,
      "mut": 2832,
      "entially": 2833,
      "isra": 2834,
      "library": 2835,
      "benefit": 2836,
      "glass": 2837,
      "hi": 2838,
      "zer": 2839,
      "length": 2840,
      "basis": 2841,
      "steps": 2842,
      "reasons": 2843,
      "fruit": 2844,
      "october": 2845,
      "trust": 2846,
      "named": 2847,
      "gives": 2848,
      "strengt": 2849,
      "january": 2850,
      "brown": 2851,
      "leave": 2852,
      "compar": 2853,
      "cycle": 2854,
      "ico": 2855,
      "nur": 2856,
      "recommend": 2857,
      "balance": 2858,
      "forward": 2859,
      "baby": 2860,
      "shap": 2861,
      "measures": 2862,
      "door": 2863,
      "sexual": 2864,
      "attempt": 2865,
      "archite": 2866,
      "democr": 2867,
      "inflam": 2868,
      "device": 2869,
      "objects": 2870,
      "instru": 2871,
      "rat": 2872,
      "garden": 2873,
      "rule": 2874,
      "encies": 2875,
      "rules": 2876,
      "educational": 2877,
      "llig": 2878,
      "england": 2879,
      "applied": 2880,
      "ano": 2881,
      "acqu": 2882,
      "fix": 2883,
      "washington": 2884,
      "opportunity": 2885,
      "tee": 2886,
      "engineering": 2887,
      "inese": 2888,
      "signs": 2889,
      "suit": 2890,
      "names": 2891,
      "alone": 2892,
      "drugs": 2893,
      "oral": 2894,
      "phone": 2895,
      "eight": 2896,
      "explore": 2897,
      "arent": 2898,
      "atom": 2899,
      "portion": 2900,
      "treated": 2901,
      "cure": 2902,
      "yourself": 2903,
      "innov": 2904,
      "purch": 2905,
      "bound": 2906,
      "preci": 2907,
      "goes": 2908,
      "mod": 2909,
      "demonstr": 2910,
      "liber": 2911,
      "shape": 2912,
      "dan": 2913,
      "style": 2914,
      "tes": 2915,
      "hro": 2916,
      "earlier": 2917,
      "chronic": 2918,
      "chinese": 2919,
      "laun": 2920,
      "aller": 2921,
      "graphic": 2922,
      "friends": 2923,
      "iron": 2924,
      "intellig": 2925,
      "receive": 2926,
      "council": 2927,
      "uth": 2928,
      "qual": 2929,
      "anx": 2930,
      "smaller": 2931,
      "ech": 2932,
      "canada": 2933,
      "differences": 2934,
      "ius": 2935,
      "foc": 2936,
      "schol": 2937,
      "issions": 2938,
      "woman": 2939,
      "cities": 2940,
      "factor": 2941,
      "pin": 2942,
      "yel": 2943,
      "foundation": 2944,
      "hair": 2945,
      "emergen": 2946,
      "industrial": 2947,
      "price": 2948,
      "assessment": 2949,
      "hit": 2950,
      "rout": 2951,
      "die": 2952,
      "pac": 2953,
      "grand": 2954,
      "cs": 2955,
      "battle": 2956,
      "tery": 2957,
      "ias": 2958,
      "foreign": 2959,
      "mouth": 2960,
      "letter": 2961,
      "wis": 2962,
      "sphere": 2963,
      "ils": 2964,
      "comfort": 2965,
      "planning": 2966,
      "cles": 2967,
      "wit": 2968,
      "dna": 2969,
      "changed": 2970,
      "conservation": 2971,
      "atmo": 2972,
      "bone": 2973,
      "firm": 2974,
      "followed": 2975,
      "regis": 2976,
      "drop": 2977,
      "commonly": 2978,
      "ament": 2979,
      "status": 2980,
      "illustr": 2981,
      "lord": 2982,
      "milk": 2983,
      "extra": 2984,
      "limit": 2985,
      "reduced": 2986,
      "itude": 2987,
      "aid": 2988,
      "charge": 2989,
      "piece": 2990,
      "prehen": 2991,
      "december": 2992,
      "ml": 2993,
      "allowed": 2994,
      "ultim": 2995,
      "london": 2996,
      "sets": 2997,
      "maxim": 2998,
      "rote": 2999,
      "mathem": 3000,
      "hospital": 3001,
      "univers": 3002,
      "nove": 3003,
      "choice": 3004,
      "context": 3005,
      "retrie": 3006,
      "worth": 3007,
      "iar": 3008,
      "trying": 3009,
      "mex": 3010,
      "ught": 3011,
      "continued": 3012,
      "depression": 3013,
      "stim": 3014,
      "female": 3015,
      "root": 3016,
      "equal": 3017,
      "billion": 3018,
      "identified": 3019,
      "assign": 3020,
      "neigh": 3021,
      "adult": 3022,
      "organic": 3023,
      "staff": 3024,
      "occurs": 3025,
      "completely": 3026,
      "transl": 3027,
      "hear": 3028,
      "bridge": 3029,
      "pit": 3030,
      "reports": 3031,
      "dol": 3032,
      "nutri": 3033,
      "moving": 3034,
      "dogs": 3035,
      "approximate": 3036,
      "bell": 3037,
      "sla": 3038,
      "ficient": 3039,
      "wrote": 3040,
      "core": 3041,
      "antib": 3042,
      "creation": 3043,
      "fresh": 3044,
      "properties": 3045,
      "challenges": 3046,
      "mart": 3047,
      "sche": 3048,
      "coll": 3049,
      "tou": 3050,
      "las": 3051,
      "existing": 3052,
      "commission": 3053,
      "stories": 3054,
      "effort": 3055,
      "collabor": 3056,
      "november": 3057,
      "constitution": 3058,
      "discovered": 3059,
      "seven": 3060,
      "element": 3061,
      "powerful": 3062,
      "custom": 3063,
      "plastic": 3064,
      "hydr": 3065,
      "poses": 3066,
      "aks": 3067,
      "pun": 3068,
      "resource": 3069,
      "cords": 3070,
      "terr": 3071,
      "ko": 3072,
      "migr": 3073,
      "patterns": 3074,
      "enge": 3075,
      "capt": 3076,
      "doct": 3077,
      "volume": 3078,
      "oxy": 3079,
      "aling": 3080,
      "freedom": 3081,
      "alternative": 3082,
      "proto": 3083,
      "belief": 3084,
      "roman": 3085,
      "wing": 3086,
      "doesnt": 3087,
      "modif": 3088,
      "cd": 3089,
      "ots": 3090,
      "ensity": 3091,
      "ub": 3092,
      "capacity": 3093,
      "transfer": 3094,
      "prom": 3095,
      "peace": 3096,
      "trig": 3097,
      "establish": 3098,
      "defined": 3099,
      "explain": 3100,
      "abol": 3101,
      "domin": 3102,
      "iest": 3103,
      "eventually": 3104,
      "notes": 3105,
      "vict": 3106,
      "onto": 3107,
      "solid": 3108,
      "presence": 3109,
      "emissions": 3110,
      "wil": 3111,
      "distance": 3112,
      "tin": 3113,
      "disorder": 3114,
      "chapter": 3115,
      "congress": 3116,
      "teen": 3117,
      "task": 3118,
      "dre": 3119,
      "picture": 3120,
      "dut": 3121,
      "illness": 3122,
      "pil": 3123,
      "harv": 3124,
      "strategies": 3125,
      "gain": 3126,
      "math": 3127,
      "zy": 3128,
      "organizations": 3129,
      "thesis": 3130,
      "lake": 3131,
      "majority": 3132,
      "regions": 3133,
      "functions": 3134,
      "kid": 3135,
      "pd": 3136,
      "optim": 3137,
      "tren": 3138,
      "resistance": 3139,
      "options": 3140,
      "ered": 3141,
      "justice": 3142,
      "square": 3143,
      "save": 3144,
      "commercial": 3145,
      "vin": 3146,
      "cand": 3147,
      "comprehen": 3148,
      "astr": 3149,
      "gent": 3150,
      "connected": 3151,
      "zo": 3152,
      "changing": 3153,
      "coal": 3154,
      "upper": 3155,
      "dered": 3156,
      "ht": 3157,
      "strugg": 3158,
      "hest": 3159,
      "infr": 3160,
      "excess": 3161,
      "assem": 3162,
      "absor": 3163,
      "ries": 3164,
      "technologies": 3165,
      "ka": 3166,
      "jewish": 3167,
      "expand": 3168,
      "febr": 3169,
      "fortun": 3170,
      "opportunities": 3171,
      "mur": 3172,
      "ran": 3173,
      "yo": 3174,
      "faith": 3175,
      "nuclear": 3176,
      "appears": 3177,
      "increases": 3178,
      "components": 3179,
      "ron": 3180,
      "goals": 3181,
      "running": 3182,
      "sustainable": 3183,
      "bing": 3184,
      "insect": 3185,
      "stra": 3186,
      "presents": 3187,
      "depending": 3188,
      "ibly": 3189,
      "tissue": 3190,
      "surger": 3191,
      "persons": 3192,
      "consumption": 3193,
      "relev": 3194,
      "instruct": 3195,
      "enty": 3196,
      "legis": 3197,
      "cogn": 3198,
      "offers": 3199,
      "master": 3200,
      "gets": 3201,
      "seed": 3202,
      "reference": 3203,
      "rail": 3204,
      "director": 3205,
      "accoun": 3206,
      "els": 3207,
      "apply": 3208,
      "iety": 3209,
      "destroy": 3210,
      "gave": 3211,
      "jun": 3212,
      "wed": 3213,
      "chief": 3214,
      "advanced": 3215,
      "util": 3216,
      "gender": 3217,
      "relatively": 3218,
      "topic": 3219,
      "showed": 3220,
      "mad": 3221,
      "warm": 3222,
      "mitted": 3223,
      "breast": 3224,
      "chance": 3225,
      "vas": 3226,
      "cant": 3227,
      "february": 3228,
      "isol": 3229,
      "approximately": 3230,
      "walk": 3231,
      "sive": 3232,
      "soft": 3233,
      "station": 3234,
      "liqu": 3235,
      "heavy": 3236,
      "strength": 3237,
      "thousands": 3238,
      "yellow": 3239,
      "exhib": 3240,
      "owners": 3241,
      "perspect": 3242,
      "bird": 3243,
      "plans": 3244,
      "homes": 3245,
      "details": 3246,
      "games": 3247,
      "findings": 3248,
      "surpr": 3249,
      "sion": 3250,
      "records": 3251,
      "atives": 3252,
      "categ": 3253,
      "fear": 3254,
      "vul": 3255,
      "favor": 3256,
      "swit": 3257,
      "insul": 3258,
      "muscle": 3259,
      "direction": 3260,
      "grass": 3261,
      "ulty": 3262,
      "fields": 3263,
      "challenge": 3264,
      "literature": 3265,
      "ining": 3266,
      "famous": 3267,
      "moment": 3268,
      "germany": 3269,
      "grant": 3270,
      "worked": 3271,
      "remove": 3272,
      "email": 3273,
      "store": 3274,
      "metal": 3275,
      "independent": 3276,
      "passed": 3277,
      "thom": 3278,
      "consul": 3279,
      "era": 3280,
      "moon": 3281,
      "disorders": 3282,
      "orts": 3283,
      "viet": 3284,
      "credit": 3285,
      "mathemat": 3286,
      "secret": 3287,
      "prevention": 3288,
      "partners": 3289,
      "james": 3290,
      "significantly": 3291,
      "vary": 3292,
      "ware": 3293,
      "va": 3294,
      "bac": 3295,
      "divid": 3296,
      "speech": 3297,
      "requirements": 3298,
      "elim": 3299,
      "release": 3300,
      "bay": 3301,
      "ife": 3302,
      "wrong": 3303,
      "intervent": 3304,
      "edia": 3305,
      "rent": 3306,
      "lection": 3307,
      "ios": 3308,
      "solutions": 3309,
      "complic": 3310,
      "wanted": 3311,
      "eastern": 3312,
      "watch": 3313,
      "structures": 3314,
      "annual": 3315,
      "david": 3316,
      "republic": 3317,
      "street": 3318,
      "shar": 3319,
      "males": 3320,
      "flood": 3321,
      "reality": 3322,
      "ida": 3323,
      "israel": 3324,
      "instance": 3325,
      "iful": 3326,
      "emphas": 3327,
      "observed": 3328,
      "fis": 3329,
      "ulate": 3330,
      "suppl": 3331,
      "experiences": 3332,
      "surgery": 3333,
      "participants": 3334,
      "frequently": 3335,
      "reducing": 3336,
      "violence": 3337,
      "icts": 3338,
      "sess": 3339,
      "huge": 3340,
      "engage": 3341,
      "drive": 3342,
      "minor": 3343,
      "hyper": 3344,
      "essay": 3345,
      "distribution": 3346,
      "starting": 3347,
      "employe": 3348,
      "items": 3349,
      "france": 3350,
      "haz": 3351,
      "valu": 3352,
      "sample": 3353,
      "dynam": 3354,
      "immediately": 3355,
      "recommended": 3356,
      "track": 3357,
      "facts": 3358,
      "articles": 3359,
      "ali": 3360,
      "bt": 3361,
      "authors": 3362,
      "roll": 3363,
      "rig": 3364,
      "internal": 3365,
      "paign": 3366,
      "keeping": 3367,
      "truth": 3368,
      "film": 3369,
      "district": 3370,
      "australia": 3371,
      "salt": 3372,
      "eu": 3373,
      "consci": 3374,
      "prepar": 3375,
      "experiment": 3376,
      "opin": 3377,
      "operations": 3378,
      "finding": 3379,
      "logist": 3380,
      "oxygen": 3381,
      "oration": 3382,
      "anxiety": 3383,
      "phase": 3384,
      "separate": 3385,
      "asia": 3386,
      "bc": 3387,
      "cham": 3388,
      "disci": 3389,
      "pick": 3390,
      "layer": 3391,
      "egy": 3392,
      "extremely": 3393,
      "breed": 3394,
      "electricity": 3395,
      "believed": 3396,
      "reveal": 3397,
      "tooth": 3398,
      "alle": 3399,
      "vation": 3400,
      "cert": 3401,
      "joint": 3402,
      "phen": 3403,
      "akes": 3404,
      "marine": 3405,
      "ordin": 3406,
      "tum": 3407,
      "academic": 3408,
      "spot": 3409,
      "nar": 3410,
      "toxic": 3411,
      "numerous": 3412,
      "forced": 3413,
      "buildings": 3414,
      "highest": 3415,
      "plate": 3416,
      "tan": 3417,
      "physic": 3418,
      "experts": 3419,
      "mm": 3420,
      "suggests": 3421,
      "adjust": 3422,
      "execut": 3423,
      "campaign": 3424,
      "bodies": 3425,
      "lived": 3426,
      "anyone": 3427,
      "oh": 3428,
      "radiation": 3429,
      "sufficient": 3430,
      "clearly": 3431,
      "japanese": 3432,
      "cin": 3433,
      "chain": 3434,
      "kers": 3435,
      "agency": 3436,
      "principles": 3437,
      "novel": 3438,
      "learned": 3439,
      "race": 3440,
      "risks": 3441,
      "retrieved": 3442,
      "excl": 3443,
      "emotional": 3444,
      "motor": 3445,
      "presented": 3446,
      "processing": 3447,
      "decisions": 3448,
      "aving": 3449,
      "connection": 3450,
      "administration": 3451,
      "ifically": 3452,
      "cris": 3453,
      "causing": 3454,
      "bottom": 3455,
      "carried": 3456,
      "religion": 3457,
      "encourage": 3458,
      "statement": 3459,
      "definition": 3460,
      "kept": 3461,
      "sky": 3462,
      "song": 3463,
      "decades": 3464,
      "combination": 3465,
      "easier": 3466,
      "legisl": 3467,
      "faces": 3468,
      "becoming": 3469,
      "characteristics": 3470,
      "orge": 3471,
      "introduction": 3472,
      "failure": 3473,
      "populations": 3474,
      "agriculture": 3475,
      "hypo": 3476,
      "introduced": 3477,
      "arian": 3478,
      "blog": 3479,
      "gradu": 3480,
      "gun": 3481,
      "parent": 3482,
      "awareness": 3483,
      "hick": 3484,
      "rob": 3485,
      "igen": 3486,
      "fal": 3487,
      "pages": 3488,
      "ica": 3489,
      "cm": 3490,
      "yout": 3491,
      "discussion": 3492,
      "actual": 3493,
      "advantage": 3494,
      "index": 3495,
      "happen": 3496,
      "technical": 3497,
      "ya": 3498,
      "incorpor": 3499,
      "meeting": 3500,
      "tics": 3501,
      "egypt": 3502,
      "sume": 3503,
      "background": 3504,
      "ams": 3505,
      "fine": 3506,
      "storage": 3507,
      "trac": 3508,
      "curric": 3509,
      "smart": 3510,
      "wonder": 3511,
      "datab": 3512,
      "fundam": 3513,
      "slight": 3514,
      "proved": 3515,
      "augh": 3516,
      "aspects": 3517,
      "views": 3518,
      "temperatures": 3519,
      "indeed": 3520,
      "adapt": 3521,
      "excell": 3522,
      "replace": 3523,
      "injury": 3524,
      "stic": 3525,
      "initial": 3526,
      "appoint": 3527,
      "conducted": 3528,
      "mentioned": 3529,
      "tun": 3530,
      "cook": 3531,
      "rang": 3532,
      "thor": 3533,
      "oring": 3534,
      "rand": 3535,
      "goog": 3536,
      "invent": 3537,
      "performed": 3538,
      "screen": 3539,
      "greg": 3540,
      "wildlife": 3541,
      "estimated": 3542,
      "fro": 3543,
      "icated": 3544,
      "ato": 3545,
      "ulum": 3546,
      "amaz": 3547,
      "seeds": 3548,
      "prefer": 3549,
      "george": 3550,
      "standing": 3551,
      "policies": 3552,
      "greek": 3553,
      "relevant": 3554,
      "wet": 3555,
      "official": 3556,
      "relationships": 3557,
      "aint": 3558,
      "output": 3559,
      "lesson": 3560,
      "norm": 3561,
      "volun": 3562,
      "rely": 3563,
      "conflict": 3564,
      "hall": 3565,
      "linked": 3566,
      "synd": 3567,
      "brother": 3568,
      "stro": 3569,
      "mobile": 3570,
      "expression": 3571,
      "mostly": 3572,
      "feeling": 3573,
      "ille": 3574,
      "attribut": 3575,
      "waters": 3576,
      "mort": 3577,
      "authority": 3578,
      "infections": 3579,
      "mist": 3580,
      "tips": 3581,
      "strategy": 3582,
      "spanish": 3583,
      "camer": 3584,
      "units": 3585,
      "thick": 3586,
      "ston": 3587,
      "contract": 3588,
      "moved": 3589,
      "occas": 3590,
      "released": 3591,
      "expert": 3592,
      "oxide": 3593,
      "herit": 3594,
      "technique": 3595,
      "kit": 3596,
      "allowing": 3597,
      "ape": 3598,
      "iles": 3599,
      "vital": 3600,
      "jer": 3601,
      "dept": 3602,
      "interpret": 3603,
      "hiv": 3604,
      "determined": 3605,
      "logists": 3606,
      "farmers": 3607,
      "discover": 3608,
      "properly": 3609,
      "emergency": 3610,
      "widely": 3611,
      "turned": 3612,
      "cher": 3613,
      "renew": 3614,
      "isation": 3615,
      "frequency": 3616,
      "ological": 3617,
      "urally": 3618,
      "rum": 3619,
      "efficiency": 3620,
      "involves": 3621,
      "zone": 3622,
      "obvious": 3623,
      "institutions": 3624,
      "biological": 3625,
      "pollution": 3626,
      "regarding": 3627,
      "lou": 3628,
      "diagnosis": 3629,
      "hearing": 3630,
      "notice": 3631,
      "unders": 3632,
      "rou": 3633,
      "theres": 3634,
      "classes": 3635,
      "km": 3636,
      "message": 3637,
      "prepared": 3638,
      "adequ": 3639,
      "profession": 3640,
      "circum": 3641,
      "agricultural": 3642,
      "iff": 3643,
      "describe": 3644,
      "prison": 3645,
      "meat": 3646,
      "google": 3647,
      "input": 3648,
      "https": 3649,
      "paul": 3650,
      "lip": 3651,
      "ships": 3652,
      "improved": 3653,
      "edition": 3654,
      "citizens": 3655,
      "killed": 3656,
      "governments": 3657,
      "holds": 3658,
      "resulting": 3659,
      "cath": 3660,
      "magnet": 3661,
      "dur": 3662,
      "sell": 3663,
      "soldi": 3664,
      "disco": 3665,
      "ager": 3666,
      "kin": 3667,
      "tons": 3668,
      "guard": 3669,
      "dangerous": 3670,
      "contrast": 3671,
      "flex": 3672,
      "ulated": 3673,
      "mp": 3674,
      "extern": 3675,
      "promis": 3676,
      "practical": 3677,
      "youth": 3678,
      "controlled": 3679,
      "bis": 3680,
      "comment": 3681,
      "ral": 3682,
      "stri": 3683,
      "previously": 3684,
      "distinct": 3685,
      "promote": 3686,
      "temporary": 3687,
      "victim": 3688,
      "letters": 3689,
      "gall": 3690,
      "conscious": 3691,
      "degrees": 3692,
      "skill": 3693,
      "vessel": 3694,
      "scen": 3695,
      "flor": 3696,
      "alter": 3697,
      "laboratory": 3698,
      "exactly": 3699,
      "manufacture": 3700,
      "experienced": 3701,
      "mode": 3702,
      "inner": 3703,
      "elimin": 3704,
      "wards": 3705,
      "virgin": 3706,
      "heard": 3707,
      "helping": 3708,
      "territ": 3709,
      "download": 3710,
      "beautiful": 3711,
      "noted": 3712,
      "traf": 3713,
      "centre": 3714,
      "omen": 3715,
      "creative": 3716,
      "fly": 3717,
      "monitoring": 3718,
      "cognitive": 3719,
      "chemicals": 3720,
      "stock": 3721,
      "committee": 3722,
      "biology": 3723,
      "pup": 3724,
      "effectively": 3725,
      "doi": 3726,
      "division": 3727,
      "involve": 3728,
      "languages": 3729,
      "flowers": 3730,
      "eli": 3731,
      "specifically": 3732,
      "eties": 3733,
      "circu": 3734,
      "electrical": 3735,
      "irel": 3736,
      "dule": 3737,
      "motiv": 3738,
      "snow": 3739,
      "signal": 3740,
      "pover": 3741,
      "grav": 3742,
      "brief": 3743,
      "happens": 3744,
      "ula": 3745,
      "wered": 3746,
      "interested": 3747,
      "kil": 3748,
      "concepts": 3749,
      "clim": 3750,
      "neur": 3751,
      "defic": 3752,
      "matic": 3753,
      "nic": 3754,
      "liver": 3755,
      "referred": 3756,
      "links": 3757,
      "drinking": 3758,
      "reduction": 3759,
      "spac": 3760,
      "exposed": 3761,
      "camp": 3762,
      "iment": 3763,
      "kingdom": 3764,
      "concerns": 3765,
      "bow": 3766,
      "conver": 3767,
      "aer": 3768,
      "removed": 3769,
      "prescr": 3770,
      "sort": 3771,
      "possess": 3772,
      "title": 3773,
      "wear": 3774,
      "whom": 3775,
      "fortunately": 3776,
      "bright": 3777,
      "ops": 3778,
      "reaction": 3779,
      "provin": 3780,
      "bag": 3781,
      "bia": 3782,
      "mun": 3783,
      "angle": 3784,
      "intelligence": 3785,
      "police": 3786,
      "eggs": 3787,
      "patho": 3788,
      "restrict": 3789,
      "double": 3790,
      "custo": 3791,
      "arab": 3792,
      "cers": 3793,
      "morning": 3794,
      "usual": 3795,
      "pas": 3796,
      "cathol": 3797,
      "sett": 3798,
      "particles": 3799,
      "hill": 3800,
      "thanks": 3801,
      "sciences": 3802,
      "ony": 3803,
      "belong": 3804,
      "ilit": 3805,
      "islam": 3806,
      "painting": 3807,
      "pieces": 3808,
      "helped": 3809,
      "leads": 3810,
      "domestic": 3811,
      "intended": 3812,
      "traffic": 3813,
      "vegetables": 3814,
      "jews": 3815,
      "dri": 3816,
      "train": 3817,
      "served": 3818,
      "digest": 3819,
      "fing": 3820,
      "supported": 3821,
      "initi": 3822,
      "yield": 3823,
      "familiar": 3824,
      "diam": 3825,
      "curriculum": 3826,
      "amounts": 3827,
      "isnt": 3828,
      "operating": 3829,
      "concern": 3830,
      "syndrome": 3831,
      "gam": 3832,
      "astro": 3833,
      "asp": 3834,
      "thes": 3835,
      "procedure": 3836,
      "adding": 3837,
      "vaccine": 3838,
      "worlds": 3839,
      "plus": 3840,
      "thomas": 3841,
      "appeared": 3842,
      "crucial": 3843,
      "apart": 3844,
      "lad": 3845,
      "closed": 3846,
      "liquid": 3847,
      "trib": 3848,
      "advance": 3849,
      "vulner": 3850,
      "perman": 3851,
      "phr": 3852,
      "send": 3853,
      "saying": 3854,
      "identity": 3855,
      "enth": 3856,
      "employment": 3857,
      "ideal": 3858,
      "career": 3859,
      "height": 3860,
      "external": 3861,
      "otherwise": 3862,
      "cc": 3863,
      "ti": 3864,
      "texas": 3865,
      "sate": 3866,
      "sumed": 3867,
      "pdf": 3868,
      "bic": 3869,
      "focused": 3870,
      "latin": 3871,
      "satis": 3872,
      "icial": 3873,
      "lock": 3874,
      "accurate": 3875,
      "dental": 3876,
      "colour": 3877,
      "windows": 3878,
      "sector": 3879,
      "typical": 3880,
      "iance": 3881,
      "adop": 3882,
      "dial": 3883,
      "edge": 3884,
      "jobs": 3885,
      "ferences": 3886,
      "voice": 3887,
      "thetic": 3888,
      "topics": 3889,
      "regional": 3890,
      "foss": 3891,
      "lose": 3892,
      "treatments": 3893,
      "speaking": 3894,
      "encing": 3895,
      "pig": 3896,
      "atmosphere": 3897,
      "arts": 3898,
      "lie": 3899,
      "shared": 3900,
      "completed": 3901,
      "orient": 3902,
      "certainly": 3903,
      "moral": 3904,
      "cel": 3905,
      "contribute": 3906,
      "shel": 3907,
      "ky": 3908,
      "trou": 3909,
      "combined": 3910,
      "mainly": 3911,
      "behaviour": 3912,
      "riage": 3913,
      "mam": 3914,
      "ray": 3915,
      "iling": 3916,
      "none": 3917,
      "roots": 3918,
      "lights": 3919,
      "feeding": 3920,
      "neut": 3921,
      "looks": 3922,
      "convers": 3923,
      "wealth": 3924,
      "looked": 3925,
      "cere": 3926,
      "corn": 3927,
      "seek": 3928,
      "advis": 3929,
      "decided": 3930,
      "samples": 3931,
      "spl": 3932,
      "girls": 3933,
      "houses": 3934,
      "zz": 3935,
      "spent": 3936,
      "subjects": 3937,
      "habitat": 3938,
      "satur": 3939,
      "extensive": 3940,
      "expensive": 3941,
      "meant": 3942,
      "poet": 3943,
      "intr": 3944,
      "server": 3945,
      "ush": 3946,
      "instruction": 3947,
      "royal": 3948,
      "feature": 3949,
      "peoples": 3950,
      "ads": 3951,
      "mol": 3952,
      "berg": 3953,
      "turning": 3954,
      "crisis": 3955,
      "discipl": 3956,
      "mexico": 3957,
      "si": 3958,
      "asing": 3959,
      "poverty": 3960,
      "wave": 3961,
      "wid": 3962,
      "rural": 3963,
      "recorded": 3964,
      "manner": 3965,
      "spend": 3966,
      "proposed": 3967,
      "fas": 3968,
      "bour": 3969,
      "hero": 3970,
      "nasa": 3971,
      "bly": 3972,
      "immigr": 3973,
      "udes": 3974,
      "arms": 3975,
      "existence": 3976,
      "filled": 3977,
      "izon": 3978,
      "secondary": 3979,
      "continues": 3980,
      "kar": 3981,
      "leader": 3982,
      "tasks": 3983,
      "attacks": 3984,
      "metabol": 3985,
      "primarily": 3986,
      "straight": 3987,
      "som": 3988,
      "upd": 3989,
      "smith": 3990,
      "pray": 3991,
      "consequences": 3992,
      "discovery": 3993,
      "tingu": 3994,
      "settle": 3995,
      "grown": 3996,
      "iger": 3997,
      "thy": 3998,
      "abuse": 3999,
      "tested": 4000,
      "profit": 4001,
      "holy": 4002,
      "impacts": 4003,
      "flat": 4004,
      "purposes": 4005,
      "muslim": 4006,
      "agreement": 4007,
      "crop": 4008,
      "reached": 4009,
      "islands": 4010,
      "horse": 4011,
      "cide": 4012,
      "nutrients": 4013,
      "historic": 4014,
      "los": 4015,
      "burg": 4016,
      "theyre": 4017,
      "exerc": 4018,
      "diction": 4019,
      "vs": 4020,
      "healthcare": 4021,
      "recovery": 4022,
      "iced": 4023,
      "vid": 4024,
      "bom": 4025,
      "wik": 4026,
      "narr": 4027,
      "logic": 4028,
      "protected": 4029,
      "maximum": 4030,
      "responsibility": 4031,
      "secure": 4032,
      "rough": 4033,
      "files": 4034,
      "subsequ": 4035,
      "flight": 4036,
      "dar": 4037,
      "scan": 4038,
      "leaf": 4039,
      "playing": 4040,
      "sounds": 4041,
      "consult": 4042,
      "phenomen": 4043,
      "apparent": 4044,
      "diversity": 4045,
      "situations": 4046,
      "ague": 4047,
      "excellent": 4048,
      "mation": 4049,
      "len": 4050,
      "vehicle": 4051,
      "fruits": 4052,
      "ito": 4053,
      "implic": 4054,
      "moist": 4055,
      "embr": 4056,
      "infras": 4057,
      "nest": 4058,
      "random": 4059,
      "assum": 4060,
      "agon": 4061,
      "investment": 4062,
      "iveness": 4063,
      "voc": 4064,
      "invas": 4065,
      "trial": 4066,
      "begins": 4067,
      "containing": 4068,
      "explained": 4069,
      "daugh": 4070,
      "valley": 4071,
      "proteins": 4072,
      "perspective": 4073,
      "taught": 4074,
      "showing": 4075,
      "wife": 4076,
      "harvest": 4077,
      "pacific": 4078,
      "sports": 4079,
      "doctors": 4080,
      "collected": 4081,
      "awn": 4082,
      "oma": 4083,
      "cars": 4084,
      "infrastru": 4085,
      "advice": 4086,
      "explan": 4087,
      "flag": 4088,
      "physics": 4089,
      "rab": 4090,
      "jac": 4091,
      "satell": 4092,
      "driving": 4093,
      "apo": 4094,
      "producing": 4095,
      "indicate": 4096,
      "iel": 4097,
      "centuries": 4098,
      "fab": 4099,
      "detailed": 4100,
      "gods": 4101,
      "muscles": 4102,
      "marks": 4103,
      "offered": 4104,
      "kinds": 4105,
      "valid": 4106,
      "stars": 4107,
      "announ": 4108,
      "extr": 4109,
      "frag": 4110,
      "drink": 4111,
      "originally": 4112,
      "atl": 4113,
      "pregnancy": 4114,
      "sensitive": 4115,
      "sty": 4116,
      "crops": 4117,
      "raised": 4118,
      "sar": 4119,
      "faster": 4120,
      "happy": 4121,
      "paid": 4122,
      "apping": 4123,
      "appearance": 4124,
      "dollar": 4125,
      "fluid": 4126,
      "insur": 4127,
      "vast": 4128,
      "felt": 4129,
      "psych": 4130,
      "posite": 4131,
      "fundamental": 4132,
      "normally": 4133,
      "largely": 4134,
      "guidelines": 4135,
      "infected": 4136,
      "youll": 4137,
      "charac": 4138,
      "hid": 4139,
      "component": 4140,
      "robert": 4141,
      "trop": 4142,
      "istan": 4143,
      "goods": 4144,
      "database": 4145,
      "empire": 4146,
      "sight": 4147,
      "lessons": 4148,
      "helpful": 4149,
      "crete": 4150,
      "characters": 4151,
      "bn": 4152,
      "dent": 4153,
      "sud": 4154,
      "rogen": 4155,
      "advoc": 4156,
      "extent": 4157,
      "walls": 4158,
      "universe": 4159,
      "enem": 4160,
      "remained": 4161,
      "request": 4162,
      "exchange": 4163,
      "bible": 4164,
      "leadership": 4165,
      "artific": 4166,
      "medium": 4167,
      "measured": 4168,
      "rupt": 4169,
      "spiritual": 4170,
      "recycl": 4171,
      "depth": 4172,
      "divided": 4173,
      "facilities": 4174,
      "electro": 4175,
      "suggested": 4176,
      "temple": 4177,
      "cade": 4178,
      "fare": 4179,
      "join": 4180,
      "lax": 4181,
      "nd": 4182,
      "aqu": 4183,
      "sides": 4184,
      "stret": 4185,
      "protocol": 4186,
      "occurred": 4187,
      "dram": 4188,
      "iso": 4189,
      "intel": 4190,
      "absol": 4191,
      "unless": 4192,
      "centers": 4193,
      "surrounding": 4194,
      "hence": 4195,
      "naturally": 4196,
      "tube": 4197,
      "arct": 4198,
      "affects": 4199,
      "selected": 4200,
      "jose": 4201,
      "employees": 4202,
      "principle": 4203,
      "weap": 4204,
      "businesses": 4205,
      "enhance": 4206,
      "thoughts": 4207,
      "periods": 4208,
      "electronic": 4209,
      "refers": 4210,
      "increasingly": 4211,
      "funding": 4212,
      "supplement": 4213,
      "played": 4214,
      "hundreds": 4215,
      "pon": 4216,
      "outcomes": 4217,
      "traum": 4218,
      "medications": 4219,
      "pure": 4220,
      "inflammation": 4221,
      "sweet": 4222,
      "shell": 4223,
      "regularly": 4224,
      "latest": 4225,
      "officials": 4226,
      "computers": 4227,
      "format": 4228,
      "scholar": 4229,
      "bear": 4230,
      "prices": 4231,
      "destru": 4232,
      "sons": 4233,
      "pressed": 4234,
      "capable": 4235,
      "potentially": 4236,
      "conference": 4237,
      "forests": 4238,
      "acce": 4239,
      "didnt": 4240,
      "listed": 4241,
      "organisms": 4242,
      "veter": 4243,
      "fertil": 4244,
      "recognized": 4245,
      "cking": 4246,
      "infrastructure": 4247,
      "ville": 4248,
      "documents": 4249,
      "touch": 4250,
      "catholic": 4251,
      "calls": 4252,
      "budd": 4253,
      "greatest": 4254,
      "description": 4255,
      "slightly": 4256,
      "claims": 4257,
      "residents": 4258,
      "fers": 4259,
      "endo": 4260,
      "minimum": 4261,
      "adequate": 4262,
      "barri": 4263,
      "burn": 4264,
      "motions": 4265,
      "britain": 4266,
      "positions": 4267,
      "indigen": 4268,
      "village": 4269,
      "studied": 4270,
      "percept": 4271,
      "manufacturing": 4272,
      "cutting": 4273,
      "generate": 4274,
      "iii": 4275,
      "improving": 4276,
      "interests": 4277,
      "russian": 4278,
      "substant": 4279,
      "independence": 4280,
      "colors": 4281,
      "steel": 4282,
      "unlike": 4283,
      "carol": 4284,
      "pm": 4285,
      "comprehensive": 4286,
      "tenance": 4287,
      "correspond": 4288,
      "texts": 4289,
      "feelings": 4290,
      "lots": 4291,
      "explains": 4292,
      "neighbor": 4293,
      "procedures": 4294,
      "solve": 4295,
      "sick": 4296,
      "floor": 4297,
      "charles": 4298,
      "valuable": 4299,
      "readers": 4300,
      "enses": 4301,
      "consistent": 4302,
      "approaches": 4303,
      "ethn": 4304,
      "concentration": 4305,
      "indigenous": 4306,
      "philosophy": 4307,
      "feat": 4308,
      "bles": 4309,
      "deliver": 4310,
      "bin": 4311,
      "ultimately": 4312,
      "depends": 4313,
      "leaving": 4314,
      "toler": 4315,
      "visible": 4316,
      "umin": 4317,
      "reci": 4318,
      "boy": 4319,
      "soldiers": 4320,
      "iday": 4321,
      "itors": 4322,
      "relations": 4323,
      "discrim": 4324,
      "feder": 4325,
      "iled": 4326,
      "chic": 4327,
      "insp": 4328,
      "storm": 4329,
      "courses": 4330,
      "absolute": 4331,
      "cloud": 4332,
      "networks": 4333,
      "distingu": 4334,
      "ink": 4335,
      "concerned": 4336,
      "kore": 4337,
      "millions": 4338,
      "chemis": 4339,
      "virtual": 4340,
      "framework": 4341,
      "talking": 4342,
      "pic": 4343,
      "marriage": 4344,
      "seeing": 4345,
      "usive": 4346,
      "composition": 4347,
      "selection": 4348,
      "institution": 4349,
      "landscape": 4350,
      "substance": 4351,
      "imper": 4352,
      "statistics": 4353,
      "pel": 4354,
      "maintenance": 4355,
      "sudden": 4356,
      "stated": 4357,
      "lifest": 4358,
      "ensus": 4359,
      "oted": 4360,
      "nine": 4361,
      "productive": 4362,
      "chen": 4363,
      "raw": 4364,
      "iet": 4365,
      "decrease": 4366,
      "deaths": 4367,
      "zero": 4368,
      "parties": 4369,
      "aper": 4370,
      "suitable": 4371,
      "evaluation": 4372,
      "childhood": 4373,
      "obtained": 4374,
      "sures": 4375,
      "happened": 4376,
      "labe": 4377,
      "isa": 4378,
      "follows": 4379,
      "memor": 4380,
      "cats": 4381,
      "chemistry": 4382,
      "survival": 4383,
      "vehicles": 4384,
      "figures": 4385,
      "henry": 4386,
      "suffering": 4387,
      "recognize": 4388,
      "marked": 4389,
      "ec": 4390,
      "antibio": 4391,
      "warming": 4392,
      "closely": 4393,
      "stable": 4394,
      "crow": 4395,
      "fiber": 4396,
      "movements": 4397,
      "react": 4398,
      "ull": 4399,
      "thro": 4400,
      "zing": 4401,
      "transition": 4402,
      "stick": 4403,
      "represents": 4404,
      "additionally": 4405,
      "returned": 4406,
      "param": 4407,
      "ingred": 4408,
      "journey": 4409,
      "rapidly": 4410,
      "battery": 4411,
      "formal": 4412,
      "glu": 4413,
      "resolution": 4414,
      "archae": 4415,
      "accompl": 4416,
      "facilit": 4417,
      "inches": 4418,
      "iring": 4419,
      "consists": 4420,
      "argument": 4421,
      "pool": 4422,
      "artificial": 4423,
      "astronom": 4424,
      "kings": 4425,
      "heritage": 4426,
      "franc": 4427,
      "doors": 4428,
      "eld": 4429,
      "defense": 4430,
      "tried": 4431,
      "chair": 4432,
      "massive": 4433,
      "pictures": 4434,
      "generated": 4435,
      "sold": 4436,
      "understo": 4437,
      "uge": 4438,
      "zen": 4439,
      "iers": 4440,
      "rub": 4441,
      "uded": 4442,
      "ow": 4443,
      "answers": 4444,
      "copyright": 4445,
      "cav": 4446,
      "raise": 4447,
      "tel": 4448,
      "compare": 4449,
      "rev": 4450,
      "advantages": 4451,
      "alp": 4452,
      "remote": 4453,
      "usa": 4454,
      "understood": 4455,
      "recept": 4456,
      "discussed": 4457,
      "aircraft": 4458,
      "pleas": 4459,
      "derived": 4460,
      "rice": 4461,
      "worldwide": 4462,
      "wol": 4463,
      "gather": 4464,
      "rein": 4465,
      "electron": 4466,
      "guid": 4467,
      "experiments": 4468,
      "obl": 4469,
      "minister": 4470,
      "possibly": 4471,
      "ethnic": 4472,
      "gment": 4473,
      "precise": 4474,
      "density": 4475,
      "ata": 4476,
      "proof": 4477,
      "whatever": 4478,
      "sheet": 4479,
      "alex": 4480,
      "sole": 4481,
      "transportation": 4482,
      "gone": 4483,
      "error": 4484,
      "coffe": 4485,
      "shop": 4486,
      "volt": 4487,
      "assistance": 4488,
      "medication": 4489,
      "witness": 4490,
      "tea": 4491,
      "circumst": 4492,
      "catal": 4493,
      "coordin": 4494,
      "stages": 4495,
      "cope": 4496,
      "sharing": 4497,
      "hole": 4498,
      "diverse": 4499,
      "routine": 4500,
      "narrow": 4501,
      "bones": 4502,
      "pes": 4503,
      "attract": 4504,
      "opinion": 4505,
      "architecture": 4506,
      "cultiv": 4507,
      "inations": 4508,
      "candid": 4509,
      "lers": 4510,
      "sper": 4511,
      "hd": 4512,
      "respir": 4513,
      "stal": 4514,
      "gers": 4515,
      "organized": 4516,
      "apped": 4517,
      "crime": 4518,
      "stimul": 4519,
      "psychological": 4520,
      "poem": 4521,
      "unfortunately": 4522,
      "circuit": 4523,
      "window": 4524,
      "award": 4525,
      "md": 4526,
      "waves": 4527,
      "professionals": 4528,
      "brow": 4529,
      "drawing": 4530,
      "knew": 4531,
      "repair": 4532,
      "lies": 4533,
      "couple": 4534,
      "flav": 4535,
      "teries": 4536,
      "cium": 4537,
      "conventional": 4538,
      "dust": 4539,
      "prophe": 4540,
      "unknown": 4541,
      "louis": 4542,
      "covid": 4543,
      "igation": 4544,
      "walking": 4545,
      "scope": 4546,
      "cules": 4547,
      "roid": 4548,
      "hydrogen": 4549,
      "intake": 4550,
      "acceler": 4551,
      "transmission": 4552,
      "osis": 4553,
      "russia": 4554,
      "enable": 4555,
      "functional": 4556,
      "bind": 4557,
      "intellect": 4558,
      "pron": 4559,
      "agre": 4560,
      "boost": 4561,
      "appreci": 4562,
      "opening": 4563,
      "broken": 4564,
      "border": 4565,
      "paris": 4566,
      "injuries": 4567,
      "usal": 4568,
      "housing": 4569,
      "clar": 4570,
      "intervention": 4571,
      "ja": 4572,
      "opened": 4573,
      "plays": 4574,
      "frank": 4575,
      "fighting": 4576,
      "politics": 4577,
      "vascular": 4578,
      "locations": 4579,
      "ifying": 4580,
      "ordinary": 4581,
      "strain": 4582,
      "bib": 4583,
      "lan": 4584,
      "willing": 4585,
      "powers": 4586,
      "mg": 4587,
      "regulations": 4588,
      "architect": 4589,
      "gum": 4590,
      "pion": 4591,
      "algor": 4592,
      "vac": 4593,
      "rose": 4594,
      "obes": 4595,
      "plas": 4596,
      "enzy": 4597,
      "coffee": 4598,
      "friendly": 4599,
      "maybe": 4600,
      "fold": 4601,
      "virginia": 4602,
      "algorith": 4603,
      "impossible": 4604,
      "shaped": 4605,
      "agers": 4606,
      "ald": 4607,
      "roof": 4608,
      "ying": 4609,
      "intest": 4610,
      "ros": 4611,
      "francis": 4612,
      "founded": 4613,
      "falls": 4614,
      "twenty": 4615,
      "jection": 4616,
      "tiny": 4617,
      "claimed": 4618,
      "papers": 4619,
      "lap": 4620,
      "accepted": 4621,
      "calcium": 4622,
      "whereas": 4623,
      "abund": 4624,
      "ander": 4625,
      "smoking": 4626,
      "afford": 4627,
      "territory": 4628,
      "decline": 4629,
      "maps": 4630,
      "volunte": 4631,
      "permanent": 4632,
      "mixed": 4633,
      "false": 4634,
      "script": 4635,
      "trail": 4636,
      "flower": 4637,
      "chlor": 4638,
      "possibility": 4639,
      "tical": 4640,
      "aggress": 4641,
      "shift": 4642,
      "bra": 4643,
      "repeated": 4644,
      "assembly": 4645,
      "worse": 4646,
      "remind": 4647,
      "extended": 4648,
      "vote": 4649,
      "comments": 4650,
      "gut": 4651,
      "shr": 4652,
      "programming": 4653,
      "pretty": 4654,
      "loved": 4655,
      "accounts": 4656,
      "harmful": 4657,
      "shot": 4658,
      "canadian": 4659,
      "shut": 4660,
      "entirely": 4661,
      "athing": 4662,
      "household": 4663,
      "dimens": 4664,
      "ario": 4665,
      "insurance": 4666,
      "equival": 4667,
      "joseph": 4668,
      "fourt": 4669,
      "sor": 4670,
      "difficulty": 4671,
      "consumers": 4672,
      "choices": 4673,
      "fault": 4674,
      "ki": 4675,
      "lla": 4676,
      "revealed": 4677,
      "stu": 4678,
      "beneficial": 4679,
      "forming": 4680,
      "adopted": 4681,
      "knowing": 4682,
      "string": 4683,
      "acking": 4684,
      "latter": 4685,
      "ibilities": 4686,
      "neck": 4687,
      "aids": 4688,
      "describes": 4689,
      "plane": 4690,
      "myt": 4691,
      "ira": 4692,
      "entry": 4693,
      "obesity": 4694,
      "magnetic": 4695,
      "sequence": 4696,
      "environments": 4697,
      "confidence": 4698,
      "ada": 4699,
      "fossil": 4700,
      "fixed": 4701,
      "allerg": 4702,
      "noise": 4703,
      "comparison": 4704,
      "meal": 4705,
      "phe": 4706,
      "peter": 4707,
      "rd": 4708,
      "depos": 4709,
      "richard": 4710,
      "warning": 4711,
      "simpl": 4712,
      "confir": 4713,
      "chick": 4714,
      "rivers": 4715,
      "insects": 4716,
      "budget": 4717,
      "eper": 4718,
      "brand": 4719,
      "psychology": 4720,
      "editor": 4721,
      "eters": 4722,
      "banks": 4723,
      "stored": 4724,
      "agencies": 4725,
      "paralle": 4726,
      "cultures": 4727,
      "perce": 4728,
      "cards": 4729,
      "supporting": 4730,
      "theless": 4731,
      "scar": 4732,
      "represented": 4733,
      "soviet": 4734,
      "adoles": 4735,
      "creates": 4736,
      "gap": 4737,
      "struggle": 4738,
      "tag": 4739,
      "mine": 4740,
      "studying": 4741,
      "stroke": 4742,
      "supre": 4743,
      "silver": 4744,
      "implementation": 4745,
      "blind": 4746,
      "hael": 4747,
      "lifestyle": 4748,
      "refuge": 4749,
      "agues": 4750,
      "cited": 4751,
      "married": 4752,
      "aur": 4753,
      "imagine": 4754,
      "cardio": 4755,
      "florida": 4756,
      "mining": 4757,
      "mature": 4758,
      "trip": 4759,
      "consumer": 4760,
      "choles": 4761,
      "bled": 4762,
      "improvement": 4763,
      "iter": 4764,
      "acids": 4765,
      "twice": 4766,
      "starts": 4767,
      "clust": 4768,
      "publication": 4769,
      "molecular": 4770,
      "ratio": 4771,
      "achieved": 4772,
      "rio": 4773,
      "childs": 4774,
      "writer": 4775,
      "fourth": 4776,
      "dependent": 4777,
      "stomach": 4778,
      "interaction": 4779,
      "pipe": 4780,
      "newsp": 4781,
      "handle": 4782,
      "platform": 4783,
      "successfully": 4784,
      "html": 4785,
      "eria": 4786,
      "butter": 4787,
      "bread": 4788,
      "compass": 4789,
      "cholester": 4790,
      "purchase": 4791,
      "critic": 4792,
      "cab": 4793,
      "habits": 4794,
      "moreover": 4795,
      "retain": 4796,
      "bid": 4797,
      "conclusion": 4798,
      "australian": 4799,
      "cot": 4800,
      "instrument": 4801,
      "emotions": 4802,
      "persist": 4803,
      "comfortable": 4804,
      "gov": 4805,
      "tank": 4806,
      "managed": 4807,
      "reader": 4808,
      "maintaining": 4809,
      "expans": 4810,
      "resto": 4811,
      "oph": 4812,
      "mathematics": 4813,
      "ava": 4814,
      "robot": 4815,
      "breathing": 4816,
      "decade": 4817,
      "tip": 4818,
      "extract": 4819,
      "produces": 4820,
      "survive": 4821,
      "slowly": 4822,
      "remaining": 4823,
      "bling": 4824,
      "parli": 4825,
      "preval": 4826,
      "responses": 4827,
      "tut": 4828,
      "align": 4829,
      "abstr": 4830,
      "authorities": 4831,
      "rhy": 4832,
      "coo": 4833,
      "molecules": 4834,
      "dose": 4835,
      "fellow": 4836,
      "mechanism": 4837,
      "fund": 4838,
      "fash": 4839,
      "pand": 4840,
      "machines": 4841,
      "cholesterol": 4842,
      "mous": 4843,
      "truly": 4844,
      "trained": 4845,
      "listen": 4846,
      "neither": 4847,
      "younger": 4848,
      "expressed": 4849,
      "proceed": 4850,
      "driven": 4851,
      "prob": 4852,
      "occasion": 4853,
      "photograp": 4854,
      "ache": 4855,
      "inhib": 4856,
      "kel": 4857,
      "gate": 4858,
      "universal": 4859,
      "acknow": 4860,
      "recognition": 4861,
      "integrated": 4862,
      "orbit": 4863,
      "pursu": 4864,
      "presentation": 4865,
      "decide": 4866,
      "bond": 4867,
      "tells": 4868,
      "tropical": 4869,
      "highlight": 4870,
      "filter": 4871,
      "mountains": 4872,
      "carefully": 4873,
      "rence": 4874,
      "contamin": 4875,
      "mone": 4876,
      "thousand": 4877,
      "signals": 4878,
      "mail": 4879,
      "furthermore": 4880,
      "pc": 4881,
      "failed": 4882,
      "rising": 4883,
      "proportion": 4884,
      "doubt": 4885,
      "circumstances": 4886,
      "limits": 4887,
      "arctic": 4888,
      "sey": 4889,
      "frequent": 4890,
      "diagnosed": 4891,
      "bath": 4892,
      "daughter": 4893,
      "accum": 4894,
      "mia": 4895,
      "apple": 4896,
      "gue": 4897,
      "wait": 4898,
      "employed": 4899,
      "drawn": 4900,
      "tam": 4901,
      "renewable": 4902,
      "fest": 4903,
      "dedicated": 4904,
      "holding": 4905,
      "concrete": 4906,
      "advert": 4907,
      "erals": 4908,
      "relax": 4909,
      "feedback": 4910,
      "debate": 4911,
      "wants": 4912,
      "minute": 4913,
      "acting": 4914,
      "boys": 4915,
      "pra": 4916,
      "opposite": 4917,
      "myster": 4918,
      "lung": 4919,
      "troops": 4920,
      "attr": 4921,
      "roads": 4922,
      "define": 4923,
      "nerve": 4924,
      "taste": 4925,
      "mars": 4926,
      "operate": 4927,
      "sentence": 4928,
      "ifies": 4929,
      "markets": 4930,
      "fewer": 4931,
      "culation": 4932,
      "fell": 4933,
      "parliament": 4934,
      "aran": 4935,
      "unity": 4936,
      "fi": 4937,
      "sections": 4938,
      "chi": 4939,
      "necessarily": 4940,
      "peak": 4941,
      "fashion": 4942,
      "magaz": 4943,
      "biom": 4944,
      "fisher": 4945,
      "camera": 4946,
      "definite": 4947,
      "iatric": 4948,
      "georg": 4949,
      "vessels": 4950,
      "variable": 4951,
      "braz": 4952,
      "fever": 4953,
      "graduate": 4954,
      "regulation": 4955,
      "heim": 4956,
      "epide": 4957,
      "asian": 4958,
      "preced": 4959,
      "distur": 4960,
      "whats": 4961,
      "greatly": 4962,
      "iated": 4963,
      "gly": 4964,
      "match": 4965,
      "audience": 4966,
      "indicates": 4967,
      "route": 4968,
      "inet": 4969,
      "objective": 4970,
      "connections": 4971,
      "communicate": 4972,
      "ara": 4973,
      "poison": 4974,
      "conven": 4975,
      "greenhouse": 4976,
      "mn": 4977,
      "tension": 4978,
      "communications": 4979,
      "coron": 4980,
      "desc": 4981,
      "isbn": 4982,
      "hou": 4983,
      "paras": 4984,
      "unable": 4985,
      "childrens": 4986,
      "instructions": 4987,
      "physio": 4988,
      "honor": 4989,
      "gluco": 4990,
      "trials": 4991,
      "accident": 4992,
      "bits": 4993,
      "arrange": 4994,
      "capture": 4995,
      "panel": 4996,
      "industries": 4997,
      "reliable": 4998,
      "wheel": 4999,
      "michael": 5000,
      "accessible": 5001,
      "compr": 5002,
      "beth": 5003,
      "behaviors": 5004,
      "suspect": 5005,
      "catch": 5006,
      "literacy": 5007,
      "category": 5008,
      "academy": 5009,
      "scot": 5010,
      "victor": 5011,
      "mechanical": 5012,
      "estimates": 5013,
      "competition": 5014,
      "closer": 5015,
      "customers": 5016,
      "artists": 5017,
      "breeding": 5018,
      "apt": 5019,
      "isto": 5020,
      "usage": 5021,
      "inction": 5022,
      "supports": 5023,
      "smoke": 5024,
      "mice": 5025,
      "omin": 5026,
      "instruments": 5027,
      "mechanisms": 5028,
      "posing": 5029,
      "stands": 5030,
      "desire": 5031,
      "coastal": 5032,
      "relief": 5033,
      "circle": 5034,
      "delay": 5035,
      "gul": 5036,
      "ortho": 5037,
      "elev": 5038,
      "printed": 5039,
      "promin": 5040,
      "volcan": 5041,
      "facing": 5042,
      "observations": 5043,
      "examine": 5044,
      "kidney": 5045,
      "tall": 5046,
      "burning": 5047,
      "biggest": 5048,
      "dor": 5049,
      "players": 5050,
      "underlying": 5051,
      "heres": 5052,
      "manif": 5053,
      "nan": 5054,
      "session": 5055,
      "blow": 5056,
      "sensit": 5057,
      "innovation": 5058,
      "vulnerable": 5059,
      "breath": 5060,
      "chosen": 5061,
      "hrow": 5062,
      "enab": 5063,
      "considering": 5064,
      "philip": 5065,
      "saur": 5066,
      "susp": 5067,
      "replaced": 5068,
      "lind": 5069,
      "doesn": 5070,
      "throw": 5071,
      "earl": 5072,
      "percentage": 5073,
      "makers": 5074,
      "zed": 5075,
      "cler": 5076,
      "scientist": 5077,
      "promise": 5078,
      "tight": 5079,
      "putting": 5080,
      "sad": 5081,
      "beat": 5082,
      "supplies": 5083,
      "delivery": 5084,
      "approved": 5085,
      "contained": 5086,
      "alpha": 5087,
      "senior": 5088,
      "voltage": 5089,
      "compounds": 5090,
      "citizen": 5091,
      "turns": 5092,
      "democratic": 5093,
      "athe": 5094,
      "executive": 5095,
      "constructed": 5096,
      "kal": 5097,
      "ji": 5098,
      "viruses": 5099,
      "decor": 5100,
      "ell": 5101,
      "marg": 5102,
      "horses": 5103,
      "attend": 5104,
      "joined": 5105,
      "fert": 5106,
      "ahead": 5107,
      "domain": 5108,
      "acute": 5109,
      "vous": 5110,
      "reven": 5111,
      "destroyed": 5112,
      "wont": 5113,
      "honey": 5114,
      "scene": 5115,
      "sid": 5116,
      "matters": 5117,
      "theore": 5118,
      "affair": 5119,
      "itative": 5120,
      "funds": 5121,
      "mood": 5122,
      "inser": 5123,
      "attached": 5124,
      "cyber": 5125,
      "otes": 5126,
      "kne": 5127,
      "sir": 5128,
      "phones": 5129,
      "grid": 5130,
      "forth": 5131,
      "prime": 5132,
      "dioxide": 5133,
      "participate": 5134,
      "crown": 5135,
      "reactions": 5136,
      "branch": 5137,
      "equivalent": 5138,
      "uss": 5139,
      "partner": 5140,
      "seeking": 5141,
      "settings": 5142,
      "penn": 5143,
      "prev": 5144,
      "anda": 5145,
      "measurement": 5146,
      "thank": 5147,
      "lum": 5148,
      "kr": 5149,
      "dress": 5150,
      "judge": 5151,
      "pump": 5152,
      "stones": 5153,
      "substances": 5154,
      "arrived": 5155,
      "categories": 5156,
      "sme": 5157,
      "polar": 5158,
      "rooms": 5159,
      "workshe": 5160,
      "ourselves": 5161,
      "continuous": 5162,
      "legs": 5163,
      "interactions": 5164,
      "ication": 5165,
      "partnership": 5166,
      "scott": 5167,
      "participation": 5168,
      "succeed": 5169,
      "election": 5170,
      "engineers": 5171,
      "queen": 5172,
      "generations": 5173,
      "icing": 5174,
      "beliefs": 5175,
      "colo": 5176,
      "colleagues": 5177,
      "ili": 5178,
      "dream": 5179,
      "posal": 5180,
      "advent": 5181,
      "abnormal": 5182,
      "satellite": 5183,
      "missing": 5184,
      "layers": 5185,
      "insulin": 5186,
      "gical": 5187,
      "bee": 5188,
      "atlantic": 5189,
      "examination": 5190,
      "phosp": 5191,
      "significance": 5192,
      "detection": 5193,
      "gon": 5194,
      "exercises": 5195,
      "slavery": 5196,
      "exists": 5197,
      "demonstrate": 5198,
      "dynamic": 5199,
      "italy": 5200,
      "informed": 5201,
      "channel": 5202,
      "regardless": 5203,
      "copper": 5204,
      "chart": 5205,
      "initiative": 5206,
      "summary": 5207,
      "intellectual": 5208,
      "mothers": 5209,
      "remark": 5210,
      "babies": 5211,
      "anger": 5212,
      "preventing": 5213,
      "shif": 5214,
      "debt": 5215,
      "autism": 5216,
      "colonial": 5217,
      "quarter": 5218,
      "issued": 5219,
      "females": 5220,
      "blocks": 5221,
      "spending": 5222,
      "challenging": 5223,
      "chicago": 5224,
      "heating": 5225,
      "cha": 5226,
      "pow": 5227,
      "biod": 5228,
      "contemporary": 5229,
      "tured": 5230,
      "bees": 5231,
      "recommendations": 5232,
      "victims": 5233,
      "asth": 5234,
      "resident": 5235,
      "prince": 5236,
      "everyday": 5237,
      "supreme": 5238,
      "respiratory": 5239,
      "interview": 5240,
      "ov": 5241,
      "facility": 5242,
      "hazard": 5243,
      "fered": 5244,
      "initially": 5245,
      "stan": 5246,
      "guaran": 5247,
      "writers": 5248,
      "kn": 5249,
      "alty": 5250,
      "itudes": 5251,
      "citing": 5252,
      "preparation": 5253,
      "printing": 5254,
      "bure": 5255,
      "guidance": 5256,
      "excessive": 5257,
      "fif": 5258,
      "theast": 5259,
      "pled": 5260,
      "smooth": 5261,
      "statist": 5262,
      "minerals": 5263,
      "explanation": 5264,
      "sacr": 5265,
      "expansion": 5266,
      "welling": 5267,
      "treating": 5268,
      "programme": 5269,
      "icon": 5270,
      "strict": 5271,
      "refr": 5272,
      "knows": 5273,
      "nearby": 5274,
      "clop": 5275,
      "grew": 5276,
      "ket": 5277,
      "teams": 5278,
      "spain": 5279,
      "worship": 5280,
      "legislation": 5281,
      "chest": 5282,
      "extension": 5283,
      "evaluate": 5284,
      "solving": 5285,
      "collaboration": 5286,
      "resistant": 5287,
      "heads": 5288,
      "ibed": 5289,
      "ung": 5290,
      "nucle": 5291,
      "ota": 5292,
      "spaces": 5293,
      "mato": 5294,
      "terror": 5295,
      "earthqu": 5296,
      "passage": 5297,
      "aria": 5298,
      "wire": 5299,
      "beauty": 5300,
      "fishing": 5301,
      "placing": 5302,
      "asy": 5303,
      "mild": 5304,
      "similarly": 5305,
      "cents": 5306,
      "commod": 5307,
      "experimental": 5308,
      "ireland": 5309,
      "owner": 5310,
      "launched": 5311,
      "discrimination": 5312,
      "swim": 5313,
      "photos": 5314,
      "supposed": 5315,
      "essentially": 5316,
      "spher": 5317,
      "resulted": 5318,
      "sales": 5319,
      "surprising": 5320,
      "criminal": 5321,
      "demonstrated": 5322,
      "faced": 5323,
      "syl": 5324,
      "holes": 5325,
      "ku": 5326,
      "igno": 5327,
      "ongoing": 5328,
      "audio": 5329,
      "dictionary": 5330,
      "manip": 5331,
      "suring": 5332,
      "anta": 5333,
      "column": 5334,
      "reform": 5335,
      "aven": 5336,
      "carolina": 5337,
      "loy": 5338,
      "trends": 5339,
      "alo": 5340,
      "icate": 5341,
      "cleaning": 5342,
      "breaks": 5343,
      "nose": 5344,
      "spin": 5345,
      "breaking": 5346,
      "steam": 5347,
      "linear": 5348,
      "agents": 5349,
      "terior": 5350,
      "yard": 5351,
      "convention": 5352,
      "disaster": 5353,
      "asking": 5354,
      "homo": 5355,
      "cos": 5356,
      "principal": 5357,
      "jack": 5358,
      "thorough": 5359,
      "reduces": 5360,
      "andre": 5361,
      "agreed": 5362,
      "spectrum": 5363,
      "uce": 5364,
      "farming": 5365,
      "score": 5366,
      "damaged": 5367,
      "moisture": 5368,
      "fred": 5369,
      "covers": 5370,
      "zeal": 5371,
      "telling": 5372,
      "negot": 5373,
      "glucose": 5374,
      "controls": 5375,
      "identification": 5376,
      "updated": 5377,
      "offering": 5378,
      "amend": 5379,
      "italian": 5380,
      "aa": 5381,
      "fabric": 5382,
      "rational": 5383,
      "bringing": 5384,
      "usions": 5385,
      "racial": 5386,
      "conve": 5387,
      "danger": 5388,
      "hormon": 5389,
      "accuracy": 5390,
      "meters": 5391,
      "visitors": 5392,
      "learners": 5393,
      "kg": 5394,
      "genic": 5395,
      "push": 5396,
      "tens": 5397,
      "martin": 5398,
      "config": 5399,
      "wides": 5400,
      "mineral": 5401,
      "enn": 5402,
      "measurements": 5403,
      "strip": 5404,
      "irish": 5405,
      "planting": 5406,
      "remed": 5407,
      "keys": 5408,
      "dys": 5409,
      "aband": 5410,
      "lex": 5411,
      "rhe": 5412,
      "healing": 5413,
      "abul": 5414,
      "implications": 5415,
      "sport": 5416,
      "batt": 5417,
      "inch": 5418,
      "removal": 5419,
      "hay": 5420,
      "tv": 5421,
      "mortality": 5422,
      "parag": 5423,
      "ua": 5424,
      "cash": 5425,
      "imaging": 5426,
      "coin": 5427,
      "pregnant": 5428,
      "criteria": 5429,
      "asthma": 5430,
      "involving": 5431,
      "conds": 5432,
      "switch": 5433,
      "wan": 5434,
      "widespread": 5435,
      "outer": 5436,
      "pine": 5437,
      "interpre": 5438,
      "brazil": 5439,
      "plain": 5440,
      "horizon": 5441,
      "structural": 5442,
      "icide": 5443,
      "effectiveness": 5444,
      "ativity": 5445,
      "passing": 5446,
      "destruction": 5447,
      "anthro": 5448,
      "boat": 5449,
      "nano": 5450,
      "rocks": 5451,
      "mph": 5452,
      "missions": 5453,
      "manual": 5454,
      "bloom": 5455,
      "wheat": 5456,
      "governor": 5457,
      "grain": 5458,
      "officers": 5459,
      "evil": 5460,
      "jul": 5461,
      "organs": 5462,
      "kins": 5463,
      "estimate": 5464,
      "distributed": 5465,
      "indians": 5466,
      "fires": 5467,
      "lee": 5468,
      "weapons": 5469,
      "choos": 5470,
      "dir": 5471,
      "wash": 5472,
      "ishment": 5473,
      "tissues": 5474,
      "installed": 5475,
      "composed": 5476,
      "trouble": 5477,
      "galax": 5478,
      "pling": 5479,
      "bron": 5480,
      "thermal": 5481,
      "wound": 5482,
      "amp": 5483,
      "screening": 5484,
      "stead": 5485,
      "receiving": 5486,
      "deplo": 5487,
      "charged": 5488,
      "izer": 5489,
      "variables": 5490,
      "rics": 5491,
      "icians": 5492,
      "antly": 5493,
      "wine": 5494,
      "theories": 5495,
      "combat": 5496,
      "dc": 5497,
      "indicated": 5498,
      "pets": 5499,
      "launch": 5500,
      "seal": 5501,
      "accessed": 5502,
      "anne": 5503,
      "modified": 5504,
      "bean": 5505,
      "amb": 5506,
      "runs": 5507,
      "prohib": 5508,
      "classical": 5509,
      "array": 5510,
      "pher": 5511,
      "schedule": 5512,
      "committed": 5513,
      "jur": 5514,
      "behavioral": 5515,
      "interpretation": 5516,
      "serving": 5517,
      "calories": 5518,
      "induc": 5519,
      "conversation": 5520,
      "ked": 5521,
      "dium": 5522,
      "planned": 5523,
      "harmon": 5524,
      "strengthen": 5525,
      "naz": 5526,
      "drain": 5527,
      "amazing": 5528,
      "proven": 5529,
      "monu": 5530,
      "plot": 5531,
      "dd": 5532,
      "pak": 5533,
      "radical": 5534,
      "manager": 5535,
      "designs": 5536,
      "transmit": 5537,
      "bless": 5538,
      "uncertain": 5539,
      "cooking": 5540,
      "intense": 5541,
      "nervous": 5542,
      "somewhat": 5543,
      "formula": 5544,
      "oxford": 5545,
      "ighter": 5546,
      "roles": 5547,
      "inqu": 5548,
      "planets": 5549,
      "anes": 5550,
      "mann": 5551,
      "dietary": 5552,
      "emper": 5553,
      "mount": 5554,
      "spat": 5555,
      "correctly": 5556,
      "worry": 5557,
      "bureau": 5558,
      "athlet": 5559,
      "orange": 5560,
      "identifying": 5561,
      "investigation": 5562,
      "brings": 5563,
      "parallel": 5564,
      "hunting": 5565,
      "powered": 5566,
      "enforce": 5567,
      "semin": 5568,
      "nitrogen": 5569,
      "carrying": 5570,
      "ini": 5571,
      "subsequent": 5572,
      "ares": 5573,
      "dict": 5574,
      "arthr": 5575,
      "surge": 5576,
      "surfaces": 5577,
      "ux": 5578,
      "slo": 5579,
      "prompt": 5580,
      "tos": 5581,
      "superi": 5582,
      "outcome": 5583,
      "uted": 5584,
      "abandon": 5585,
      "tration": 5586,
      "plements": 5587,
      "irrit": 5588,
      "matory": 5589,
      "tobac": 5590,
      "plenty": 5591,
      "defect": 5592,
      "gradually": 5593,
      "managing": 5594,
      "disabilities": 5595,
      "pestic": 5596,
      "ingredients": 5597,
      "theme": 5598,
      "declared": 5599,
      "grams": 5600,
      "strongly": 5601,
      "armed": 5602,
      "entered": 5603,
      "grades": 5604,
      "mud": 5605,
      "saving": 5606,
      "mosqu": 5607,
      "officer": 5608,
      "ee": 5609,
      "translation": 5610,
      "antio": 5611,
      "substit": 5612,
      "dollars": 5613,
      "clothing": 5614,
      "rays": 5615,
      "giant": 5616,
      "measuring": 5617,
      "economics": 5618,
      "factory": 5619,
      "computing": 5620,
      "influenced": 5621,
      "resid": 5622,
      "engaged": 5623,
      "tles": 5624,
      "enemy": 5625,
      "stein": 5626,
      "tap": 5627,
      "borne": 5628,
      "forget": 5629,
      "complicated": 5630,
      "finished": 5631,
      "democracy": 5632,
      "agent": 5633,
      "pounds": 5634,
      "laser": 5635,
      "ules": 5636,
      "careful": 5637,
      "cad": 5638,
      "rarely": 5639,
      "constantly": 5640,
      "reject": 5641,
      "encyclop": 5642,
      "folk": 5643,
      "reaching": 5644,
      "intent": 5645,
      "mixt": 5646,
      "announced": 5647,
      "intensity": 5648,
      "inspired": 5649,
      "golden": 5650,
      "listening": 5651,
      "lakes": 5652,
      "nels": 5653,
      "desired": 5654,
      "umps": 5655,
      "roughly": 5656,
      "parad": 5657,
      "labour": 5658,
      "favorite": 5659,
      "dance": 5660,
      "planted": 5661,
      "autom": 5662,
      "interactive": 5663,
      "incred": 5664,
      "respectively": 5665,
      "escape": 5666,
      "posted": 5667,
      "arrest": 5668,
      "amins": 5669,
      "signed": 5670,
      "uv": 5671,
      "fs": 5672,
      "elder": 5673,
      "province": 5674,
      "holders": 5675,
      "artist": 5676,
      "captured": 5677,
      "flows": 5678,
      "ller": 5679,
      "dealing": 5680,
      "counsel": 5681,
      "integration": 5682,
      "shore": 5683,
      "teles": 5684,
      "inflammatory": 5685,
      "fairly": 5686,
      "messages": 5687,
      "ecosystem": 5688,
      "foun": 5689,
      "paint": 5690,
      "seconds": 5691,
      "scholars": 5692,
      "shapes": 5693,
      "acle": 5694,
      "protest": 5695,
      "xy": 5696,
      "secretary": 5697,
      "slave": 5698,
      "split": 5699,
      "ordered": 5700,
      "saint": 5701,
      "fet": 5702,
      "tong": 5703,
      "ras": 5704,
      "kilomet": 5705,
      "sevent": 5706,
      "confirmed": 5707,
      "directed": 5708,
      "quo": 5709,
      "vibr": 5710,
      "bacterial": 5711,
      "abstract": 5712,
      "compens": 5713,
      "equally": 5714,
      "soul": 5715,
      "transform": 5716,
      "christmas": 5717,
      "maintained": 5718,
      "pla": 5719,
      "chron": 5720,
      "desert": 5721,
      "trend": 5722,
      "pressive": 5723,
      "laid": 5724,
      "processed": 5725,
      "attempts": 5726,
      "hormone": 5727,
      "mers": 5728,
      "ministry": 5729,
      "mono": 5730,
      "cotton": 5731,
      "pent": 5732,
      "clip": 5733,
      "youve": 5734,
      "membr": 5735,
      "television": 5736,
      "natives": 5737,
      "mich": 5738,
      "aims": 5739,
      "cution": 5740,
      "finger": 5741,
      "reward": 5742,
      "sensitivity": 5743,
      "asts": 5744,
      "satisf": 5745,
      "owned": 5746,
      "ethical": 5747,
      "abulary": 5748,
      "bak": 5749,
      "ecological": 5750,
      "threats": 5751,
      "sought": 5752,
      "census": 5753,
      "fift": 5754,
      "protective": 5755,
      "quantum": 5756,
      "stations": 5757,
      "treaty": 5758,
      "protecting": 5759,
      "rows": 5760,
      "biodi": 5761,
      "emic": 5762,
      "realize": 5763,
      "references": 5764,
      "develo": 5765,
      "migration": 5766,
      "concerning": 5767,
      "fract": 5768,
      "sharp": 5769,
      "graphical": 5770,
      "affairs": 5771,
      "superior": 5772,
      "asty": 5773,
      "balanced": 5774,
      "varieties": 5775,
      "reporting": 5776,
      "seemed": 5777,
      "merely": 5778,
      "cart": 5779,
      "ende": 5780,
      "pill": 5781,
      "bun": 5782,
      "clot": 5783,
      "videos": 5784,
      "attach": 5785,
      "ultr": 5786,
      "dish": 5787,
      "autonom": 5788,
      "girl": 5789,
      "convin": 5790,
      "vised": 5791,
      "clock": 5792,
      "gd": 5793,
      "hidden": 5794,
      "ensuring": 5795,
      "luck": 5796,
      "manufacturers": 5797,
      "calling": 5798,
      "absence": 5799,
      "igan": 5800,
      "appointed": 5801,
      "gan": 5802,
      "errors": 5803,
      "berry": 5804,
      "flour": 5805,
      "compound": 5806,
      "sustainability": 5807,
      "moderate": 5808,
      "diagram": 5809,
      "currency": 5810,
      "authen": 5811,
      "beach": 5812,
      "potato": 5813,
      "stronger": 5814,
      "inspir": 5815,
      "branches": 5816,
      "objectives": 5817,
      "vocabulary": 5818,
      "corner": 5819,
      "deficiency": 5820,
      "arthritis": 5821,
      "cite": 5822,
      "treas": 5823,
      "drought": 5824,
      "elected": 5825,
      "decreased": 5826,
      "detected": 5827,
      "observe": 5828,
      "newly": 5829,
      "itals": 5830,
      "beings": 5831,
      "heaven": 5832,
      "moves": 5833,
      "dates": 5834,
      "implemented": 5835,
      "traits": 5836,
      "complications": 5837,
      "availability": 5838,
      "considerable": 5839,
      "uous": 5840,
      "tables": 5841,
      "flies": 5842,
      "degrad": 5843,
      "deeper": 5844,
      "gens": 5845,
      "delive": 5846,
      "differ": 5847,
      "drill": 5848,
      "difficulties": 5849,
      "dies": 5850,
      "duty": 5851,
      "swed": 5852,
      "player": 5853,
      "phenomenon": 5854,
      "incident": 5855,
      "trigger": 5856,
      "nice": 5857,
      "wisdom": 5858,
      "contents": 5859,
      "deser": 5860,
      "assume": 5861,
      "oxid": 5862,
      "courts": 5863,
      "oul": 5864,
      "sts": 5865,
      "weve": 5866,
      "tower": 5867,
      "characterized": 5868,
      "defend": 5869,
      "stability": 5870,
      "ores": 5871,
      "observation": 5872,
      "transcr": 5873,
      "lists": 5874,
      "vitamins": 5875,
      "targets": 5876,
      "physician": 5877,
      "covering": 5878,
      "unusual": 5879,
      "eliminate": 5880,
      "variation": 5881,
      "biodiversity": 5882,
      "magazine": 5883,
      "wars": 5884,
      "besides": 5885,
      "alleg": 5886,
      "exploration": 5887,
      "clay": 5888,
      "husband": 5889,
      "tobacco": 5890,
      "dil": 5891,
      "onia": 5892,
      "antibod": 5893,
      "substantial": 5894,
      "replic": 5895,
      "educators": 5896,
      "focuses": 5897,
      "diameter": 5898,
      "sitting": 5899,
      "parks": 5900,
      "representation": 5901,
      "flying": 5902,
      "mold": 5903,
      "traditions": 5904,
      "opposed": 5905,
      "lihood": 5906,
      "iders": 5907,
      "disability": 5908,
      "ola": 5909,
      "bush": 5910,
      "delivered": 5911,
      "prominent": 5912,
      "reserve": 5913,
      "iran": 5914,
      "encouraged": 5915,
      "functioning": 5916,
      "ita": 5917,
      "interior": 5918,
      "authentic": 5919,
      "viral": 5920,
      "jef": 5921,
      "humid": 5922,
      "consideration": 5923,
      "neighborhood": 5924,
      "irect": 5925,
      "cattle": 5926,
      "lyn": 5927,
      "antibiotics": 5928,
      "provider": 5929,
      "neutral": 5930,
      "meter": 5931,
      "serves": 5932,
      "widt": 5933,
      "musical": 5934,
      "personality": 5935,
      "dun": 5936,
      "beans": 5937,
      "oct": 5938,
      "marketing": 5939,
      "perception": 5940,
      "statements": 5941,
      "enor": 5942,
      "inity": 5943,
      "collap": 5944,
      "enterpr": 5945,
      "bang": 5946,
      "berries": 5947,
      "resil": 5948,
      "seat": 5949,
      "divine": 5950,
      "todays": 5951,
      "gran": 5952,
      "brush": 5953,
      "inhabit": 5954,
      "haw": 5955,
      "genesis": 5956,
      "gry": 5957,
      "gray": 5958,
      "emphasis": 5959,
      "mathematical": 5960,
      "bil": 5961,
      "sq": 5962,
      "examined": 5963,
      "wage": 5964,
      "atically": 5965,
      "ampl": 5966,
      "trauma": 5967,
      "slaves": 5968,
      "hate": 5969,
      "ari": 5970,
      "tray": 5971,
      "club": 5972,
      "imperial": 5973,
      "cooper": 5974,
      "castle": 5975,
      "exception": 5976,
      "gained": 5977,
      "ented": 5978,
      "ria": 5979,
      "geomet": 5980,
      "deploy": 5981,
      "rh": 5982,
      "cooling": 5983,
      "promoting": 5984,
      "matically": 5985,
      "igue": 5986,
      "recover": 5987,
      "innovative": 5988,
      "assigned": 5989,
      "coverage": 5990,
      "till": 5991,
      "pronoun": 5992,
      "vietnam": 5993,
      "ican": 5994,
      "synthesis": 5995,
      "ror": 5996,
      "occurring": 5997,
      "technological": 5998,
      "johnson": 5999,
      "interface": 6000,
      "towns": 6001,
      "bots": 6002,
      "interact": 6003,
      "stake": 6004,
      "peer": 6005,
      "mile": 6006,
      "stuff": 6007,
      "aren": 6008,
      "verb": 6009,
      "oids": 6010,
      "nu": 6011,
      "consciousness": 6012,
      "panic": 6013,
      "overview": 6014,
      "providers": 6015,
      "stores": 6016,
      "bigger": 6017,
      "ceremon": 6018,
      "pull": 6019,
      "ancest": 6020,
      "shock": 6021,
      "carbo": 6022,
      "wikip": 6023,
      "genome": 6024,
      "fusion": 6025,
      "mt": 6026,
      "recycling": 6027,
      "sensors": 6028,
      "lincol": 6029,
      "caught": 6030,
      "icks": 6031,
      "thered": 6032,
      "mercur": 6033,
      "consume": 6034,
      "sunlight": 6035,
      "mans": 6036,
      "cla": 6037,
      "associate": 6038,
      "disput": 6039,
      "wi": 6040,
      "demands": 6041,
      "xid": 6042,
      "funded": 6043,
      "anywhere": 6044,
      "vine": 6045,
      "ored": 6046,
      "nuts": 6047,
      "nom": 6048,
      "spheric": 6049,
      "acres": 6050,
      "nevertheless": 6051,
      "lens": 6052,
      "hebre": 6053,
      "fatty": 6054,
      "herent": 6055,
      "ruption": 6056,
      "isolated": 6057,
      "boston": 6058,
      "acquired": 6059,
      "fron": 6060,
      "tick": 6061,
      "airy": 6062,
      "christians": 6063,
      "emerging": 6064,
      "elementary": 6065,
      "canal": 6066,
      "confident": 6067,
      "profile": 6068,
      "settlement": 6069,
      "glac": 6070,
      "vertical": 6071,
      "tock": 6072,
      "icting": 6073,
      "resem": 6074,
      "pace": 6075,
      "navy": 6076,
      "performing": 6077,
      "womens": 6078,
      "ogue": 6079,
      "suscept": 6080,
      "flash": 6081,
      "wy": 6082,
      "aska": 6083,
      "drivers": 6084,
      "farms": 6085,
      "productivity": 6086,
      "cardiovascular": 6087,
      "weigh": 6088,
      "columbia": 6089,
      "happening": 6090,
      "literary": 6091,
      "dem": 6092,
      "abdom": 6093,
      "hardware": 6094,
      "commitment": 6095,
      "adds": 6096,
      "carri": 6097,
      "poetry": 6098,
      "evolved": 6099,
      "exceed": 6100,
      "igate": 6101,
      "weed": 6102,
      "propag": 6103,
      "granted": 6104,
      "angered": 6105,
      "pv": 6106,
      "adverse": 6107,
      "bleed": 6108,
      "sensor": 6109,
      "induced": 6110,
      "iac": 6111,
      "earliest": 6112,
      "engaging": 6113,
      "haust": 6114,
      "nutrient": 6115,
      "register": 6116,
      "sodium": 6117,
      "driver": 6118,
      "rank": 6119,
      "cambridge": 6120,
      "cort": 6121,
      "info": 6122,
      "orous": 6123,
      "phar": 6124,
      "coding": 6125,
      "contribution": 6126,
      "carbohydr": 6127,
      "qualities": 6128,
      "supplements": 6129,
      "ohio": 6130,
      "lighting": 6131,
      "taxes": 6132,
      "urine": 6133,
      "facebook": 6134,
      "exhaust": 6135,
      "pale": 6136,
      "vaccines": 6137,
      "gravity": 6138,
      "narrative": 6139,
      "oste": 6140,
      "analyze": 6141,
      "width": 6142,
      "spray": 6143,
      "basically": 6144,
      "eliza": 6145,
      "worst": 6146,
      "compost": 6147,
      "preserve": 6148,
      "fined": 6149,
      "alz": 6150,
      "mosquito": 6151,
      "render": 6152,
      "choosing": 6153,
      "killing": 6154,
      "entr": 6155,
      "reasonable": 6156,
      "meals": 6157,
      "experiencing": 6158,
      "ishes": 6159,
      "emperor": 6160,
      "addiction": 6161,
      "suffered": 6162,
      "ador": 6163,
      "tribes": 6164,
      "seas": 6165,
      "icious": 6166,
      "icip": 6167,
      "invasive": 6168,
      "sched": 6169,
      "manifest": 6170,
      "hm": 6171,
      "rhyt": 6172,
      "antioxid": 6173,
      "uran": 6174,
      "zealand": 6175,
      "muno": 6176,
      "achievement": 6177,
      "apol": 6178,
      "finds": 6179,
      "heavily": 6180,
      "gardens": 6181,
      "ng": 6182,
      "assets": 6183,
      "button": 6184,
      "attain": 6185,
      "flexible": 6186,
      "pip": 6187,
      "fifth": 6188,
      "overcome": 6189,
      "customer": 6190,
      "municip": 6191,
      "inject": 6192,
      "versions": 6193,
      "empty": 6194,
      "doctr": 6195,
      "humanity": 6196,
      "visited": 6197,
      "insight": 6198,
      "interventions": 6199,
      "bris": 6200,
      "wikipedia": 6201,
      "label": 6202,
      "equality": 6203,
      "surgical": 6204,
      "emit": 6205,
      "introduce": 6206,
      "chin": 6207,
      "erson": 6208,
      "client": 6209,
      "strategic": 6210,
      "confeder": 6211,
      "nab": 6212,
      "etime": 6213,
      "ez": 6214,
      "simult": 6215,
      "chro": 6216,
      "decay": 6217,
      "clou": 6218,
      "viewed": 6219,
      "irrig": 6220,
      "pakistan": 6221,
      "violent": 6222,
      "falling": 6223,
      "mercury": 6224,
      "unt": 6225,
      "chat": 6226,
      "gif": 6227,
      "simultane": 6228,
      "grows": 6229,
      "fiction": 6230,
      "amed": 6231,
      "prospect": 6232,
      "eline": 6233,
      "bias": 6234,
      "phrase": 6235,
      "extend": 6236,
      "definitely": 6237,
      "panels": 6238,
      "immuno": 6239,
      "infants": 6240,
      "writes": 6241,
      "yer": 6242,
      "plum": 6243,
      "uct": 6244,
      "regarded": 6245,
      "fran": 6246,
      "sacred": 6247,
      "apparently": 6248,
      "parameters": 6249,
      "revers": 6250,
      "dairy": 6251,
      "alzheim": 6252,
      "duration": 6253,
      "ranging": 6254,
      "aching": 6255,
      "batteries": 6256,
      "welfare": 6257,
      "scores": 6258,
      "vice": 6259,
      "medit": 6260,
      "whel": 6261,
      "variations": 6262,
      "mixture": 6263,
      "jr": 6264,
      "aret": 6265,
      "sylvan": 6266,
      "spatial": 6267,
      "applying": 6268,
      "icted": 6269,
      "ails": 6270,
      "oldest": 6271,
      "styles": 6272,
      "pse": 6273,
      "grounds": 6274,
      "reput": 6275,
      "origins": 6276,
      "cdc": 6277,
      "bapt": 6278,
      "threatened": 6279,
      "specim": 6280,
      "lac": 6281,
      "cf": 6282,
      "rod": 6283,
      "quantity": 6284,
      "reverse": 6285,
      "cig": 6286,
      "certific": 6287,
      "ole": 6288,
      "raising": 6289,
      "weakness": 6290,
      "logically": 6291,
      "watching": 6292,
      "affecting": 6293,
      "uration": 6294,
      "dum": 6295,
      "spinal": 6296,
      "neys": 6297,
      "ura": 6298,
      "equation": 6299,
      "focusing": 6300,
      "descript": 6301,
      "entertain": 6302,
      "lean": 6303,
      "universities": 6304,
      "ritual": 6305,
      "addressed": 6306,
      "chances": 6307,
      "websites": 6308,
      "contributed": 6309,
      "shire": 6310,
      "myth": 6311,
      "districts": 6312,
      "tab": 6313,
      "dynamics": 6314,
      "determining": 6315,
      "exploring": 6316,
      "endangered": 6317,
      "confirm": 6318,
      "islamic": 6319,
      "illegal": 6320,
      "tumor": 6321,
      "concluded": 6322,
      "verte": 6323,
      "campus": 6324,
      "concentrations": 6325,
      "prey": 6326,
      "declar": 6327,
      "societies": 6328,
      "gases": 6329,
      "evident": 6330,
      "automatically": 6331,
      "rating": 6332,
      "metals": 6333,
      "restoration": 6334,
      "cooperation": 6335,
      "hills": 6336,
      "enables": 6337,
      "powder": 6338,
      "epa": 6339,
      "twel": 6340,
      "establishment": 6341,
      "edward": 6342,
      "iah": 6343,
      "mete": 6344,
      "researcher": 6345,
      "ecosystems": 6346,
      "medie": 6347,
      "varies": 6348,
      "hygi": 6349,
      "smell": 6350,
      "paragrap": 6351,
      "dutch": 6352,
      "ansas": 6353,
      "pointed": 6354,
      "pandemic": 6355,
      "opposition": 6356,
      "pyt": 6357,
      "continuing": 6358,
      "plates": 6359,
      "mouse": 6360,
      "pennsylvan": 6361,
      "pear": 6362,
      "removing": 6363,
      "classic": 6364,
      "fatigue": 6365,
      "vegetation": 6366,
      "characteristic": 6367,
      "axis": 6368,
      "explic": 6369,
      "medieval": 6370,
      "evening": 6371,
      "oured": 6372,
      "overwhel": 6373,
      "directions": 6374,
      "pione": 6375,
      "palest": 6376,
      "pathy": 6377,
      "pilot": 6378,
      "grains": 6379,
      "incidence": 6380,
      "irus": 6381,
      "permission": 6382,
      "hread": 6383,
      "thereby": 6384,
      "hurric": 6385,
      "fats": 6386,
      "boards": 6387,
      "favour": 6388,
      "aded": 6389,
      "kelet": 6390,
      "chip": 6391,
      "statistical": 6392,
      "quiet": 6393,
      "selling": 6394,
      "streets": 6395,
      "subscr": 6396,
      "burden": 6397,
      "cence": 6398,
      "reef": 6399,
      "ups": 6400,
      "improvements": 6401,
      "alive": 6402,
      "cia": 6403,
      "engagement": 6404,
      "boundaries": 6405,
      "fascin": 6406,
      "thyroid": 6407,
      "separated": 6408,
      "priority": 6409,
      "bullying": 6410,
      "module": 6411,
      "buried": 6412,
      "ilation": 6413,
      "nutritional": 6414,
      "lasting": 6415,
      "whenever": 6416,
      "classified": 6417,
      "faculty": 6418,
      "sizes": 6419,
      "dense": 6420,
      "leon": 6421,
      "testament": 6422,
      "colored": 6423,
      "creek": 6424,
      "lincoln": 6425,
      "raid": 6426,
      "crew": 6427,
      "oting": 6428,
      "fuels": 6429,
      "hops": 6430,
      "aside": 6431,
      "scotland": 6432,
      "privacy": 6433,
      "eful": 6434,
      "argue": 6435,
      "expanded": 6436,
      "scul": 6437,
      "prem": 6438,
      "acles": 6439,
      "yl": 6440,
      "georgia": 6441,
      "kat": 6442,
      "cave": 6443,
      "passeng": 6444,
      "creatures": 6445,
      "passion": 6446,
      "colonies": 6447,
      "tutor": 6448,
      "actively": 6449,
      "tok": 6450,
      "uter": 6451,
      "adapted": 6452,
      "calculated": 6453,
      "thread": 6454,
      "developmental": 6455,
      "exhibit": 6456,
      "chamber": 6457,
      "isn": 6458,
      "tts": 6459,
      "reviewed": 6460,
      "losses": 6461,
      "elsewhere": 6462,
      "hawa": 6463,
      "chor": 6464,
      "usalem": 6465,
      "soy": 6466,
      "representative": 6467,
      "quarters": 6468,
      "corresponding": 6469,
      "colony": 6470,
      "obst": 6471,
      "jerusalem": 6472,
      "hyl": 6473,
      "welcome": 6474,
      "craf": 6475,
      "constitutional": 6476,
      "caf": 6477,
      "bearing": 6478,
      "spoken": 6479,
      "prayer": 6480,
      "waiting": 6481,
      "chromo": 6482,
      "heal": 6483,
      "arguments": 6484,
      "expectations": 6485,
      "michigan": 6486,
      "classification": 6487,
      "uniform": 6488,
      "membrane": 6489,
      "didn": 6490,
      "adel": 6491,
      "clients": 6492,
      "tot": 6493,
      "stab": 6494,
      "strike": 6495,
      "shado": 6496,
      "glut": 6497,
      "losing": 6498,
      "otic": 6499,
      "exciting": 6500,
      "lungs": 6501,
      "handling": 6502,
      "buck": 6503,
      "lymp": 6504,
      "container": 6505,
      "dramatic": 6506,
      "lide": 6507,
      "capabilities": 6508,
      "acceptable": 6509,
      "wearing": 6510,
      "teens": 6511,
      "mul": 6512,
      "spots": 6513,
      "consumed": 6514,
      "aimed": 6515,
      "attitude": 6516,
      "intention": 6517,
      "itarian": 6518,
      "trace": 6519,
      "captain": 6520,
      "lt": 6521,
      "dominant": 6522,
      "assistant": 6523,
      "minds": 6524,
      "intestinal": 6525,
      "tone": 6526,
      "posts": 6527,
      "remarkable": 6528,
      "prevalence": 6529,
      "cellular": 6530,
      "fox": 6531,
      "publications": 6532,
      "ctu": 6533,
      "repeat": 6534,
      "bishop": 6535,
      "nc": 6536,
      "hepat": 6537,
      "summar": 6538,
      "insights": 6539,
      "och": 6540,
      "drag": 6541,
      "nis": 6542,
      "lings": 6543,
      "cough": 6544,
      "update": 6545,
      "consuming": 6546,
      "iana": 6547,
      "digestive": 6548,
      "promised": 6549,
      "apor": 6550,
      "vig": 6551,
      "whit": 6552,
      "cue": 6553,
      "hospitals": 6554,
      "contributions": 6555,
      "appeal": 6556,
      "sentences": 6557,
      "illa": 6558,
      "hypothesis": 6559,
      "convert": 6560,
      "atmospheric": 6561,
      "specialist": 6562,
      "pennsylvania": 6563,
      "crypto": 6564,
      "wonderful": 6565,
      "approv": 6566,
      "trick": 6567,
      "bare": 6568,
      "physically": 6569,
      "sees": 6570,
      "apeut": 6571,
      "brus": 6572,
      "cancers": 6573,
      "loop": 6574,
      "lined": 6575,
      "finance": 6576,
      "rant": 6577,
      "guess": 6578,
      "geographic": 6579,
      "ala": 6580,
      "export": 6581,
      "sessions": 6582,
      "sab": 6583,
      "happiness": 6584,
      "calend": 6585,
      "holiday": 6586,
      "settled": 6587,
      "gulf": 6588,
      "magn": 6589,
      "clinic": 6590,
      "medicines": 6591,
      "xx": 6592,
      "massach": 6593,
      "encyclopedia": 6594,
      "globe": 6595,
      "engines": 6596,
      "movie": 6597,
      "optical": 6598,
      "twit": 6599,
      "publishing": 6600,
      "fan": 6601,
      "circulation": 6602,
      "rip": 6603,
      "noticed": 6604,
      "preferred": 6605,
      "collections": 6606,
      "eros": 6607,
      "targeted": 6608,
      "payment": 6609,
      "korea": 6610,
      "colorado": 6611,
      "hormones": 6612,
      "solved": 6613,
      "iant": 6614,
      "tering": 6615,
      "songs": 6616,
      "massachuse": 6617,
      "fatal": 6618,
      "limitations": 6619,
      "scheme": 6620,
      "sculpt": 6621,
      "anticip": 6622,
      "unk": 6623,
      "symbols": 6624,
      "acre": 6625,
      "versus": 6626,
      "partial": 6627,
      "harder": 6628,
      "pole": 6629,
      "fathers": 6630,
      "methodo": 6631,
      "occupied": 6632,
      "lical": 6633,
      "massachusetts": 6634,
      "genetics": 6635,
      "households": 6636,
      "phon": 6637,
      "barrier": 6638,
      "chris": 6639,
      "recru": 6640,
      "sop": 6641,
      "paying": 6642,
      "commons": 6643,
      "underground": 6644,
      "numer": 6645,
      "investigate": 6646,
      "victory": 6647,
      "vertebr": 6648,
      "churches": 6649,
      "lowest": 6650,
      "lecture": 6651,
      "infectious": 6652,
      "stopped": 6653,
      "believes": 6654,
      "anthropo": 6655,
      "beet": 6656,
      "erg": 6657,
      "edit": 6658,
      "conversion": 6659,
      "erup": 6660,
      "discipline": 6661,
      "ski": 6662,
      "newspaper": 6663,
      "bered": 6664,
      "rho": 6665,
      "entering": 6666,
      "keeps": 6667,
      "evolutionary": 6668,
      "aints": 6669,
      "hier": 6670,
      "liberal": 6671,
      "harvard": 6672,
      "trait": 6673,
      "probability": 6674,
      "gospe": 6675,
      "placement": 6676,
      "cision": 6677,
      "synthetic": 6678,
      "license": 6679,
      "controlling": 6680,
      "representatives": 6681,
      "creativity": 6682,
      "codes": 6683,
      "fraction": 6684,
      "rna": 6685,
      "awa": 6686,
      "nursing": 6687,
      "basin": 6688,
      "memorial": 6689,
      "wells": 6690,
      "archy": 6691,
      "particle": 6692,
      "infant": 6693,
      "documented": 6694,
      "tact": 6695,
      "iding": 6696,
      "fertility": 6697,
      "reo": 6698,
      "socio": 6699,
      "barriers": 6700,
      "crus": 6701,
      "pod": 6702,
      "phic": 6703,
      "sters": 6704,
      "literally": 6705,
      "safely": 6706,
      "optimal": 6707,
      "forum": 6708,
      "calculate": 6709,
      "gus": 6710,
      "sale": 6711,
      "tack": 6712,
      "atoms": 6713,
      "preparing": 6714,
      "teenth": 6715,
      "vegetable": 6716,
      "iva": 6717,
      "iro": 6718,
      "saved": 6719,
      "chicken": 6720,
      "pep": 6721,
      "collective": 6722,
      "brothers": 6723,
      "advances": 6724,
      "loose": 6725,
      "lingu": 6726,
      "shield": 6727,
      "argued": 6728,
      "worker": 6729,
      "replacement": 6730,
      "ette": 6731,
      "hell": 6732,
      "virtually": 6733,
      "tha": 6734,
      "eart": 6735,
      "jacks": 6736,
      "rib": 6737,
      "christianity": 6738,
      "kee": 6739,
      "deeply": 6740,
      "perceived": 6741,
      "influen": 6742,
      "savings": 6743,
      "jar": 6744,
      "veloc": 6745,
      "ancing": 6746,
      "liberty": 6747,
      "revolutionary": 6748,
      "fought": 6749,
      "eenth": 6750,
      "reserved": 6751,
      "prize": 6752,
      "portions": 6753,
      "shed": 6754,
      "reign": 6755,
      "diarr": 6756,
      "aine": 6757,
      "hea": 6758,
      "amy": 6759,
      "outdoor": 6760,
      "embed": 6761,
      "idal": 6762,
      "bears": 6763,
      "brains": 6764,
      "turkey": 6765,
      "sunday": 6766,
      "shor": 6767,
      "mos": 6768,
      "personnel": 6769,
      "iver": 6770,
      "pupils": 6771,
      "tourism": 6772,
      "itory": 6773,
      "metap": 6774,
      "compat": 6775,
      "registered": 6776,
      "obviously": 6777,
      "accompan": 6778,
      "diagnostic": 6779,
      "continent": 6780,
      "suicide": 6781,
      "tomato": 6782,
      "coc": 6783,
      "workplace": 6784,
      "cement": 6785,
      "photographs": 6786,
      "cured": 6787,
      "ece": 6788,
      "hybrid": 6789,
      "fate": 6790,
      "assignment": 6791,
      "epis": 6792,
      "habitats": 6793,
      "ireless": 6794,
      "ethics": 6795,
      "transmitted": 6796,
      "engineer": 6797,
      "aggressive": 6798,
      "pope": 6799,
      "strange": 6800,
      "specialized": 6801,
      "iraq": 6802,
      "accompanied": 6803,
      "publis": 6804,
      "intensive": 6805,
      "soils": 6806,
      "therapeut": 6807,
      "atomic": 6808,
      "attitudes": 6809,
      "bleeding": 6810,
      "wider": 6811,
      "clothes": 6812,
      "oy": 6813,
      "addressing": 6814,
      "thirty": 6815,
      "painful": 6816,
      "expertise": 6817,
      "alexander": 6818,
      "lady": 6819,
      "legit": 6820,
      "relate": 6821,
      "privile": 6822,
      "dip": 6823,
      "courage": 6824,
      "honest": 6825,
      "default": 6826,
      "agen": 6827,
      "discussions": 6828,
      "competitive": 6829,
      "chocol": 6830,
      "deer": 6831,
      "bury": 6832,
      "gol": 6833,
      "pharm": 6834,
      "requirement": 6835,
      "explicit": 6836,
      "restricted": 6837,
      "filling": 6838,
      "cryst": 6839,
      "aws": 6840,
      "sheep": 6841,
      "celebrated": 6842,
      "kim": 6843,
      "phia": 6844,
      "aes": 6845,
      "restaur": 6846,
      "accounting": 6847,
      "grammar": 6848,
      "complement": 6849,
      "practition": 6850,
      "hebrew": 6851,
      "oak": 6852,
      "amination": 6853,
      "complexity": 6854,
      "acknowled": 6855,
      "occasionally": 6856,
      "specified": 6857,
      "trim": 6858,
      "entre": 6859,
      "irs": 6860,
      "meteor": 6861,
      "gotten": 6862,
      "enormous": 6863,
      "regulatory": 6864,
      "corps": 6865,
      "pest": 6866,
      "muslims": 6867,
      "joints": 6868,
      "corporate": 6869,
      "juice": 6870,
      "inspect": 6871,
      "ultimate": 6872,
      "livestock": 6873,
      "adam": 6874,
      "ophy": 6875,
      "amendment": 6876,
      "gift": 6877,
      "estate": 6878,
      "assumed": 6879,
      "dipl": 6880,
      "celebrate": 6881,
      "worthy": 6882,
      "paste": 6883,
      "americas": 6884,
      "ecology": 6885,
      "sized": 6886,
      "involvement": 6887,
      "impl": 6888,
      "bene": 6889,
      "alumin": 6890,
      "manus": 6891,
      "static": 6892,
      "jet": 6893,
      "turb": 6894,
      "elizabeth": 6895,
      "scat": 6896,
      "lifetime": 6897,
      "odes": 6898,
      "fulness": 6899,
      "gem": 6900,
      "metro": 6901,
      "mond": 6902,
      "quit": 6903,
      "angles": 6904,
      "physicians": 6905,
      "gregation": 6906,
      "accord": 6907,
      "dess": 6908,
      "enhanced": 6909,
      "impair": 6910,
      "amino": 6911,
      "fu": 6912,
      "junction": 6913,
      "returns": 6914,
      "converted": 6915,
      "enna": 6916,
      "licens": 6917,
      "volunteers": 6918,
      "devast": 6919,
      "servers": 6920,
      "dement": 6921,
      "indones": 6922,
      "mals": 6923,
      "facilitate": 6924,
      "entit": 6925,
      "quer": 6926,
      "amazon": 6927,
      "restore": 6928,
      "noun": 6929,
      "abra": 6930,
      "cathe": 6931,
      "wake": 6932,
      "feels": 6933,
      "fluor": 6934,
      "pollut": 6935,
      "incent": 6936,
      "recording": 6937,
      "scenario": 6938,
      "puzz": 6939,
      "motivation": 6940,
      "cuts": 6941,
      "trem": 6942,
      "gel": 6943,
      "suddenly": 6944,
      "festival": 6945,
      "agan": 6946,
      "mits": 6947,
      "ales": 6948,
      "gary": 6949,
      "sheets": 6950,
      "contamination": 6951,
      "weekly": 6952,
      "legend": 6953,
      "ownership": 6954,
      "cket": 6955,
      "dos": 6956,
      "cock": 6957,
      "neural": 6958,
      "minority": 6959,
      "stig": 6960,
      "invention": 6961,
      "cheap": 6962,
      "sensory": 6963,
      "differently": 6964,
      "essays": 6965,
      "establishing": 6966,
      "drinks": 6967,
      "sister": 6968,
      "emerged": 6969,
      "meaningful": 6970,
      "indirect": 6971,
      "intim": 6972,
      "senate": 6973,
      "metabolism": 6974,
      "ipts": 6975,
      "tracking": 6976,
      "opinions": 6977,
      "francisco": 6978,
      "hang": 6979,
      "stood": 6980,
      "ifications": 6981,
      "buying": 6982,
      "brill": 6983,
      "gang": 6984,
      "modeling": 6985,
      "immigrants": 6986,
      "bomb": 6987,
      "worms": 6988,
      "penet": 6989,
      "apps": 6990,
      "zones": 6991,
      "arrang": 6992,
      "managers": 6993,
      "preserved": 6994,
      "bands": 6995,
      "declaration": 6996,
      "outbreak": 6997,
      "adder": 6998,
      "revenue": 6999,
      "hane": 7000,
      "existed": 7001,
      "anean": 7002,
      "inated": 7003,
      "throat": 7004,
      "bent": 7005,
      "cycles": 7006,
      "theat": 7007,
      "mammals": 7008,
      "currence": 7009,
      "dino": 7010,
      "magnit": 7011,
      "gian": 7012,
      "ears": 7013,
      "meanwhile": 7014,
      "myself": 7015,
      "kir": 7016,
      "tongue": 7017,
      "amps": 7018,
      "daniel": 7019,
      "lav": 7020,
      "shorter": 7021,
      "seriously": 7022,
      "representing": 7023,
      "wasnt": 7024,
      "utility": 7025,
      "sept": 7026,
      "geography": 7027,
      "oblig": 7028,
      "reviews": 7029,
      "addresses": 7030,
      "merch": 7031,
      "curve": 7032,
      "pier": 7033,
      "kent": 7034,
      "enthus": 7035,
      "dimensions": 7036,
      "visiting": 7037,
      "fda": 7038,
      "tape": 7039,
      "encounter": 7040,
      "kh": 7041,
      "ride": 7042,
      "oceans": 7043,
      "sleeping": 7044,
      "reproductive": 7045,
      "dating": 7046,
      "minimal": 7047,
      "analyses": 7048,
      "acted": 7049,
      "archives": 7050,
      "blank": 7051,
      "yoga": 7052,
      "oreg": 7053,
      "phan": 7054,
      "det": 7055,
      "begun": 7056,
      "developments": 7057,
      "earthquake": 7058,
      "rehab": 7059,
      "neurons": 7060,
      "finite": 7061,
      "philosoph": 7062,
      "bite": 7063,
      "iot": 7064,
      "systematic": 7065,
      "passes": 7066,
      "dot": 7067,
      "translated": 7068,
      "rick": 7069,
      "cp": 7070,
      "theoretical": 7071,
      "workshop": 7072,
      "knee": 7073,
      "encoun": 7074,
      "inois": 7075,
      "charges": 7076,
      "binding": 7077,
      "transformation": 7078,
      "realized": 7079,
      "founder": 7080,
      "sib": 7081,
      "accurately": 7082,
      "cow": 7083,
      "flexibility": 7084,
      "preservation": 7085,
      "oils": 7086,
      "peac": 7087,
      "judgment": 7088,
      "influenza": 7089,
      "frustr": 7090,
      "iatives": 7091,
      "edu": 7092,
      "enforcement": 7093,
      "manuscr": 7094,
      "dementia": 7095,
      "absorption": 7096,
      "everywhere": 7097,
      "initiatives": 7098,
      "incorporated": 7099,
      "friday": 7100,
      "twelve": 7101,
      "purchased": 7102,
      "divide": 7103,
      "package": 7104,
      "backs": 7105,
      "pairs": 7106,
      "hygiene": 7107,
      "pink": 7108,
      "jim": 7109,
      "crack": 7110,
      "achieving": 7111,
      "worm": 7112,
      "prophet": 7113,
      "stell": 7114,
      "pad": 7115,
      "readily": 7116,
      "isolation": 7117,
      "macro": 7118,
      "minimize": 7119,
      "disk": 7120,
      "dyn": 7121,
      "earths": 7122,
      "illinois": 7123,
      "designated": 7124,
      "kan": 7125,
      "beam": 7126,
      "reflection": 7127,
      "pne": 7128,
      "speaker": 7129,
      "chocolate": 7130,
      "izz": 7131,
      "themes": 7132,
      "influences": 7133,
      "notion": 7134,
      "matthe": 7135,
      "prescribed": 7136,
      "permit": 7137,
      "fant": 7138,
      "sic": 7139,
      "plasma": 7140,
      "telescope": 7141,
      "gathered": 7142,
      "hindu": 7143,
      "contributing": 7144,
      "libraries": 7145,
      "exem": 7146,
      "chose": 7147,
      "neglect": 7148,
      "definitions": 7149,
      "streams": 7150,
      "dried": 7151,
      "tent": 7152,
      "separation": 7153,
      "closure": 7154,
      "appointment": 7155,
      "borrow": 7156,
      "femin": 7157,
      "yu": 7158,
      "prose": 7159,
      "severity": 7160,
      "annually": 7161,
      "ashes": 7162,
      "profound": 7163,
      "develops": 7164,
      "moses": 7165,
      "hub": 7166,
      "circul": 7167,
      "fitness": 7168,
      "surveys": 7169,
      "jacob": 7170,
      "gastro": 7171,
      "regulate": 7172,
      "athletes": 7173,
      "promising": 7174,
      "reaches": 7175,
      "iop": 7176,
      "sher": 7177,
      "twitter": 7178,
      "meetings": 7179,
      "withdraw": 7180,
      "cass": 7181,
      "traditionally": 7182,
      "sovere": 7183,
      "varied": 7184,
      "sovereign": 7185,
      "identical": 7186,
      "municipal": 7187,
      "malaria": 7188,
      "cule": 7189,
      "consequently": 7190,
      "fles": 7191,
      "perse": 7192,
      "organis": 7193,
      "abraham": 7194,
      "arise": 7195,
      "ordination": 7196,
      "reveals": 7197,
      "railroad": 7198,
      "winds": 7199,
      "spacecraft": 7200,
      "paintings": 7201,
      "orate": 7202,
      "pam": 7203,
      "emia": 7204,
      "hack": 7205,
      "avoiding": 7206,
      "swelling": 7207,
      "civilization": 7208,
      "saturated": 7209,
      "belt": 7210,
      "fere": 7211,
      "ifice": 7212,
      "mexican": 7213,
      "absolutely": 7214,
      "mant": 7215,
      "alternatives": 7216,
      "restrictions": 7217,
      "dinosaur": 7218,
      "una": 7219,
      "possibilities": 7220,
      "illnesses": 7221,
      "implementing": 7222,
      "poster": 7223,
      "conflicts": 7224,
      "calm": 7225,
      "mapping": 7226,
      "irrigation": 7227,
      "algorithm": 7228,
      "anni": 7229,
      "spoke": 7230,
      "iny": 7231,
      "storms": 7232,
      "organisation": 7233,
      "graphics": 7234,
      "grace": 7235,
      "unlikely": 7236,
      "weld": 7237,
      "consent": 7238,
      "locate": 7239,
      "microsoft": 7240,
      "headed": 7241,
      "channels": 7242,
      "wick": 7243,
      "pub": 7244,
      "bark": 7245,
      "threatening": 7246,
      "installation": 7247,
      "allergy": 7248,
      "juris": 7249,
      "encouraging": 7250,
      "wings": 7251,
      "patent": 7252,
      "trading": 7253,
      "beneath": 7254,
      "lod": 7255,
      "analyzed": 7256,
      "administrative": 7257,
      "ols": 7258,
      "prosper": 7259,
      "ingly": 7260,
      "tends": 7261,
      "wireless": 7262,
      "dropped": 7263,
      "jon": 7264,
      "bonds": 7265,
      "izations": 7266,
      "aked": 7267,
      "segment": 7268,
      "geno": 7269,
      "colleg": 7270,
      "desk": 7271,
      "predicted": 7272,
      "assa": 7273,
      "calendar": 7274,
      "ours": 7275,
      "reflected": 7276,
      "philadel": 7277,
      "trave": 7278,
      "progressive": 7279,
      "finish": 7280,
      "varying": 7281,
      "issip": 7282,
      "metabolic": 7283,
      "inflation": 7284,
      "descend": 7285,
      "recon": 7286,
      "scales": 7287,
      "expanding": 7288,
      "provision": 7289,
      "allergies": 7290,
      "pesticides": 7291,
      "cable": 7292,
      "subsequently": 7293,
      "displayed": 7294,
      "elections": 7295,
      "equipped": 7296,
      "mississip": 7297,
      "infer": 7298,
      "von": 7299,
      "discharge": 7300,
      "onset": 7301,
      "stabil": 7302,
      "operated": 7303,
      "semi": 7304,
      "monthly": 7305,
      "landing": 7306,
      "magnitude": 7307,
      "contrary": 7308,
      "gae": 7309,
      "noon": 7310,
      "insu": 7311,
      "combine": 7312,
      "varian": 7313,
      "rol": 7314,
      "intelligent": 7315,
      "apers": 7316,
      "voy": 7317,
      "perfectly": 7318,
      "rix": 7319,
      "cb": 7320,
      "adopt": 7321,
      "eness": 7322,
      "ninet": 7323,
      "potass": 7324,
      "films": 7325,
      "candidate": 7326,
      "simultaneously": 7327,
      "contaminated": 7328,
      "magnes": 7329,
      "adolescents": 7330,
      "wart": 7331,
      "potassium": 7332,
      "cylind": 7333,
      "perpet": 7334,
      "doses": 7335,
      "mere": 7336,
      "adaptation": 7337,
      "clouds": 7338,
      "persu": 7339,
      "requiring": 7340,
      "invasion": 7341,
      "reinforce": 7342,
      "educated": 7343,
      "flux": 7344,
      "subsid": 7345,
      "quantities": 7346,
      "fleet": 7347,
      "dimin": 7348,
      "naval": 7349,
      "villages": 7350,
      "verbal": 7351,
      "lig": 7352,
      "porters": 7353,
      "aneous": 7354,
      "copies": 7355,
      "alongside": 7356,
      "residential": 7357,
      "perspectives": 7358,
      "iments": 7359,
      "anatom": 7360,
      "ranges": 7361,
      "coral": 7362,
      "circular": 7363,
      "corporation": 7364,
      "surprise": 7365,
      "pharmac": 7366,
      "gil": 7367,
      "vag": 7368,
      "elevated": 7369,
      "accomplish": 7370,
      "sd": 7371,
      "wooden": 7372,
      "collaborative": 7373,
      "peas": 7374,
      "ema": 7375,
      "williams": 7376,
      "jackson": 7377,
      "foster": 7378,
      "swimming": 7379,
      "avirus": 7380,
      "meditation": 7381,
      "winning": 7382,
      "defe": 7383,
      "java": 7384,
      "electronics": 7385,
      "guided": 7386,
      "fascinating": 7387,
      "bladder": 7388,
      "kitchen": 7389,
      "hort": 7390,
      "orientation": 7391,
      "league": 7392,
      "mrs": 7393,
      "connecting": 7394,
      "visits": 7395,
      "faction": 7396,
      "worn": 7397,
      "diets": 7398,
      "sediment": 7399,
      "sophist": 7400,
      "transferred": 7401,
      "lith": 7402,
      "assessments": 7403,
      "algorithms": 7404,
      "electrons": 7405,
      "popularity": 7406,
      "loud": 7407,
      "drum": 7408,
      "velocity": 7409,
      "vom": 7410,
      "developers": 7411,
      "boundary": 7412,
      "abundance": 7413,
      "inevit": 7414,
      "milit": 7415,
      "employee": 7416,
      "absorb": 7417,
      "mov": 7418,
      "worksheets": 7419,
      "dal": 7420,
      "este": 7421,
      "pediatric": 7422,
      "integrity": 7423,
      "corne": 7424,
      "greece": 7425,
      "instances": 7426,
      "submit": 7427,
      "pens": 7428,
      "southeast": 7429,
      "distant": 7430,
      "painted": 7431,
      "bub": 7432,
      "exhibition": 7433,
      "aero": 7434,
      "mediterr": 7435,
      "speakers": 7436,
      "susceptible": 7437,
      "mini": 7438,
      "ey": 7439,
      "santa": 7440,
      "robust": 7441,
      "bought": 7442,
      "attractive": 7443,
      "sending": 7444,
      "enzymes": 7445,
      "prolong": 7446,
      "debris": 7447,
      "candidates": 7448,
      "encry": 7449,
      "adoption": 7450,
      "lift": 7451,
      "repet": 7452,
      "regime": 7453,
      "ena": 7454,
      "approval": 7455,
      "incorporate": 7456,
      "thur": 7457,
      "platforms": 7458,
      "bever": 7459,
      "surviv": 7460,
      "rey": 7461,
      "tumors": 7462,
      "salmon": 7463,
      "relating": 7464,
      "conclusions": 7465,
      "monday": 7466,
      "refused": 7467,
      "schedul": 7468,
      "gentle": 7469,
      "mutations": 7470,
      "chester": 7471,
      "enzyme": 7472,
      "ukrain": 7473,
      "jones": 7474,
      "imic": 7475,
      "coat": 7476,
      "philadelphia": 7477,
      "alliance": 7478,
      "palm": 7479,
      "loan": 7480,
      "historians": 7481,
      "amongst": 7482,
      "homework": 7483,
      "bags": 7484,
      "bug": 7485,
      "plast": 7486,
      "enjoyed": 7487,
      "ruled": 7488,
      "python": 7489,
      "phal": 7490,
      "stephen": 7491,
      "healthier": 7492,
      "bugs": 7493,
      "lis": 7494,
      "ij": 7495,
      "producers": 7496,
      "rainfall": 7497,
      "distinguish": 7498,
      "tang": 7499,
      "toxins": 7500,
      "controvers": 7501,
      "punishment": 7502,
      "puts": 7503,
      "sr": 7504,
      "tet": 7505,
      "dimensional": 7506,
      "oriented": 7507,
      "efficiently": 7508,
      "mediterranean": 7509,
      "ested": 7510,
      "therapeutic": 7511,
      "hide": 7512,
      "herself": 7513,
      "horizontal": 7514,
      "legacy": 7515,
      "grave": 7516,
      "diver": 7517,
      "slip": 7518,
      "woods": 7519,
      "spreading": 7520,
      "rocket": 7521,
      "burned": 7522,
      "beta": 7523,
      "aristo": 7524,
      "determination": 7525,
      "iry": 7526,
      "epidem": 7527,
      "elderly": 7528,
      "inhabitants": 7529,
      "spine": 7530,
      "confusion": 7531,
      "seasonal": 7532,
      "nake": 7533,
      "tolerance": 7534,
      "broke": 7535,
      "indoor": 7536,
      "improves": 7537,
      "generating": 7538,
      "vaccination": 7539,
      "loaded": 7540,
      "shakes": 7541,
      "casting": 7542,
      "stit": 7543,
      "reasoning": 7544,
      "preneur": 7545,
      "adhd": 7546,
      "suggestions": 7547,
      "egyptian": 7548,
      "cheese": 7549,
      "earn": 7550,
      "grey": 7551,
      "cluster": 7552,
      "valve": 7553,
      "jump": 7554,
      "gay": 7555,
      "whil": 7556,
      "boxes": 7557,
      "immigration": 7558,
      "alert": 7559,
      "coli": 7560,
      "mississippi": 7561,
      "plug": 7562,
      "convenient": 7563,
      "aka": 7564,
      "oo": 7565,
      "retail": 7566,
      "shoulder": 7567,
      "magic": 7568,
      "desir": 7569,
      "historically": 7570,
      "jum": 7571,
      "inherent": 7572,
      "berlin": 7573,
      "allergic": 7574,
      "crimes": 7575,
      "conservative": 7576,
      "magnesium": 7577,
      "fried": 7578,
      "abandoned": 7579,
      "stereo": 7580,
      "tay": 7581,
      "consequence": 7582,
      "hazards": 7583,
      "mobility": 7584,
      "totally": 7585,
      "shoes": 7586,
      "countrys": 7587,
      "compliance": 7588,
      "collapse": 7589,
      "whilst": 7590,
      "northwest": 7591,
      "entrepreneur": 7592,
      "precisely": 7593,
      "oregon": 7594,
      "ancestors": 7595,
      "proposal": 7596,
      "designing": 7597,
      "pian": 7598,
      "wolf": 7599,
      "etic": 7600,
      "aming": 7601,
      "attended": 7602,
      "erosion": 7603,
      "arizon": 7604,
      "deem": 7605,
      "strains": 7606,
      "bottle": 7607,
      "applies": 7608,
      "gross": 7609,
      "sectors": 7610,
      "sail": 7611,
      "gments": 7612,
      "oe": 7613,
      "straw": 7614,
      "seiz": 7615,
      "vy": 7616,
      "alaska": 7617,
      "biblical": 7618,
      "vector": 7619,
      "attributed": 7620,
      "hurt": 7621,
      "structured": 7622,
      "volcano": 7623,
      "onaut": 7624,
      "submitted": 7625,
      "illustrated": 7626,
      "tribe": 7627,
      "turk": 7628,
      "ani": 7629,
      "lion": 7630,
      "issance": 7631,
      "mistakes": 7632,
      "prints": 7633,
      "lia": 7634,
      "operational": 7635,
      "masters": 7636,
      "sampling": 7637,
      "cannab": 7638,
      "password": 7639,
      "peers": 7640,
      "asser": 7641,
      "invented": 7642,
      "missed": 7643,
      "forcing": 7644,
      "camps": 7645,
      "entitled": 7646,
      "occupation": 7647,
      "likewise": 7648,
      "genom": 7649,
      "anna": 7650,
      "qualified": 7651,
      "accidents": 7652,
      "imagination": 7653,
      "draft": 7654,
      "certified": 7655,
      "realistic": 7656,
      "tough": 7657,
      "micros": 7658,
      "tero": 7659,
      "offices": 7660,
      "palace": 7661,
      "gear": 7662,
      "prone": 7663,
      "buff": 7664,
      "blacks": 7665,
      "collecting": 7666,
      "ridge": 7667,
      "prescription": 7668,
      "porter": 7669,
      "niger": 7670,
      "hopes": 7671,
      "refugees": 7672,
      "predomin": 7673,
      "hres": 7674,
      "containers": 7675,
      "coins": 7676,
      "bage": 7677,
      "omega": 7678,
      "vacu": 7679,
      "affordable": 7680,
      "doctrine": 7681,
      "firms": 7682,
      "shi": 7683,
      "importantly": 7684,
      "glas": 7685,
      "attempted": 7686,
      "jured": 7687,
      "murder": 7688,
      "reservo": 7689,
      "isons": 7690,
      "abundant": 7691,
      "mb": 7692,
      "prevents": 7693,
      "thres": 7694,
      "dox": 7695,
      "partly": 7696,
      "athy": 7697,
      "comparative": 7698,
      "skelet": 7699,
      "algae": 7700,
      "railway": 7701,
      "responsibilities": 7702,
      "robots": 7703,
      "phd": 7704,
      "precision": 7705,
      "suggesting": 7706,
      "comparing": 7707,
      "officially": 7708,
      "vet": 7709,
      "bills": 7710,
      "distinction": 7711,
      "pollin": 7712,
      "caution": 7713,
      "empower": 7714,
      "zinc": 7715,
      "digit": 7716,
      "describing": 7717,
      "returning": 7718,
      "shelter": 7719,
      "pir": 7720,
      "din": 7721,
      "stretch": 7722,
      "dramatically": 7723,
      "erect": 7724,
      "citation": 7725,
      "highway": 7726,
      "cn": 7727,
      "hunt": 7728,
      "allah": 7729,
      "gos": 7730,
      "priest": 7731,
      "expedition": 7732,
      "patch": 7733,
      "gospel": 7734,
      "hut": 7735,
      "duties": 7736,
      "arrival": 7737,
      "angular": 7738,
      "glob": 7739,
      "hem": 7740,
      "surrounded": 7741,
      "metric": 7742,
      "pleasure": 7743,
      "ghan": 7744,
      "memories": 7745,
      "counts": 7746,
      "organism": 7747,
      "holo": 7748,
      "arizona": 7749,
      "renal": 7750,
      "deposits": 7751,
      "wilson": 7752,
      "deliber": 7753,
      "spelling": 7754,
      "communist": 7755,
      "pleasant": 7756,
      "bold": 7757,
      "dying": 7758,
      "guarantee": 7759,
      "tendency": 7760,
      "striking": 7761,
      "lio": 7762,
      "commerce": 7763,
      "rats": 7764,
      "carib": 7765,
      "enda": 7766,
      "aust": 7767,
      "associations": 7768,
      "notable": 7769,
      "wales": 7770,
      "mounted": 7771,
      "spark": 7772,
      "olymp": 7773,
      "lux": 7774,
      "regulated": 7775,
      "ortion": 7776,
      "predators": 7777,
      "scrat": 7778,
      "highlights": 7779,
      "gau": 7780,
      "matthew": 7781,
      "eag": 7782,
      "pests": 7783,
      "bb": 7784,
      "shallow": 7785,
      "shade": 7786,
      "shortly": 7787,
      "distress": 7788,
      "consistently": 7789,
      "conducting": 7790,
      "shares": 7791,
      "torn": 7792,
      "aspir": 7793,
      "ptions": 7794,
      "furn": 7795,
      "utilized": 7796,
      "quad": 7797,
      "flavor": 7798,
      "hism": 7799,
      "injured": 7800,
      "sap": 7801,
      "ifier": 7802,
      "mystery": 7803,
      "dentist": 7804,
      "voting": 7805,
      "herb": 7806,
      "agnet": 7807,
      "drops": 7808,
      "cream": 7809,
      "juven": 7810,
      "attor": 7811,
      "andrew": 7812,
      "mented": 7813,
      "molecule": 7814,
      "printer": 7815,
      "reson": 7816,
      "loads": 7817,
      "neighbour": 7818,
      "condu": 7819,
      "attributes": 7820,
      "angeles": 7821,
      "yan": 7822,
      "evaluated": 7823,
      "persistent": 7824,
      "reflects": 7825,
      "cloth": 7826,
      "hunger": 7827,
      "republican": 7828,
      "ulating": 7829,
      "prox": 7830,
      "hazardous": 7831,
      "employers": 7832,
      "enterprise": 7833,
      "broader": 7834,
      "alties": 7835,
      "paragraph": 7836,
      "humidity": 7837,
      "preschool": 7838,
      "indicators": 7839,
      "continental": 7840,
      "antibodies": 7841,
      "oms": 7842,
      "prisoners": 7843,
      "inth": 7844,
      "negoti": 7845,
      "lining": 7846,
      "adjac": 7847,
      "bec": 7848,
      "missour": 7849,
      "obama": 7850,
      "dialogue": 7851,
      "borders": 7852,
      "boats": 7853,
      "gaining": 7854,
      "proud": 7855,
      "nodes": 7856,
      "enabled": 7857,
      "inn": 7858,
      "featured": 7859,
      "spon": 7860,
      "sie": 7861,
      "injection": 7862,
      "fingers": 7863,
      "contrad": 7864,
      "guns": 7865,
      "transactions": 7866,
      "absorbed": 7867,
      "echo": 7868,
      "barr": 7869,
      "fertilizer": 7870,
      "lag": 7871,
      "ading": 7872,
      "copic": 7873,
      "genus": 7874,
      "corro": 7875,
      "partially": 7876,
      "minnes": 7877,
      "wool": 7878,
      "rubber": 7879,
      "bodys": 7880,
      "pressing": 7881,
      "toile": 7882,
      "likelihood": 7883,
      "stems": 7884,
      "emission": 7885,
      "rolled": 7886,
      "theli": 7887,
      "altered": 7888,
      "elig": 7889,
      "opens": 7890,
      "diarrhea": 7891,
      "somewhere": 7892,
      "displays": 7893,
      "respective": 7894,
      "distinguished": 7895,
      "lem": 7896,
      "immunity": 7897,
      "dated": 7898,
      "yr": 7899,
      "sacrifice": 7900,
      "spar": 7901,
      "drew": 7902,
      "opa": 7903,
      "reputation": 7904,
      "lewis": 7905,
      "matrix": 7906,
      "extinction": 7907,
      "jam": 7908,
      "survived": 7909,
      "entrance": 7910,
      "arthur": 7911,
      "arios": 7912,
      "participating": 7913,
      "tale": 7914,
      "samuel": 7915,
      "sixt": 7916,
      "ika": 7917,
      "busy": 7918,
      "counties": 7919,
      "ento": 7920,
      "linux": 7921,
      "hurricane": 7922,
      "basics": 7923,
      "acceptance": 7924,
      "departments": 7925,
      "consisting": 7926,
      "lawn": 7927,
      "eaten": 7928,
      "phenomena": 7929,
      "alike": 7930,
      "kur": 7931,
      "outline": 7932,
      "adjacent": 7933,
      "enti": 7934,
      "bass": 7935,
      "ect": 7936,
      "geological": 7937,
      "gla": 7938,
      "configuration": 7939,
      "sket": 7940,
      "todd": 7941,
      "alb": 7942,
      "nurse": 7943,
      "reproduction": 7944,
      "davis": 7945,
      "inclusion": 7946,
      "isition": 7947,
      "struck": 7948,
      "mask": 7949,
      "ctive": 7950,
      "pg": 7951,
      "investments": 7952,
      "chemo": 7953,
      "inson": 7954,
      "chrom": 7955,
      "tanks": 7956,
      "cyto": 7957,
      "bors": 7958,
      "appreciate": 7959,
      "aux": 7960,
      "plantation": 7961,
      "landscap": 7962,
      "snake": 7963,
      "refriger": 7964,
      "mines": 7965,
      "derness": 7966,
      "vacuum": 7967,
      "arranged": 7968,
      "monet": 7969,
      "duke": 7970,
      "archaeological": 7971,
      "planes": 7972,
      "traveling": 7973,
      "bullet": 7974,
      "mirror": 7975,
      "grat": 7976,
      "purple": 7977,
      "hl": 7978,
      "proceedings": 7979,
      "nether": 7980,
      "browser": 7981,
      "tai": 7982,
      "hc": 7983,
      "artistic": 7984,
      "feather": 7985,
      "shakespe": 7986,
      "cooked": 7987,
      "surveill": 7988,
      "gathering": 7989,
      "forever": 7990,
      "edited": 7991,
      "fibers": 7992,
      "ora": 7993,
      "historian": 7994,
      "diplom": 7995,
      "pries": 7996,
      "graz": 7997,
      "fifty": 7998,
      "recall": 7999,
      "guides": 8000,
      "colleges": 8001,
      "coating": 8002,
      "polish": 8003,
      "perip": 8004,
      "criticism": 8005,
      "sequences": 8006,
      "dele": 8007,
      "brig": 8008,
      "korean": 8009,
      "carbohydrates": 8010,
      "cession": 8011,
      "luther": 8012,
      "motes": 8013,
      "odd": 8014,
      "rena": 8015,
      "elab": 8016,
      "aya": 8017,
      "embedded": 8018,
      "nationally": 8019,
      "equations": 8020,
      "leak": 8021,
      "desirable": 8022,
      "correlation": 8023,
      "asters": 8024,
      "methane": 8025,
      "institutional": 8026,
      "assessed": 8027,
      "ique": 8028,
      "adesh": 8029,
      "rolling": 8030,
      "crystal": 8031,
      "pride": 8032,
      "rical": 8033,
      "enabling": 8034,
      "hart": 8035,
      "independently": 8036,
      "esteem": 8037,
      "ration": 8038,
      "presidential": 8039,
      "blockchain": 8040,
      "thoroughly": 8041,
      "izers": 8042,
      "receives": 8043,
      "intern": 8044,
      "hepatitis": 8045,
      "therapies": 8046,
      "bby": 8047,
      "missouri": 8048,
      "convey": 8049,
      "counting": 8050,
      "utical": 8051,
      "rings": 8052,
      "deleg": 8053,
      "gaps": 8054,
      "unexpected": 8055,
      "tempt": 8056,
      "commander": 8057,
      "settlers": 8058,
      "celebration": 8059,
      "dominated": 8060,
      "surveillance": 8061,
      "skilled": 8062,
      "drives": 8063,
      "edges": 8064,
      "territories": 8065,
      "wre": 8066,
      "revel": 8067,
      "searching": 8068,
      "sophisticated": 8069,
      "ilitation": 8070,
      "attacked": 8071,
      "hosts": 8072,
      "appet": 8073,
      "node": 8074,
      "racism": 8075,
      "completion": 8076,
      "toys": 8077,
      "resilience": 8078,
      "alphabet": 8079,
      "versary": 8080,
      "earning": 8081,
      "namely": 8082,
      "indicating": 8083,
      "pneum": 8084,
      "galaxy": 8085,
      "devi": 8086,
      "explored": 8087,
      "struggling": 8088,
      "lunar": 8089,
      "jeffers": 8090,
      "maryland": 8091,
      "aluminum": 8092,
      "inscr": 8093,
      "expressions": 8094,
      "administered": 8095,
      "chapters": 8096,
      "fallen": 8097,
      "cardiac": 8098,
      "advertising": 8099,
      "jersey": 8100,
      "compe": 8101,
      "disrupt": 8102,
      "atus": 8103,
      "awarded": 8104,
      "defects": 8105,
      "earned": 8106,
      "automatic": 8107,
      "promotion": 8108,
      "routes": 8109,
      "writings": 8110,
      "nurses": 8111,
      "pancre": 8112,
      "safer": 8113,
      "hemis": 8114,
      "promotes": 8115,
      "slide": 8116,
      "simulation": 8117,
      "caffe": 8118,
      "pound": 8119,
      "frozen": 8120,
      "chal": 8121,
      "flooding": 8122,
      "cataly": 8123,
      "minnesota": 8124,
      "bull": 8125,
      "multip": 8126,
      "allies": 8127,
      "lateral": 8128,
      "pines": 8129,
      "passive": 8130,
      "cameras": 8131,
      "hong": 8132,
      "founding": 8133,
      "escap": 8134,
      "impul": 8135,
      "nick": 8136,
      "rescue": 8137,
      "packaging": 8138,
      "impression": 8139,
      "inspiration": 8140,
      "zoo": 8141,
      "gab": 8142,
      "ulous": 8143,
      "coordination": 8144,
      "fired": 8145,
      "bern": 8146,
      "freely": 8147,
      "alzheimers": 8148,
      "aceutical": 8149,
      "metic": 8150,
      "romans": 8151,
      "steady": 8152,
      "acquire": 8153,
      "organisations": 8154,
      "drainage": 8155,
      "cub": 8156,
      "gged": 8157,
      "rin": 8158,
      "inequality": 8159,
      "destination": 8160,
      "speeds": 8161,
      "answered": 8162,
      "philosophical": 8163,
      "poland": 8164,
      "harris": 8165,
      "aquatic": 8166,
      "physiological": 8167,
      "acu": 8168,
      "ugu": 8169,
      "equity": 8170,
      "efficacy": 8171,
      "inhal": 8172,
      "facial": 8173,
      "gdp": 8174,
      "terminal": 8175,
      "nineteenth": 8176,
      "endor": 8177,
      "whites": 8178,
      "holder": 8179,
      "genital": 8180,
      "excel": 8181,
      "afghan": 8182,
      "pathways": 8183,
      "anton": 8184,
      "thrive": 8185,
      "concentrated": 8186,
      "plastics": 8187,
      "accommod": 8188,
      "luc": 8189,
      "boom": 8190,
      "traumatic": 8191,
      "tomy": 8192,
      "instant": 8193,
      "telephone": 8194,
      "labels": 8195,
      "sions": 8196,
      "burgh": 8197,
      "provisions": 8198,
      "categor": 8199,
      "intu": 8200,
      "essence": 8201,
      "defining": 8202,
      "scenarios": 8203,
      "execution": 8204,
      "compassion": 8205,
      "tues": 8206,
      "stag": 8207,
      "satisfaction": 8208,
      "thurs": 8209,
      "epidemic": 8210,
      "otto": 8211,
      "tort": 8212,
      "lever": 8213,
      "pum": 8214,
      "yon": 8215,
      "photography": 8216,
      "investors": 8217,
      "trap": 8218,
      "impressive": 8219,
      "ifer": 8220,
      "antibiotic": 8221,
      "prevented": 8222,
      "crust": 8223,
      "capability": 8224,
      "oppon": 8225,
      "timing": 8226,
      "aces": 8227,
      "dynasty": 8228,
      "kilometers": 8229,
      "rated": 8230,
      "fluids": 8231,
      "fled": 8232,
      "nm": 8233,
      "wavel": 8234,
      "usively": 8235,
      "teaches": 8236,
      "wages": 8237,
      "peripher": 8238,
      "artif": 8239,
      "forty": 8240,
      "soc": 8241,
      "ori": 8242,
      "biography": 8243,
      "hardly": 8244,
      "poems": 8245,
      "occurrence": 8246,
      "dual": 8247,
      "oline": 8248,
      "crossing": 8249,
      "calor": 8250,
      "beer": 8251,
      "limiting": 8252,
      "polymer": 8253,
      "accordingly": 8254,
      "activated": 8255,
      "resolve": 8256,
      "encourages": 8257,
      "neo": 8258,
      "utilize": 8259,
      "gains": 8260,
      "laugh": 8261,
      "uncertainty": 8262,
      "mentation": 8263,
      "wavelengt": 8264,
      "precip": 8265,
      "lunch": 8266,
      "spell": 8267,
      "discomfort": 8268,
      "filters": 8269,
      "deadly": 8270,
      "alge": 8271,
      "harbor": 8272,
      "estone": 8273,
      "olive": 8274,
      "curious": 8275,
      "football": 8276,
      "repl": 8277,
      "distances": 8278,
      "monument": 8279,
      "pix": 8280,
      "pursue": 8281,
      "oked": 8282,
      "rear": 8283,
      "accomplished": 8284,
      "distract": 8285,
      "harsh": 8286,
      "noble": 8287,
      "feb": 8288,
      "journ": 8289,
      "integral": 8290,
      "herbs": 8291,
      "tb": 8292,
      "quote": 8293,
      "tees": 8294,
      "aus": 8295,
      "peaceful": 8296,
      "controversial": 8297,
      "compos": 8298,
      "conception": 8299,
      "stakeholders": 8300,
      "nazi": 8301,
      "thickness": 8302,
      "athen": 8303,
      "tric": 8304,
      "talks": 8305,
      "reserves": 8306,
      "marx": 8307,
      "mates": 8308,
      "gallery": 8309,
      "frost": 8310,
      "circles": 8311,
      "decreases": 8312,
      "seasons": 8313,
      "documentation": 8314,
      "checked": 8315,
      "arrive": 8316,
      "cute": 8317,
      "crafts": 8318,
      "fee": 8319,
      "joining": 8320,
      "mate": 8321,
      "olds": 8322,
      "carries": 8323,
      "wednes": 8324,
      "grants": 8325,
      "weapon": 8326,
      "timber": 8327,
      "combust": 8328,
      "inher": 8329,
      "jaw": 8330,
      "upr": 8331,
      "confused": 8332,
      "tied": 8333,
      "avoided": 8334,
      "referen": 8335,
      "bitter": 8336,
      "rhythm": 8337,
      "agu": 8338,
      "lymph": 8339,
      "soap": 8340,
      "relates": 8341,
      "payments": 8342,
      "clam": 8343,
      "vomiting": 8344,
      "menu": 8345,
      "portray": 8346,
      "thum": 8347,
      "potatoes": 8348,
      "excited": 8349,
      "afraid": 8350,
      "flowing": 8351,
      "machin": 8352,
      "certificate": 8353,
      "glasses": 8354,
      "radi": 8355,
      "acknowledge": 8356,
      "biof": 8357,
      "rotation": 8358,
      "fisheries": 8359,
      "extraordinary": 8360,
      "newspapers": 8361,
      "brook": 8362,
      "genetically": 8363,
      "topo": 8364,
      "darwin": 8365,
      "dangers": 8366,
      "insist": 8367,
      "arbit": 8368,
      "melan": 8369,
      "ester": 8370,
      "quantitative": 8371,
      "uine": 8372,
      "asks": 8373,
      "brick": 8374,
      "volunteer": 8375,
      "netherlands": 8376,
      "volumes": 8377,
      "foundations": 8378,
      "closing": 8379,
      "columns": 8380,
      "scottish": 8381,
      "hearts": 8382,
      "distinctive": 8383,
      "lifes": 8384,
      "nerves": 8385,
      "sql": 8386,
      "progression": 8387,
      "organize": 8388,
      "argues": 8389,
      "cooperative": 8390,
      "kansas": 8391,
      "transformed": 8392,
      "sustained": 8393,
      "cosmo": 8394,
      "ontario": 8395,
      "commem": 8396,
      "atile": 8397,
      "governmental": 8398,
      "inef": 8399,
      "mutual": 8400,
      "masses": 8401,
      "wiscons": 8402,
      "defines": 8403,
      "stack": 8404,
      "immers": 8405,
      "locally": 8406,
      "ila": 8407,
      "rash": 8408,
      "architectural": 8409,
      "governance": 8410,
      "umn": 8411,
      "burns": 8412,
      "arrangement": 8413,
      "ensures": 8414,
      "loans": 8415,
      "append": 8416,
      "hydration": 8417,
      "stressed": 8418,
      "voices": 8419,
      "consensus": 8420,
      "gur": 8421,
      "ender": 8422,
      "inno": 8423,
      "considerations": 8424,
      "pyram": 8425,
      "itable": 8426,
      "tz": 8427,
      "eric": 8428,
      "rim": 8429,
      "irregular": 8430,
      "tremend": 8431,
      "horn": 8432,
      "devoted": 8433,
      "donald": 8434,
      "germans": 8435,
      "archive": 8436,
      "shipping": 8437,
      "abdominal": 8438,
      "elong": 8439,
      "legislative": 8440,
      "tubes": 8441,
      "ucks": 8442,
      "breathe": 8443,
      "specialists": 8444,
      "olar": 8445,
      "directory": 8446,
      "staying": 8447,
      "sured": 8448,
      "immun": 8449,
      "relatives": 8450,
      "maker": 8451,
      "bars": 8452,
      "alien": 8453,
      "classrooms": 8454,
      "tracks": 8455,
      "calculations": 8456,
      "algebra": 8457,
      "encompass": 8458,
      "marsh": 8459,
      "checking": 8460,
      "iner": 8461,
      "affil": 8462,
      "precipitation": 8463,
      "responds": 8464,
      "antry": 8465,
      "pond": 8466,
      "aggreg": 8467,
      "contributes": 8468,
      "rejected": 8469,
      "situated": 8470,
      "globally": 8471,
      "syll": 8472,
      "surprised": 8473,
      "deple": 8474,
      "overwhelming": 8475,
      "demonstrates": 8476,
      "insula": 8477,
      "disposal": 8478,
      "agreements": 8479,
      "specimens": 8480,
      "kam": 8481,
      "psychiat": 8482,
      "expenses": 8483,
      "centered": 8484,
      "boil": 8485,
      "eg": 8486,
      "satellites": 8487,
      "iances": 8488,
      "sperm": 8489,
      "hans": 8490,
      "mistake": 8491,
      "referring": 8492,
      "tribal": 8493,
      "chains": 8494,
      "otherap": 8495,
      "combining": 8496,
      "odor": 8497,
      "southwest": 8498,
      "continuously": 8499,
      "inquiry": 8500,
      "compression": 8501,
      "overweight": 8502,
      "educate": 8503,
      "goddess": 8504,
      "pushed": 8505,
      "tops": 8506,
      "shir": 8507,
      "chy": 8508,
      "heated": 8509,
      "receptors": 8510,
      "protocols": 8511,
      "examining": 8512,
      "datas": 8513,
      "thursday": 8514,
      "accompany": 8515,
      "jefferson": 8516,
      "licensed": 8517,
      "analog": 8518,
      "commands": 8519,
      "springs": 8520,
      "bian": 8521,
      "politicians": 8522,
      "poorly": 8523,
      "marginal": 8524,
      "spection": 8525,
      "certification": 8526,
      "rf": 8527,
      "romagnet": 8528,
      "shopping": 8529,
      "disab": 8530,
      "sham": 8531,
      "pots": 8532,
      "spi": 8533,
      "pharmaceutical": 8534,
      "conversations": 8535,
      "unemployment": 8536,
      "explaining": 8537,
      "intermediate": 8538,
      "bulk": 8539,
      "aired": 8540,
      "hotel": 8541,
      "icking": 8542,
      "tuesday": 8543,
      "wisconsin": 8544,
      "prolonged": 8545,
      "extraction": 8546,
      "authorized": 8547,
      "mobil": 8548,
      "enemies": 8549,
      "curios": 8550,
      "suspected": 8551,
      "db": 8552,
      "silicon": 8553,
      "vae": 8554,
      "anas": 8555,
      "lg": 8556,
      "pour": 8557,
      "verbs": 8558,
      "gently": 8559,
      "analyzing": 8560,
      "geometry": 8561,
      "kenned": 8562,
      "agenda": 8563,
      "economies": 8564,
      "caust": 8565,
      "yields": 8566,
      "admir": 8567,
      "arabic": 8568,
      "umes": 8569,
      "hag": 8570,
      "paths": 8571,
      "casts": 8572,
      "designers": 8573,
      "battles": 8574,
      "assault": 8575,
      "prostate": 8576,
      "sanct": 8577,
      "feas": 8578,
      "groundwater": 8579,
      "nap": 8580,
      "expend": 8581,
      "nich": 8582,
      "texture": 8583,
      "mutation": 8584,
      "stap": 8585,
      "wednesday": 8586,
      "legally": 8587,
      "miller": 8588,
      "reno": 8589,
      "yeast": 8590,
      "solely": 8591,
      "arches": 8592,
      "viewing": 8593,
      "sixth": 8594,
      "markers": 8595,
      "ergart": 8596,
      "registration": 8597,
      "navigation": 8598,
      "pipes": 8599,
      "imposed": 8600,
      "yards": 8601,
      "bowel": 8602,
      "aquar": 8603,
      "astronomy": 8604,
      "matt": 8605,
      "defeat": 8606,
      "onin": 8607,
      "hypertension": 8608,
      "moments": 8609,
      "kindergart": 8610,
      "epidemio": 8611,
      "resur": 8612,
      "occupational": 8613,
      "permitted": 8614,
      "meso": 8615,
      "bridges": 8616,
      "fluctu": 8617,
      "introducing": 8618,
      "basket": 8619,
      "tuber": 8620,
      "indonesia": 8621,
      "indicator": 8622,
      "bip": 8623,
      "carb": 8624,
      "allied": 8625,
      "rupted": 8626,
      "plains": 8627,
      "dispar": 8628,
      "aboriginal": 8629,
      "coronavirus": 8630,
      "beds": 8631,
      "profits": 8632,
      "ost": 8633,
      "isible": 8634,
      "ulture": 8635,
      "symptom": 8636,
      "worksheet": 8637,
      "tired": 8638,
      "compensation": 8639,
      "ania": 8640,
      "assessing": 8641,
      "spur": 8642,
      "haven": 8643,
      "das": 8644,
      "legitimate": 8645,
      "hud": 8646,
      "traged": 8647,
      "taylor": 8648,
      "recommends": 8649,
      "scenes": 8650,
      "museums": 8651,
      "degradation": 8652,
      "singing": 8653,
      "hitler": 8654,
      "utter": 8655,
      "implies": 8656,
      "invited": 8657,
      "gill": 8658,
      "revised": 8659,
      "actors": 8660,
      "jane": 8661,
      "rebell": 8662,
      "lone": 8663,
      "gates": 8664,
      "whales": 8665,
      "ignore": 8666,
      "arn": 8667,
      "phosphor": 8668,
      "charter": 8669,
      "phrases": 8670,
      "sacrific": 8671,
      "caribbean": 8672,
      "diamond": 8673,
      "influential": 8674,
      "twist": 8675,
      "fraud": 8676,
      "necessity": 8677,
      "pathogens": 8678,
      "beef": 8679,
      "sweden": 8680,
      "ffer": 8681,
      "dinner": 8682,
      "supplied": 8683,
      "needle": 8684,
      "jean": 8685,
      "recycled": 8686,
      "discoveries": 8687,
      "geographical": 8688,
      "queens": 8689,
      "succeeded": 8690,
      "incredible": 8691,
      "stir": 8692,
      "cows": 8693,
      "emerge": 8694,
      "dragon": 8695,
      "atories": 8696,
      "disasters": 8697,
      "apples": 8698,
      "gland": 8699,
      "ceeds": 8700,
      "rud": 8701,
      "aly": 8702,
      "admitted": 8703,
      "thermo": 8704,
      "ifi": 8705,
      "ometer": 8706,
      "ruling": 8707,
      "catastro": 8708,
      "assumptions": 8709,
      "caffeine": 8710,
      "ders": 8711,
      "lact": 8712,
      "peninsula": 8713,
      "skip": 8714,
      "operators": 8715,
      "template": 8716,
      "genuine": 8717,
      "barbar": 8718,
      "isode": 8719,
      "disc": 8720,
      "rehabilitation": 8721,
      "jord": 8722,
      "personally": 8723,
      "discussing": 8724,
      "wouldnt": 8725,
      "hil": 8726,
      "anniversary": 8727,
      "programmes": 8728,
      "youtube": 8729,
      "companion": 8730,
      "viable": 8731,
      "eman": 8732,
      "fluores": 8733,
      "motivated": 8734,
      "farmer": 8735,
      "wax": 8736,
      "larvae": 8737,
      "delta": 8738,
      "episode": 8739,
      "religions": 8740,
      "diagnose": 8741,
      "chips": 8742,
      "surely": 8743,
      "severely": 8744,
      "precious": 8745,
      "warri": 8746,
      "rels": 8747,
      "wright": 8748,
      "assumption": 8749,
      "oke": 8750,
      "astern": 8751,
      "enlight": 8752,
      "astronaut": 8753,
      "compatible": 8754,
      "originated": 8755,
      "abroad": 8756,
      "wned": 8757,
      "labs": 8758,
      "unci": 8759,
      "tunnel": 8760,
      "vocal": 8761,
      "executed": 8762,
      "balls": 8763,
      "rons": 8764,
      "pom": 8765,
      "neighbors": 8766,
      "judges": 8767,
      "divisions": 8768,
      "dv": 8769,
      "oning": 8770,
      "races": 8771,
      "journals": 8772,
      "stops": 8773,
      "victoria": 8774,
      "investigated": 8775,
      "practitioners": 8776,
      "dreams": 8777,
      "aul": 8778,
      "interpreted": 8779,
      "protects": 8780,
      "activation": 8781,
      "belonging": 8782,
      "updates": 8783,
      "corruption": 8784,
      "iary": 8785,
      "integrate": 8786,
      "melting": 8787,
      "headaches": 8788,
      "juni": 8789,
      "stimulate": 8790,
      "fits": 8791,
      "loading": 8792,
      "acquisition": 8793,
      "dic": 8794,
      "charging": 8795,
      "pulse": 8796,
      "adi": 8797,
      "silent": 8798,
      "biomass": 8799,
      "dwar": 8800,
      "picked": 8801,
      "glory": 8802,
      "riding": 8803,
      "infrared": 8804,
      "restored": 8805,
      "cous": 8806,
      "maternal": 8807,
      "pitch": 8808,
      "dimension": 8809,
      "ondr": 8810,
      "furnit": 8811,
      "manufacturer": 8812,
      "incredibly": 8813,
      "nause": 8814,
      "damaging": 8815,
      "inian": 8816,
      "ttes": 8817,
      "veterans": 8818,
      "rust": 8819,
      "inclusive": 8820,
      "membership": 8821,
      "amic": 8822,
      "editing": 8823,
      "cemet": 8824,
      "machinery": 8825,
      "reliability": 8826,
      "autonomous": 8827,
      "furniture": 8828,
      "morpho": 8829,
      "automated": 8830,
      "uble": 8831,
      "comprehension": 8832,
      "photograph": 8833,
      "empir": 8834,
      "ozone": 8835,
      "hawaii": 8836,
      "rif": 8837,
      "customs": 8838,
      "methodology": 8839,
      "orthodox": 8840,
      "comparable": 8841,
      "mri": 8842,
      "conceptual": 8843,
      "bowl": 8844,
      "mainstream": 8845,
      "dependence": 8846,
      "notably": 8847,
      "theastern": 8848,
      "gums": 8849,
      "jup": 8850,
      "entity": 8851,
      "inton": 8852,
      "deterior": 8853,
      "twenti": 8854,
      "snap": 8855,
      "twentieth": 8856,
      "substitute": 8857,
      "franklin": 8858,
      "applicable": 8859,
      "autumn": 8860,
      "receptor": 8861,
      "flesh": 8862,
      "interviews": 8863,
      "meets": 8864,
      "guine": 8865,
      "wetlands": 8866,
      "circuits": 8867,
      "coven": 8868,
      "tus": 8869,
      "practicing": 8870,
      "pigs": 8871,
      "vals": 8872,
      "releases": 8873,
      "inventory": 8874,
      "accordance": 8875,
      "phases": 8876,
      "campaigns": 8877,
      "orn": 8878,
      "thinks": 8879,
      "oz": 8880,
      "ea": 8881,
      "prelim": 8882,
      "caring": 8883,
      "floating": 8884,
      "mari": 8885,
      "declined": 8886,
      "hammad": 8887,
      "pmid": 8888,
      "plaque": 8889,
      "uding": 8890,
      "toxicity": 8891,
      "illustrate": 8892,
      "screens": 8893,
      "caregi": 8894,
      "roose": 8895,
      "cott": 8896,
      "ivals": 8897,
      "electromagnet": 8898,
      "curiosity": 8899,
      "senses": 8900,
      "idae": 8901,
      "gle": 8902,
      "dign": 8903,
      "airport": 8904,
      "bike": 8905,
      "formerly": 8906,
      "stiff": 8907,
      "stuck": 8908,
      "shakespeare": 8909,
      "cemetery": 8910,
      "volcanic": 8911,
      "deter": 8912,
      "galaxies": 8913,
      "pollen": 8914,
      "constrain": 8915,
      "monetary": 8916,
      "aj": 8917,
      "arer": 8918,
      "tie": 8919,
      "alan": 8920,
      "radar": 8921,
      "poisoning": 8922,
      "compact": 8923,
      "manufactured": 8924,
      "stimulation": 8925,
      "prevalent": 8926,
      "alab": 8927,
      "bam": 8928,
      "endeav": 8929,
      "shadow": 8930,
      "embry": 8931,
      "altitude": 8932,
      "argent": 8933,
      "titan": 8934,
      "initiated": 8935,
      "roosevel": 8936,
      "nr": 8937,
      "poul": 8938,
      "lessness": 8939,
      "dialect": 8940,
      "movies": 8941,
      "soluble": 8942,
      "fundament": 8943,
      "buddhist": 8944,
      "praise": 8945,
      "appetite": 8946,
      "melt": 8947,
      "tear": 8948,
      "pronounced": 8949,
      "stun": 8950,
      "guy": 8951,
      "assignments": 8952,
      "luke": 8953,
      "exclusively": 8954,
      "hanol": 8955,
      "watering": 8956,
      "breakfast": 8957,
      "evaluating": 8958,
      "tat": 8959,
      "summit": 8960,
      "proxim": 8961,
      "iser": 8962,
      "clusters": 8963,
      "nie": 8964,
      "angry": 8965,
      "divers": 8966,
      "grab": 8967,
      "indu": 8968,
      "kong": 8969,
      "fitting": 8970,
      "selecting": 8971,
      "provinces": 8972,
      "bore": 8973,
      "replacing": 8974,
      "phant": 8975,
      "pathway": 8976,
      "surprisingly": 8977,
      "gardening": 8978,
      "mechanics": 8979,
      "carrier": 8980,
      "defence": 8981,
      "warmer": 8982,
      "bats": 8983,
      "kennedy": 8984,
      "attracted": 8985,
      "leys": 8986,
      "hetero": 8987,
      "arians": 8988,
      "lesser": 8989,
      "digestion": 8990,
      "outdoors": 8991,
      "inherit": 8992,
      "northeast": 8993,
      "ethiop": 8994,
      "banking": 8995,
      "metry": 8996,
      "gars": 8997,
      "emergence": 8998,
      "asset": 8999,
      "critics": 9000,
      "residence": 9001,
      "inherited": 9002,
      "rises": 9003,
      "clos": 9004,
      "thou": 9005,
      "relieve": 9006,
      "stain": 9007,
      "arched": 9008,
      "generative": 9009,
      "considerably": 9010,
      "brad": 9011,
      "mytho": 9012,
      "scor": 9013,
      "thrown": 9014,
      "guil": 9015,
      "ati": 9016,
      "pollutants": 9017,
      "observing": 9018,
      "drawings": 9019,
      "possession": 9020,
      "subtle": 9021,
      "editors": 9022,
      "transparent": 9023,
      "median": 9024,
      "expense": 9025,
      "physiology": 9026,
      "frequencies": 9027,
      "afternoon": 9028,
      "planetary": 9029,
      "insulation": 9030,
      "esy": 9031,
      "elevation": 9032,
      "mush": 9033,
      "crowd": 9034,
      "determines": 9035,
      "bos": 9036,
      "cerv": 9037,
      "contracts": 9038,
      "renaissance": 9039,
      "bench": 9040,
      "mong": 9041,
      "slope": 9042,
      "descriptions": 9043,
      "bicy": 9044,
      "grind": 9045,
      "gis": 9046,
      "attempting": 9047,
      "pson": 9048,
      "potent": 9049,
      "scheduled": 9050,
      "vapor": 9051,
      "deals": 9052,
      "suited": 9053,
      "repeatedly": 9054,
      "corporations": 9055,
      "mixing": 9056,
      "demonstration": 9057,
      "reads": 9058,
      "inspection": 9059,
      "ballo": 9060,
      "cathedr": 9061,
      "orch": 9062,
      "ateral": 9063,
      "shooting": 9064,
      "fungi": 9065,
      "ignored": 9066,
      "encountered": 9067,
      "cavity": 9068,
      "databases": 9069,
      "stair": 9070,
      "eur": 9071,
      "labeled": 9072,
      "retire": 9073,
      "theatre": 9074,
      "antioxidants": 9075,
      "ician": 9076,
      "gps": 9077,
      "ornam": 9078,
      "lips": 9079,
      "tennes": 9080,
      "entertainment": 9081,
      "absent": 9082,
      "citizenship": 9083,
      "speci": 9084,
      "saturday": 9085,
      "atal": 9086,
      "spill": 9087,
      "albert": 9088,
      "botan": 9089,
      "hz": 9090,
      "threshold": 9091,
      "weeds": 9092,
      "grim": 9093,
      "ceremony": 9094,
      "tomb": 9095,
      "coma": 9096,
      "pushing": 9097,
      "darkness": 9098,
      "deriv": 9099,
      "suppose": 9100,
      "iously": 9101,
      "bob": 9102,
      "recip": 9103,
      "silk": 9104,
      "chape": 9105,
      "temporal": 9106,
      "advocate": 9107,
      "seeks": 9108,
      "comed": 9109,
      "politan": 9110,
      "unnecessary": 9111,
      "mills": 9112,
      "wealthy": 9113,
      "gifts": 9114,
      "investigations": 9115,
      "unes": 9116,
      "titles": 9117,
      "unto": 9118,
      "informal": 9119,
      "recovered": 9120,
      "ignor": 9121,
      "kindergarten": 9122,
      "tary": 9123,
      "resolved": 9124,
      "metres": 9125,
      "costly": 9126,
      "omon": 9127,
      "ami": 9128,
      "gm": 9129,
      "thening": 9130,
      "hren": 9131,
      "deaf": 9132,
      "confederate": 9133,
      "bial": 9134,
      "iolet": 9135,
      "sored": 9136,
      "asc": 9137,
      "devastating": 9138,
      "sne": 9139,
      "philippines": 9140,
      "parish": 9141,
      "amph": 9142,
      "neurological": 9143,
      "survivors": 9144,
      "attorney": 9145,
      "clark": 9146,
      "kick": 9147,
      "quot": 9148,
[...]
