{
  "version": "1.0",
  "truncation": null,
  "padding": null,
  "added_tokens": [
    {
      "id": 0,
      "content": "[UNK]",
      "single_word": false,
      "lstrip": false,
      "rstrip": false,
      "normalized": false,
      "special": true
    },
    {
      "id": 1,
      "content": "[PAD]",
      "single_word": false,
      "lstrip": false,
      "rstrip": false,
      "normalized": false,
      "special": true
    },
    {
      "id": 2,
      "content": "[BOS]",
      "single_word": false,
      "lstrip": false,
      "rstrip": false,
      "normalized": false,
      "special": true
    },
    {
      "id": 3,
      "content": "[EOS]",
      "single_word": false,
      "lstrip": false,
      "rstrip": false,
      "normalized": false,
      "special": true
    },
    {
      "id": 4,
      "content": "[USER]",
      "single_word": false,
      "lstrip": false,
      "rstrip": false,
      "normalized": false,
      "special": true
    },
    {
      "id": 5,
      "content": "[AI]",
      "single_word": false,
      "lstrip": false,
      "rstrip": false,
      "normalized": false,
      "special": true
    },
    {
      "id": 10000,
      "content": "{",
      "single_word": false,
      "lstrip": false,
      "rstrip": false,
      "normalized": true,
      "special": false
    }
  ],
  "normalizer": null,
  "pre_tokenizer": {
    "type": "Sequence",
    "pretokenizers": [
      {
        "type": "Metaspace",
        "replacement": "▁",
        "prepend_scheme": "always",
        "split": true
      },
      {
        "type": "Digits",
        "individual_digits": true
      },
      {
        "type": "Punctuation",
        "behavior": "Isolated"
      }
    ]
  },
  "post_processor": null,
  "decoder": null,
  "model": {
    "type": "BPE",
    "dropout": null,
    "unk_token": "[UNK]",
    "continuing_subword_prefix": null,
    "end_of_word_suffix": null,
    "fuse_unk": false,
    "byte_fallback": false,
    "ignore_merges": false,
    "vocab": {
      "[UNK]": 0,
      "[PAD]": 1,
      "[BOS]": 2,
      "[EOS]": 3,
      "[USER]": 4,
      "[AI]": 5,
      "\t": 6,
      "\n": 7,
      "!": 8,
      "\"": 9,
      "#": 10,
      "$": 11,
      "%": 12,
      "&": 13,
      "'": 14,
      "(": 15,
      ")": 16,
      "*": 17,
      "+": 18,
      ",": 19,
      "-": 20,
      ".": 21,
      "/": 22,
      "0": 23,
      "1": 24,
      "2": 25,
      "3": 26,
      "4": 27,
      "5": 28,
      "6": 29,
      "7": 30,
      "8": 31,
      "9": 32,
      ":": 33,
      ";": 34,
      "<": 35,
      "=": 36,
      ">": 37,
      "?": 38,
      "@": 39,
      "[": 40,
      "\\": 41,
      "]": 42,
      "^": 43,
      "_": 44,
      "`": 45,
      "a": 46,
      "b": 47,
      "c": 48,
      "d": 49,
      "e": 50,
      "f": 51,
      "g": 52,
      "h": 53,
      "i": 54,
      "j": 55,
      "k": 56,
      "l": 57,
      "m": 58,
      "n": 59,
      "o": 60,
      "p": 61,
      "q": 62,
      "r": 63,
      "s": 64,
      "t": 65,
      "u": 66,
      "v": 67,
      "w": 68,
      "x": 69,
      "y": 70,
      "z": 71,
      "|": 72,
      "}": 73,
      "~": 74,
      "▁": 75,
      "▁a": 76,
      "he": 77,
      "in": 78,
      "the": 79,
      "▁the": 80,
      "re": 81,
      "▁o": 82,
      "▁s": 83,
      "er": 84,
      "▁c": 85,
      "on": 86,
      "at": 87,
      "▁w": 88,
      "en": 89,
      "▁p": 90,
      "es": 91,
      "is": 92,
      "▁b": 93,
      "it": 94,
      "nd": 95,
      "▁f": 96,
      "or": 97,
      "▁m": 98,
      "al": 99,
      "▁in": 100,
      "ed": 101,
      "an": 102,
      "to": 103,
      "▁of": 104,
      "ing": 105,
      "▁d": 106,
      "ar": 107,
      "ou": 108,
      "▁to": 109,
      "▁and": 110,
      "ic": 111,
      "ion": 112,
      "▁h": 113,
      "le": 114,
      "ro": 115,
      "as": 116,
      "▁e": 117,
      "ent": 118,
      "▁n": 119,
      "▁l": 120,
      "▁re": 121,
      "ct": 122,
      "il": 123,
      "▁g": 124,
      "ve": 125,
      "us": 126,
      "om": 127,
      "▁be": 128,
      "▁is": 129,
      "ly": 130,
      "hat": 131,
      "ol": 132,
      "st": 133,
      "im": 134,
      "ation": 135,
      "id": 136,
      "ra": 137,
      "▁for": 138,
      "ce": 139,
      "ur": 140,
      "▁st": 141,
      "ut": 142,
      "et": 143,
      "ch": 144,
      "▁y": 145,
      "▁on": 146,
      "ow": 147,
      "ig": 148,
      "that": 149,
      "▁that": 150,
      "ot": 151,
      "ver": 152,
      "se": 153,
      "ir": 154,
      "▁as": 155,
      "▁it": 156,
      "ul": 157,
      "▁pro": 158,
      "▁con": 159,
      "▁an": 160,
      "▁he": 161,
      "am": 162,
      "ay": 163,
      "▁al": 164,
      "ith": 165,
      "if": 166,
      "▁you": 167,
      "un": 168,
      "ad": 169,
      "el": 170,
      "▁are": 171,
      "▁with": 172,
      "ter": 173,
      "▁or": 174,
      "▁de": 175,
      "▁mo": 176,
      "ge": 177,
      "te": 178,
      "▁wh": 179,
      "ment": 180,
      "▁v": 181,
      "▁we": 182,
      "▁com": 183,
      "▁ex": 184,
      "▁ch": 185,
      "ers": 186,
      "ate": 187,
      "ess": 188,
      "ist": 189,
      "ill": 190,
      "ies": 191,
      "ab": 192,
      "od": 193,
      "op": 194,
      "▁su": 195,
      "▁r": 196,
      "▁ha": 197,
      "his": 198,
      "res": 199,
      "ther": 200,
      "this": 201,
      "▁se": 202,
      "ity": 203,
      "▁ne": 204,
      "▁this": 205,
      "rom": 206,
      "▁by": 207,
      "ive": 208,
      "ke": 209,
      "ac": 210,
      "qu": 211,
      "▁at": 212,
      "est": 213,
      "um": 214,
      "▁can": 215,
      "ld": 216,
      "iv": 217,
      "▁us": 218,
      "tr": 219,
      "pe": 220,
      "ant": 221,
      "os": 222,
      "ain": 223,
      "▁j": 224,
      "▁was": 225,
      "▁le": 226,
      "▁from": 227,
      "igh": 228,
      "ort": 229,
      "ud": 230,
      "▁en": 231,
      "pp": 232,
      "ci": 233,
      "and": 234,
      "▁k": 235,
      "art": 236,
      "▁not": 237,
      "ure": 238,
      "▁sh": 239,
      "▁u": 240,
      "ren": 241,
      "ical": 242,
      "▁have": 243,
      "fe": 244,
      "em": 245,
      "ib": 246,
      "▁wor": 247,
      "▁ab": 248,
      "ction": 249,
      "red": 250,
      "og": 251,
      "▁un": 252,
      "▁im": 253,
      "▁pl": 254,
      "▁they": 255,
      "out": 256,
      "▁whe": 257,
      "ight": 258,
      "▁so": 259,
      "all": 260,
      "ich": 261,
      "ould": 262,
      "rou": 263,
      "gh": 264,
      "▁ad": 265,
      "▁ma": 266,
      "ome": 267,
      "ated": 268,
      "per": 269,
      "▁their": 270,
      "ine": 271,
      "▁te": 272,
      "ard": 273,
      "pl": 274,
      "ide": 275,
      "pt": 276,
      "our": 277,
      "▁your": 278,
      "▁all": 279,
      "ell": 280,
      "ia": 281,
      "so": 282,
      "▁do": 283,
      "ans": 284,
      "▁but": 285,
      "▁ac": 286,
      "du": 287,
      "iz": 288,
      "▁dis": 289,
      "▁res": 290,
      "▁which": 291,
      "▁comp": 292,
      "ally": 293,
      "▁will": 294,
      "ult": 295,
      "▁inc": 296,
      "age": 297,
      "ous": 298,
      "▁more": 299,
      "▁man": 300,
      "▁cl": 301,
      "act": 302,
      "ie": 303,
      "▁tr": 304,
      "ast": 305,
      "tw": 306,
      "▁ar": 307,
      "end": 308,
      "oc": 309,
      "ood": 310,
      "▁has": 311,
      "vel": 312,
      "ations": 313,
      "ions": 314,
      "▁ca": 315,
      "ial": 316,
      "▁me": 317,
      "ip": 318,
      "ag": 319,
      "▁other": 320,
      "▁one": 321,
      "ong": 322,
      "▁sp": 323,
      "ary": 324,
      "▁i": 325,
      "ater": 326,
      "ks": 327,
      "orm": 328,
      "▁per": 329,
      "ust": 330,
      "oun": 331,
      "tra": 332,
      "able": 333,
      "tim": 334,
      "king": 335,
      "ild": 336,
      "ence": 337,
      "▁imp": 338,
      "▁how": 339,
      "▁also": 340,
      "▁there": 341,
      "ore": 342,
      "▁am": 343,
      "ru": 344,
      "ind": 345,
      "▁were": 346,
      "ta": 347,
      "ance": 348,
      "▁cont": 349,
      "▁if": 350,
      "ents": 351,
      "▁comm": 352,
      "▁ev": 353,
      "▁pe": 354,
      "▁stud": 355,
      "ign": 356,
      "▁ind": 357,
      "▁when": 358,
      "▁co": 359,
      "▁sy": 360,
      "reat": 361,
      "▁ra": 362,
      "▁part": 363,
      "ress": 364,
      "▁tim": 365,
      "cess": 366,
      "▁who": 367,
      "ase": 368,
      "ass": 369,
      "▁these": 370,
      "▁out": 371,
      "han": 372,
      "▁ro": 373,
      "▁af": 374,
      "ice": 375,
      "ition": 376,
      "ear": 377,
      "▁his": 378,
      "one": 379,
      "▁about": 380,
      "ri": 381,
      "very": 382,
      "▁some": 383,
      "ber": 384,
      "av": 385,
      "▁qu": 386,
      "▁pre": 387,
      "ue": 388,
      "ose": 389,
      "▁may": 390,
      "▁new": 391,
      "ach": 392,
      "ace": 393,
      "ens": 394,
      "ite": 395,
      "ces": 396,
      "ty": 397,
      "ory": 398,
      "▁spe": 399,
      "▁fe": 400,
      "rent": 401,
      "▁bec": 402,
      "ire": 403,
      "ame": 404,
      "ish": 405,
      "ms": 406,
      "▁col": 407,
      "▁what": 408,
      "ord": 409,
      "ors": 410,
      "▁them": 411,
      "▁go": 412,
      "▁up": 413,
      "use": 414,
      "ack": 415,
      "▁li": 416,
      "than": 417,
      "▁ag": 418,
      "ang": 419,
      "▁ta": 420,
      "ree": 421,
      "now": 422,
      "ound": 423,
      "▁bl": 424,
      "▁po": 425,
      "▁than": 426,
      "▁app": 427,
      "▁tra": 428,
      "form": 429,
      "ap": 430,
      "▁rec": 431,
      "ub": 432,
      "ect": 433,
      "olog": 434,
      "hy": 435,
      "low": 436,
      "oo": 437,
      "ep": 438,
      "▁year": 439,
      "ile": 440,
      "alt": 441,
      "▁no": 442,
      "▁its": 443,
      "▁over": 444,
      "ric": 445,
      "hing": 446,
      "▁peop": 447,
      "▁sa": 448,
      "▁cons": 449,
      "fect": 450,
      "ays": 451,
      "▁und": 452,
      "▁em": 453,
      "▁people": 454,
      "rit": 455,
      "ates": 456,
      "▁been": 457,
      "▁most": 458,
      "▁time": 459,
      "ts": 460,
      "▁our": 461,
      "▁into": 462,
      "▁inter": 463,
      "ian": 464,
      "▁use": 465,
      "▁dif": 466,
      "▁des": 467,
      "▁pr": 468,
      "▁gen": 469,
      "▁act": 470,
      "ough": 471,
      "vers": 472,
      "erv": 473,
      "▁sc": 474,
      "▁tw": 475,
      "▁like": 476,
      "ual": 477,
      "lud": 478,
      "rough": 479,
      "ific": 480,
      "▁know": 481,
      "con": 482,
      "her": 483,
      "▁had": 484,
      "▁under": 485,
      "▁fir": 486,
      "▁rel": 487,
      "▁child": 488,
      "▁hel": 489,
      "uc": 490,
      "ning": 491,
      "▁rep": 492,
      "▁such": 493,
      "ities": 494,
      "▁many": 495,
      "▁mar": 496,
      "ff": 497,
      "ments": 498,
      "ail": 499,
      "row": 500,
      "▁need": 501,
      "les": 502,
      "▁would": 503,
      "velop": 504,
      "▁any": 505,
      "stem": 506,
      "ry": 507,
      "▁first": 508,
      "▁work": 509,
      "lic": 510,
      "▁includ": 511,
      "▁develop": 512,
      "▁reg": 513,
      "cial": 514,
      "▁help": 515,
      "ph": 516,
      "ten": 517,
      "lect": 518,
      "hrough": 519,
      "▁prov": 520,
      "through": 521,
      "▁produ": 522,
      "▁only": 523,
      "ject": 524,
      "▁healt": 525,
      "ple": 526,
      "ational": 527,
      "ak": 528,
      "▁acc": 529,
      "▁through": 530,
      "ating": 531,
      "ative": 532,
      "▁used": 533,
      "▁fl": 534,
      "ious": 535,
      "ular": 536,
      "▁coun": 537,
      "are": 538,
      "▁system": 539,
      "ced": 540,
      "▁off": 541,
      "▁add": 542,
      "▁ob": 543,
      "ons": 544,
      "ting": 545,
      "▁two": 546,
      "hed": 547,
      "▁inst": 548,
      "▁ed": 549,
      "▁diffe": 550,
      "▁sur": 551,
      "ne": 552,
      "▁dec": 553,
      "ics": 554,
      "▁pres": 555,
      "▁sm": 556,
      "round": 557,
      "▁cent": 558,
      "ied": 559,
      "▁car": 560,
      "uring": 561,
      "▁med": 562,
      "▁rese": 563,
      "▁water": 564,
      "ful": 565,
      "▁pat": 566,
      "▁after": 567,
      "▁ph": 568,
      "tain": 569,
      "oss": 570,
      "▁rem": 571,
      "gra": 572,
      "▁well": 573,
      "ility": 574,
      "iss": 575,
      "▁supp": 576,
      "een": 577,
      "▁resear": 578,
      "▁met": 579,
      "als": 580,
      "▁world": 581,
      "ise": 582,
      "▁high": 583,
      "▁sub": 584,
      "▁sch": 585,
      "ble": 586,
      "ible": 587,
      "der": 588,
      "▁pol": 589,
      "▁should": 590,
      "▁inv": 591,
      "ased": 592,
      "wn": 593,
      "ds": 594,
      "int": 595,
      "ause": 596,
      "ange": 597,
      "▁trans": 598,
      "ps": 599,
      "▁form": 600,
      "ures": 601,
      "▁bu": 602,
      "▁health": 603,
      "ife": 604,
      "ll": 605,
      "erg": 606,
      "cy": 607,
      "▁where": 608,
      "ower": 609,
      "ings": 610,
      "fore": 611,
      "ook": 612,
      "oth": 613,
      "▁make": 614,
      "▁years": 615,
      "▁pers": 616,
      "▁la": 617,
      "▁betw": 618,
      "▁between": 619,
      "▁lear": 620,
      "▁get": 621,
      "▁her": 622,
      "▁ke": 623,
      "▁gra": 624,
      "ool": 625,
      "gan": 626,
      "▁sim": 627,
      "▁because": 628,
      "▁even": 629,
      "ade": 630,
      "▁could": 631,
      "▁she": 632,
      "sel": 633,
      "▁ty": 634,
      "ick": 635,
      "its": 636,
      "ution": 637,
      "ck": 638,
      "ffect": 639,
      "▁then": 640,
      "▁sci": 641,
      "▁mon": 642,
      "ob": 643,
      "▁import": 644,
      "▁exp": 645,
      "own": 646,
      "ident": 647,
      "▁gener": 648,
      "▁just": 649,
      "ved": 650,
      "▁exam": 651,
      "▁found": 652,
      "▁hum": 653,
      "hough": 654,
      "▁di": 655,
      "▁num": 656,
      "ants": 657,
      "ily": 658,
      "eric": 659,
      "▁spec": 660,
      "uch": 661,
      "▁pa": 662,
      "▁pub": 663,
      "chn": 664,
      "ost": 665,
      "though": 666,
      "▁ass": 667,
      "▁art": 668,
      "▁exper": 669,
      "ural": 670,
      "▁effect": 671,
      "▁see": 672,
      "▁fol": 673,
      "▁long": 674,
      "▁inform": 675,
      "ology": 676,
      "▁while": 677,
      "ever": 678,
      "▁eng": 679,
      "▁different": 680,
      "▁lar": 681,
      "▁dat": 682,
      "▁br": 683,
      "▁sol": 684,
      "ins": 685,
      "tur": 686,
      "ines": 687,
      "ted": 688,
      "▁during": 689,
      "▁each": 690,
      "▁war": 691,
      "▁incre": 692,
      "▁techn": 693,
      "▁det": 694,
      "test": 695,
      "▁dep": 696,
      "hose": 697,
      "▁sign": 698,
      "pect": 699,
      "ited": 700,
      "ctions": 701,
      "those": 702,
      "▁every": 703,
      "▁my": 704,
      "▁children": 705,
      "▁che": 706,
      "▁way": 707,
      "▁var": 708,
      "cer": 709,
      "▁those": 710,
      "land": 711,
      "ists": 712,
      "xt": 713,
      "▁commun": 714,
      "▁min": 715,
      "▁school": 716,
      "▁very": 717,
      "▁uni": 718,
      "ually": 719,
      "▁read": 720,
      "tern": 721,
      "▁hist": 722,
      "▁disc": 723,
      "ink": 724,
      "thing": 725,
      "▁ap": 726,
      "▁cor": 727,
      "ives": 728,
      "cept": 729,
      "▁loc": 730,
      "ature": 731,
      "▁ear": 732,
      "ath": 733,
      "oy": 734,
      "▁americ": 735,
      "▁dr": 736,
      "▁dist": 737,
      "▁inf": 738,
      "▁life": 739,
      "▁par": 740,
      "▁gl": 741,
      "▁fact": 742,
      "▁process": 743,
      "▁students": 744,
      "ically": 745,
      "▁state": 746,
      "▁av": 747,
      "▁food": 748,
      "ism": 749,
      "ety": 750,
      "▁call": 751,
      "▁result": 752,
      "▁sk": 753,
      "cc": 754,
      "▁cre": 755,
      "▁being": 756,
      "ove": 757,
      "▁set": 758,
      "▁str": 759,
      "iron": 760,
      "iew": 761,
      "▁fam": 762,
      "vent": 763,
      "▁research": 764,
      "man": 765,
      "▁cur": 766,
      "▁information": 767,
      "▁however": 768,
      "▁partic": 769,
      "▁requ": 770,
      "▁data": 771,
      "ness": 772,
      "hes": 773,
      "▁right": 774,
      "▁important": 775,
      "ases": 776,
      "▁said": 777,
      "ues": 778,
      "▁follow": 779,
      "▁int": 780,
      "▁ent": 781,
      "ros": 782,
      "led": 783,
      "▁now": 784,
      "ving": 785,
      "▁lead": 786,
      "▁much": 787,
      "tle": 788,
      "▁ter": 789,
      "▁both": 790,
      "▁using": 791,
      "treat": 792,
      "ron": 793,
      "▁study": 794,
      "▁prote": 795,
      "▁val": 796,
      "▁ins": 797,
      "ward": 798,
      "▁find": 799,
      "ustr": 800,
      "▁level": 801,
      "de": 802,
      "ody": 803,
      "▁does": 804,
      "▁char": 805,
      "▁good": 806,
      "▁grow": 807,
      "▁pra": 808,
      "▁serv": 809,
      "ize": 810,
      "▁day": 811,
      "▁test": 812,
      "ys": 813,
      "▁pop": 814,
      "omet": 815,
      "ages": 816,
      "cent": 817,
      "ized": 818,
      "▁own": 819,
      "vern": 820,
      "▁expl": 821,
      "io": 822,
      "old": 823,
      "▁treat": 824,
      "▁before": 825,
      "ices": 826,
      "▁person": 827,
      "tre": 828,
      "▁grou": 829,
      "▁proble": 830,
      "▁gu": 831,
      "ict": 832,
      "▁back": 833,
      "ene": 834,
      "gg": 835,
      "▁ref": 836,
      "▁def": 837,
      "▁main": 838,
      "▁made": 839,
      "▁end": 840,
      "▁same": 841,
      "▁progra": 842,
      "day": 843,
      "und": 844,
      "ient": 845,
      "ality": 846,
      "▁comple": 847,
      "me": 848,
      "▁att": 849,
      "ves": 850,
      "▁lit": 851,
      "▁resp": 852,
      "▁dise": 853,
      "▁env": 854,
      "▁organ": 855,
      "▁small": 856,
      "▁appro": 857,
      "tal": 858,
      "▁educ": 859,
      "ond": 860,
      "▁countr": 861,
      "▁show": 862,
      "▁take": 863,
      "▁mem": 864,
      "min": 865,
      "▁vis": 866,
      "▁govern": 867,
      "▁sto": 868,
      "ft": 869,
      "▁human": 870,
      "hip": 871,
      "▁great": 872,
      "▁again": 873,
      "▁inte": 874,
      "▁often": 875,
      "▁less": 876,
      "▁contro": 877,
      "▁power": 878,
      "▁gre": 879,
      "stand": 880,
      "▁fin": 881,
      "▁environ": 882,
      "tter": 883,
      "▁bel": 884,
      "▁class": 885,
      "read": 886,
      "▁ris": 887,
      "ivid": 888,
      "▁design": 889,
      "▁plan": 890,
      "iel": 891,
      "▁cle": 892,
      "ger": 893,
      "▁wom": 894,
      "ale": 895,
      "▁mod": 896,
      "ince": 897,
      "▁z": 898,
      "▁down": 899,
      "▁common": 900,
      "▁ser": 901,
      "other": 902,
      "versity": 903,
      "▁fun": 904,
      "▁et": 905,
      "▁dire": 906,
      "mp": 907,
      "hree": 908,
      "▁him": 909,
      "three": 910,
      "▁cour": 911,
      "▁occ": 912,
      "▁const": 913,
      "▁poss": 914,
      "▁activ": 915,
      "▁hand": 916,
      "rib": 917,
      "▁jo": 918,
      "▁redu": 919,
      "▁number": 920,
      "ergy": 921,
      "▁cal": 922,
      "▁provid": 923,
      "▁land": 924,
      "▁too": 925,
      "hys": 926,
      "uth": 927,
      "cl": 928,
      "▁cell": 929,
      "▁support": 930,
      "▁far": 931,
      "▁op": 932,
      "▁bra": 933,
      "▁three": 934,
      "com": 935,
      "▁here": 936,
      "li": 937,
      "▁body": 938,
      "ork": 939,
      "ute": 940,
      "turn": 941,
      "▁care": 942,
      "▁ant": 943,
      "▁report": 944,
      "▁public": 945,
      "▁start": 946,
      "▁sw": 947,
      "imate": 948,
      "ruct": 949,
      "ished": 950,
      "▁est": 951,
      "▁cond": 952,
      "rest": 953,
      "▁elect": 954,
      "ets": 955,
      "▁adv": 956,
      "▁around": 957,
      "ix": 958,
      "ars": 959,
      "▁environment": 960,
      "ulation": 961,
      "▁conf": 962,
      "▁intern": 963,
      "▁mus": 964,
      "▁prof": 965,
      "▁though": 966,
      "▁eas": 967,
      "▁contin": 968,
      "▁must": 969,
      "▁thing": 970,
      "iving": 971,
      "ury": 972,
      "▁states": 973,
      "▁did": 974,
      "▁national": 975,
      "▁understand": 976,
      "▁equ": 977,
      "tom": 978,
      "▁build": 979,
      "▁bi": 980,
      "▁don": 981,
      "▁pract": 982,
      "▁another": 983,
      "ital": 984,
      "▁large": 985,
      "▁rev": 986,
      "▁writ": 987,
      "▁fa": 988,
      "gn": 989,
      "kes": 990,
      "▁example": 991,
      "▁air": 992,
      "ency": 993,
      "▁energy": 994,
      "▁development": 995,
      "▁phys": 996,
      "hers": 997,
      "▁dem": 998,
      "▁beh": 999,
      "▁somet": 1000,
      "up": 1001,
      "▁stand": 1002,
      "uss": 1003,
      "▁bre": 1004,
      "▁allow": 1005,
      "▁learn": 1006,
      "ids": 1007,
      "ton": 1008,
      "▁quest": 1009,
      "▁nat": 1010,
      "▁bo": 1011,
      "acter": 1012,
      "ross": 1013,
      "▁social": 1014,
      "mm": 1015,
      "▁history": 1016,
      "▁including": 1017,
      "▁aw": 1018,
      "▁still": 1019,
      "▁experi": 1020,
      "▁typ": 1021,
      "self": 1022,
      "itions": 1023,
      "ional": 1024,
      "▁hy": 1025,
      "▁ve": 1026,
      "ined": 1027,
      "ouse": 1028,
      "▁el": 1029,
      "▁mater": 1030,
      "▁individ": 1031,
      "ull": 1032,
      "▁project": 1033,
      "▁pur": 1034,
      "▁sl": 1035,
      "▁place": 1036,
      "hod": 1037,
      "▁ide": 1038,
      "ared": 1039,
      "ential": 1040,
      "▁bas": 1041,
      "conom": 1042,
      "▁since": 1043,
      "▁change": 1044,
      "▁law": 1045,
      "▁iss": 1046,
      "▁light": 1047,
      "▁known": 1048,
      "▁without": 1049,
      "ount": 1050,
      "▁chang": 1051,
      "▁impro": 1052,
      "▁pot": 1053,
      "▁es": 1054,
      "▁individual": 1055,
      "▁called": 1056,
      "▁women": 1057,
      "▁within": 1058,
      "iven": 1059,
      "▁disease": 1060,
      "ium": 1061,
      "ters": 1062,
      "co": 1063,
      "▁university": 1064,
      "orth": 1065,
      "outh": 1066,
      "▁imm": 1067,
      "els": 1068,
      "▁ident": 1069,
      "▁present": 1070,
      "eng": 1071,
      "ired": 1072,
      "▁caus": 1073,
      "▁play": 1074,
      "▁dra": 1075,
      "▁few": 1076,
      "▁product": 1077,
      "ner": 1078,
      "▁material": 1079,
      "uro": 1080,
      "▁anal": 1081,
      "▁home": 1082,
      "ns": 1083,
      "▁government": 1084,
      "▁cer": 1085,
      "▁pos": 1086,
      "▁might": 1087,
      "▁mill": 1088,
      "▁mark": 1089,
      "▁gr": 1090,
      "itive": 1091,
      "▁old": 1092,
      "▁mat": 1093,
      "▁cult": 1094,
      "ization": 1095,
      "▁control": 1096,
      "▁mil": 1097,
      "▁har": 1098,
      "▁direct": 1099,
      "soci": 1100,
      "▁secon": 1101,
      "ources": 1102,
      "▁want": 1103,
      "ering": 1104,
      "▁cap": 1105,
      "▁econom": 1106,
      "▁cr": 1107,
      "▁ele": 1108,
      "rence": 1109,
      "na": 1110,
      "▁eff": 1111,
      "▁pain": 1112,
      "▁pass": 1113,
      "get": 1114,
      "osed": 1115,
      "▁leg": 1116,
      "bers": 1117,
      "▁keep": 1118,
      "▁meas": 1119,
      "▁tre": 1120,
      "ption": 1121,
      "▁sit": 1122,
      "▁area": 1123,
      "▁early": 1124,
      "lish": 1125,
      "▁addition": 1126,
      "▁sever": 1127,
      "▁fore": 1128,
      "be": 1129,
      "▁learning": 1130,
      "ording": 1131,
      "▁press": 1132,
      "ior": 1133,
      "inal": 1134,
      "▁tem": 1135,
      "▁sec": 1136,
      "▁low": 1137,
      "▁blood": 1138,
      "cing": 1139,
      "▁ge": 1140,
      "orn": 1141,
      "angu": 1142,
      "ason": 1143,
      "▁au": 1144,
      "▁anim": 1145,
      "▁associ": 1146,
      "▁vari": 1147,
      "▁last": 1148,
      "line": 1149,
      "ived": 1150,
      "▁best": 1151,
      "▁interest": 1152,
      "▁american": 1153,
      "▁method": 1154,
      "▁lab": 1155,
      "▁risk": 1156,
      "▁desc": 1157,
      "til": 1158,
      "ier": 1159,
      "▁group": 1160,
      "▁god": 1161,
      "▁bus": 1162,
      "iness": 1163,
      "rop": 1164,
      "ave": 1165,
      "rap": 1166,
      "▁maj": 1167,
      "▁bene": 1168,
      "▁proper": 1169,
      "▁include": 1170,
      "▁opp": 1171,
      "▁belie": 1172,
      "ark": 1173,
      "ah": 1174,
      "▁scient": 1175,
      "▁oper": 1176,
      "ability": 1177,
      "▁second": 1178,
      "arth": 1179,
      "▁vir": 1180,
      "ov": 1181,
      "▁family": 1182,
      "▁compan": 1183,
      "▁langu": 1184,
      "gin": 1185,
      "▁move": 1186,
      "▁top": 1187,
      "▁education": 1188,
      "br": 1189,
      "ield": 1190,
      "ians": 1191,
      "ental": 1192,
      "▁current": 1193,
      "▁fur": 1194,
      "▁del": 1195,
      "▁auth": 1196,
      "▁fre": 1197,
      "less": 1198,
      "▁look": 1199,
      "▁contain": 1200,
      "ify": 1201,
      "▁dev": 1202,
      "bs": 1203,
      "▁better": 1204,
      "▁several": 1205,
      "ified": 1206,
      "▁appe": 1207,
      "▁plant": 1208,
      "▁vol": 1209,
      "▁real": 1210,
      "que": 1211,
      "▁cam": 1212,
      "▁avail": 1213,
      "ological": 1214,
      "▁become": 1215,
      "▁men": 1216,
      "▁lim": 1217,
      "▁why": 1218,
      "we": 1219,
      "▁mean": 1220,
      "▁major": 1221,
      "▁science": 1222,
      "▁provide": 1223,
      "▁among": 1224,
      "iod": 1225,
      "▁according": 1226,
      "ination": 1227,
      "▁suc": 1228,
      "▁prevent": 1229,
      "▁post": 1230,
      "▁order": 1231,
      "▁orig": 1232,
      "▁infl": 1233,
      "▁open": 1234,
      "▁perform": 1235,
      "▁against": 1236,
      "ently": 1237,
      "▁soci": 1238,
      "▁mont": 1239,
      "rodu": 1240,
      "▁colle": 1241,
      "ining": 1242,
      "ource": 1243,
      "ats": 1244,
      "▁bro": 1245,
      "ways": 1246,
      "atic": 1247,
      "▁fr": 1248,
      "▁benef": 1249,
      "ider": 1250,
      "ken": 1251,
      "▁near": 1252,
      "gen": 1253,
      "▁lo": 1254,
      "▁cause": 1255,
      "▁hig": 1256,
      "▁cost": 1257,
      "ense": 1258,
      "▁point": 1259,
      "▁treatment": 1260,
      "▁species": 1261,
      "▁access": 1262,
      "▁free": 1263,
      "▁period": 1264,
      "▁prop": 1265,
      "▁non": 1266,
      "▁united": 1267,
      "hs": 1268,
      "lished": 1269,
      "ients": 1270,
      "▁times": 1271,
      "▁natural": 1272,
      "▁means": 1273,
      "ration": 1274,
      "▁four": 1275,
      "▁occur": 1276,
      "▁diff": 1277,
      "▁program": 1278,
      "ences": 1279,
      "▁ext": 1280,
      "ention": 1281,
      "▁signific": 1282,
      "hink": 1283,
      "ank": 1284,
      "▁say": 1285,
      "▁bir": 1286,
      "▁rest": 1287,
      "▁particular": 1288,
      "▁invol": 1289,
      "ission": 1290,
      "think": 1291,
      "ision": 1292,
      "▁head": 1293,
      "icle": 1294,
      "▁possible": 1295,
      "ories": 1296,
      "▁based": 1297,
      "ills": 1298,
      "▁others": 1299,
      "▁creat": 1300,
      "▁age": 1301,
      "▁following": 1302,
      "▁today": 1303,
      "▁ess": 1304,
      "ma": 1305,
      "▁list": 1306,
      "▁happ": 1307,
      "▁things": 1308,
      "▁type": 1309,
      "par": 1310,
      "ples": 1311,
      "▁feel": 1312,
      "▁cho": 1313,
      "▁fac": 1314,
      "▁contr": 1315,
      "▁book": 1316,
      "▁available": 1317,
      "▁percent": 1318,
      "▁think": 1319,
      "cu": 1320,
      "▁wee": 1321,
      "▁able": 1322,
      "▁areas": 1323,
      "▁profess": 1324,
      "oid": 1325,
      "▁name": 1326,
      "▁earth": 1327,
      "ina": 1328,
      "▁technology": 1329,
      "▁remain": 1330,
      "ised": 1331,
      "ards": 1332,
      "▁er": 1333,
      "osp": 1334,
      "not": 1335,
      "▁general": 1336,
      "▁industr": 1337,
      "▁view": 1338,
      "ogn": 1339,
      "▁mult": 1340,
      "▁trad": 1341,
      "ock": 1342,
      "▁rad": 1343,
      "cle": 1344,
      "ral": 1345,
      "▁case": 1346,
      "ateg": 1347,
      "▁city": 1348,
      "▁affect": 1349,
      "▁youn": 1350,
      "gress": 1351,
      "▁space": 1352,
      "▁certain": 1353,
      "▁deter": 1354,
      "▁run": 1355,
      "ator": 1356,
      "▁put": 1357,
      "▁struct": 1358,
      "▁bur": 1359,
      "▁little": 1360,
      "▁country": 1361,
      "sc": 1362,
      "▁local": 1363,
      "▁comput": 1364,
      "idence": 1365,
      "▁due": 1366,
      "▁says": 1367,
      "▁medic": 1368,
      "ilar": 1369,
      "▁ste": 1370,
      "▁impact": 1371,
      "▁hard": 1372,
      "ides": 1373,
      "mber": 1374,
      "ended": 1375,
      "ven": 1376,
      "▁house": 1377,
      "▁foc": 1378,
      "ploy": 1379,
      "ling": 1380,
      "az": 1381,
      "▁problem": 1382,
      "▁north": 1383,
      "▁cir": 1384,
      "ames": 1385,
      "ends": 1386,
      "▁come": 1387,
      "▁cy": 1388,
      "▁making": 1389,
      "rist": 1390,
      "work": 1391,
      "▁success": 1392,
      "ots": 1393,
      "hn": 1394,
      "▁manage": 1395,
      "ret": 1396,
      "▁prom": 1397,
      "▁south": 1398,
      "▁later": 1399,
      "▁flow": 1400,
      "▁sing": 1401,
      "▁symp": 1402,
      "▁community": 1403,
      "▁fra": 1404,
      "▁problems": 1405,
      "▁prim": 1406,
      "▁object": 1407,
      "▁language": 1408,
      "▁behav": 1409,
      "▁mic": 1410,
      "▁invest": 1411,
      "ww": 1412,
      "▁teac": 1413,
      "toms": 1414,
      "pa": 1415,
      "▁ill": 1416,
      "▁heart": 1417,
      "au": 1418,
      "▁fil": 1419,
      "▁systems": 1420,
      "▁given": 1421,
      "ex": 1422,
      "▁further": 1423,
      "▁step": 1424,
      "▁rece": 1425,
      "▁short": 1426,
      "▁once": 1427,
      "▁polit": 1428,
      "▁bar": 1429,
      "ash": 1430,
      "▁significant": 1431,
      "▁similar": 1432,
      "▁turn": 1433,
      "ably": 1434,
      "▁levels": 1435,
      "cially": 1436,
      "▁obs": 1437,
      "une": 1438,
      "▁until": 1439,
      "▁repres": 1440,
      "elf": 1441,
      "oto": 1442,
      "▁cancer": 1443,
      "ances": 1444,
      "▁dam": 1445,
      "▁vi": 1446,
      "▁euro": 1447,
      "tt": 1448,
      "▁ger": 1449,
      "▁protect": 1450,
      "▁focus": 1451,
      "▁author": 1452,
      "▁net": 1453,
      "▁although": 1454,
      "ones": 1455,
      "▁fut": 1456,
      "sy": 1457,
      "▁glob": 1458,
      "▁x": 1459,
      "▁special": 1460,
      "▁studies": 1461,
      "▁cells": 1462,
      "icult": 1463,
      "▁mid": 1464,
      "iver": 1465,
      "▁comb": 1466,
      "▁function": 1467,
      "pr": 1468,
      "▁tal": 1469,
      "▁instit": 1470,
      "▁je": 1471,
      "mb": 1472,
      "air": 1473,
      "▁create": 1474,
      "▁along": 1475,
      "▁parent": 1476,
      "ggest": 1477,
      "▁ce": 1478,
      "▁next": 1479,
      "here": 1480,
      "ned": 1481,
      "▁works": 1482,
      "eral": 1483,
      "▁suggest": 1484,
      "▁consum": 1485,
      "olution": 1486,
      "▁prin": 1487,
      "ane": 1488,
      "ately": 1489,
      "▁results": 1490,
      "▁try": 1491,
      "▁death": 1492,
      "▁enc": 1493,
      "atory": 1494,
      "▁bat": 1495,
      "▁always": 1496,
      "▁chem": 1497,
      "gether": 1498,
      "▁business": 1499,
      "▁sun": 1500,
      "▁crit": 1501,
      "▁usually": 1502,
      "▁black": 1503,
      "aw": 1504,
      "▁ey": 1505,
      "▁never": 1506,
      "▁days": 1507,
      "▁researc": 1508,
      "▁europe": 1509,
      "▁record": 1510,
      "▁key": 1511,
      "ledge": 1512,
      "ured": 1513,
      "▁clear": 1514,
      "▁prev": 1515,
      "ither": 1516,
      "ctor": 1517,
      "▁specific": 1518,
      "▁future": 1519,
      "▁increase": 1520,
      "▁course": 1521,
      "▁temper": 1522,
      "▁applic": 1523,
      "▁century": 1524,
      "▁give": 1525,
      "▁ur": 1526,
      "▁brain": 1527,
      "▁line": 1528,
      "▁effective": 1529,
      "▁rele": 1530,
      "▁young": 1531,
      "face": 1532,
      "ler": 1533,
      "▁seem": 1534,
      "▁likely": 1535,
      "arch": 1536,
      "▁mot": 1537,
      "▁working": 1538,
      "▁various": 1539,
      "▁something": 1540,
      "▁experience": 1541,
      "▁discuss": 1542,
      "mon": 1543,
      "▁character": 1544,
      "▁moder": 1545,
      "▁arch": 1546,
      "erc": 1547,
      "hus": 1548,
      "▁difficult": 1549,
      "▁wind": 1550,
      "▁red": 1551,
      "▁words": 1552,
      "▁conditions": 1553,
      "▁tool": 1554,
      "tar": 1555,
      "▁christ": 1556,
      "ooks": 1557,
      "▁medical": 1558,
      "▁white": 1559,
      "▁nor": 1560,
      "▁mor": 1561,
      "▁population": 1562,
      "▁begin": 1563,
      "ortun": 1564,
      "ending": 1565,
      "▁port": 1566,
      "▁consider": 1567,
      "▁higher": 1568,
      "▁dig": 1569,
      "▁mass": 1570,
      "▁needs": 1571,
      "▁having": 1572,
      "sh": 1573,
      "▁plants": 1574,
      "▁improve": 1575,
      "ope": 1576,
      "▁whether": 1577,
      "▁changes": 1578,
      "▁together": 1579,
      "aring": 1580,
      "etic": 1581,
      "▁nut": 1582,
      "▁stat": 1583,
      "▁patients": 1584,
      "pecially": 1585,
      "cul": 1586,
      "omm": 1587,
      "▁lib": 1588,
      "▁exist": 1589,
      "▁norm": 1590,
      "▁big": 1591,
      "▁describ": 1592,
      "▁jour": 1593,
      "ators": 1594,
      "▁cat": 1595,
      "▁polic": 1596,
      "▁strong": 1597,
      "▁sens": 1598,
      "▁effects": 1599,
      "▁green": 1600,
      "▁above": 1601,
      "▁respons": 1602,
      "▁arm": 1603,
      "▁side": 1604,
      "▁past": 1605,
      "ote": 1606,
      "▁across": 1607,
      "▁wr": 1608,
      "asing": 1609,
      "▁require": 1610,
      "ression": 1611,
      "▁sam": 1612,
      "most": 1613,
      "▁team": 1614,
      "▁physical": 1615,
      "▁estab": 1616,
      "▁fund": 1617,
      "▁full": 1618,
      "▁countries": 1619,
      "▁symptoms": 1620,
      "▁necess": 1621,
      "▁opt": 1622,
      "▁million": 1623,
      "mit": 1624,
      "▁kind": 1625,
      "imes": 1626,
      "▁complete": 1627,
      "hen": 1628,
      "▁ver": 1629,
      "▁self": 1630,
      "▁society": 1631,
      "▁brit": 1632,
      "▁international": 1633,
      "▁resources": 1634,
      "▁afric": 1635,
      "for": 1636,
      "sw": 1637,
      "▁concer": 1638,
      "▁climate": 1639,
      "▁mind": 1640,
      "ruction": 1641,
      "▁types": 1642,
      "gs": 1643,
      "▁ir": 1644,
      "ilities": 1645,
      "▁king": 1646,
      "▁histor": 1647,
      "▁ways": 1648,
      "▁least": 1649,
      "of": 1650,
      "▁ann": 1651,
      "▁let": 1652,
      "aster": 1653,
      "▁relations": 1654,
      "▁nature": 1655,
      "ring": 1656,
      "ik": 1657,
      "▁chall": 1658,
      "▁especially": 1659,
      "hin": 1660,
      "▁knowledge": 1661,
      "▁plac": 1662,
      "by": 1663,
      "▁lower": 1664,
      "▁ens": 1665,
      "▁left": 1666,
      "▁article": 1667,
      "▁model": 1668,
      "▁analys": 1669,
      "ode": 1670,
      "hir": 1671,
      "ox": 1672,
      "▁engine": 1673,
      "▁fig": 1674,
      "▁influ": 1675,
      "▁communic": 1676,
      "nal": 1677,
      "ison": 1678,
      "▁role": 1679,
      "▁represent": 1680,
      "omes": 1681,
      "▁subject": 1682,
      "oney": 1683,
      "▁away": 1684,
      "▁word": 1685,
      "utions": 1686,
      "▁indic": 1687,
      "▁dia": 1688,
      "selves": 1689,
      "▁teach": 1690,
      "go": 1691,
      "▁employ": 1692,
      "ips": 1693,
      "▁enough": 1694,
      "▁source": 1695,
      "ather": 1696,
      "▁fall": 1697,
      "▁ask": 1698,
      "tract": 1699,
      "▁pred": 1700,
      "thir": 1701,
      "▁dru": 1702,
      "▁photo": 1703,
      "▁ground": 1704,
      "fer": 1705,
      "▁cop": 1706,
      "edi": 1707,
      "▁text": 1708,
      "▁cases": 1709,
      "ged": 1710,
      "▁quality": 1711,
      "▁question": 1712,
      "▁management": 1713,
      "▁global": 1714,
      "▁center": 1715,
      "▁researchers": 1716,
      "▁production": 1717,
      "▁going": 1718,
      "▁field": 1719,
      "orts": 1720,
      "ially": 1721,
      "▁hour": 1722,
      "ires": 1723,
      "▁dom": 1724,
      "▁offic": 1725,
      "▁ach": 1726,
      "thern": 1727,
      "▁live": 1728,
      "▁summ": 1729,
      "▁init": 1730,
      "▁particip": 1731,
      "mat": 1732,
      "▁building": 1733,
      "nect": 1734,
      "▁growt": 1735,
      "▁rather": 1736,
      "▁sal": 1737,
      "▁fri": 1738,
      "aves": 1739,
      "▁range": 1740,
      "▁below": 1741,
      "ief": 1742,
      "▁neg": 1743,
      "ley": 1744,
      "tas": 1745,
      "▁tradition": 1746,
      "iting": 1747,
      "plic": 1748,
      "▁story": 1749,
      "eds": 1750,
      "ening": 1751,
      "▁growth": 1752,
      "ges": 1753,
      "▁activity": 1754,
      "▁paper": 1755,
      "ming": 1756,
      "▁potential": 1757,
      "▁activities": 1758,
      "▁rights": 1759,
      "▁explain": 1760,
      "tell": 1761,
      "▁service": 1762,
      "▁lat": 1763,
      "alf": 1764,
      "▁reason": 1765,
      "istic": 1766,
      "thus": 1767,
      "▁hol": 1768,
      "▁wal": 1769,
      "▁expect": 1770,
      "▁value": 1771,
      "▁chur": 1772,
      "▁sure": 1773,
      "▁news": 1774,
      "▁loss": 1775,
      "amm": 1776,
      "▁sat": 1777,
      "▁oil": 1778,
      "▁makes": 1779,
      "ches": 1780,
      "▁yet": 1781,
      "▁became": 1782,
      "▁introdu": 1783,
      "▁contrib": 1784,
      "▁toward": 1785,
      "▁lot": 1786,
      "itor": 1787,
      "▁event": 1788,
      "▁thus": 1789,
      "▁observ": 1790,
      "utes": 1791,
      "lement": 1792,
      "gu": 1793,
      "▁understanding": 1794,
      "ables": 1795,
      "ert": 1796,
      "▁english": 1797,
      "▁flu": 1798,
      "ape": 1799,
      "▁skills": 1800,
      "ready": 1801,
      "▁recogn": 1802,
      "over": 1803,
      "ification": 1804,
      "▁soil": 1805,
      "▁products": 1806,
      "▁groups": 1807,
      "atures": 1808,
      "aim": 1809,
      "▁services": 1810,
      "▁environmental": 1811,
      "▁carb": 1812,
      "▁wat": 1813,
      "▁site": 1814,
      "▁color": 1815,
      "verage": 1816,
      "▁abs": 1817,
      "▁reduce": 1818,
      "▁adult": 1819,
      "▁prob": 1820,
      "▁sou": 1821,
      "oot": 1822,
      "▁five": 1823,
      "ising": 1824,
      "▁questions": 1825,
      "▁amount": 1826,
      "▁infe": 1827,
      "▁tas": 1828,
      "▁achie": 1829,
      "▁market": 1830,
      "▁subst": 1831,
      "▁already": 1832,
      "af": 1833,
      "ae": 1834,
      "▁relig": 1835,
      "▁coll": 1836,
      "▁avoid": 1837,
      "ints": 1838,
      "▁stre": 1839,
      "▁cut": 1840,
      "▁company": 1841,
      "ibility": 1842,
      "verse": 1843,
      "▁seen": 1844,
      "▁issues": 1845,
      "▁practice": 1846,
      "port": 1847,
      "▁close": 1848,
      "ilt": 1849,
      "▁psy": 1850,
      "▁therefore": 1851,
      "icient": 1852,
      "▁modern": 1853,
      "▁really": 1854,
      "▁either": 1855,
      "▁single": 1856,
      "▁frequ": 1857,
      "▁ut": 1858,
      "▁done": 1859,
      "▁concept": 1860,
      "▁fish": 1861,
      "▁meet": 1862,
      "▁address": 1863,
      "▁economic": 1864,
      "▁recomm": 1865,
      "aps": 1866,
      "eth": 1867,
      "thin": 1868,
      "▁assess": 1869,
      "▁pay": 1870,
      "▁situ": 1871,
      "▁living": 1872,
      "▁wild": 1873,
      "▁evidence": 1874,
      "▁week": 1875,
      "oura": 1876,
      "▁sound": 1877,
      "▁developed": 1878,
      "▁diet": 1879,
      "▁dog": 1880,
      "▁win": 1881,
      "▁surface": 1882,
      "▁ple": 1883,
      "▁super": 1884,
      "▁members": 1885,
      "▁bal": 1886,
      "▁continu": 1887,
      "ipp": 1888,
      "▁upon": 1889,
      "▁rate": 1890,
      "▁stress": 1891,
      "▁strateg": 1892,
      "ites": 1893,
      "▁thir": 1894,
      "▁skin": 1895,
      "tic": 1896,
      "▁fed": 1897,
      "▁healthy": 1898,
      "▁fail": 1899,
      "▁gas": 1900,
      "side": 1901,
      "▁tell": 1902,
      "lo": 1903,
      "s\n": 1904,
      "▁corre": 1905,
      "▁size": 1906,
      "▁sle": 1907,
      "▁related": 1908,
      "▁german": 1909,
      "▁mal": 1910,
      "▁political": 1911,
      "▁analysis": 1912,
      "▁civ": 1913,
      "▁depart": 1914,
      "▁increased": 1915,
      "ok": 1916,
      "▁detail": 1917,
      "▁student": 1918,
      "▁whole": 1919,
      "▁associated": 1920,
      "▁stra": 1921,
      "▁psych": 1922,
      "▁suff": 1923,
      "▁return": 1924,
      "▁ep": 1925,
      "▁pressure": 1926,
      "▁animals": 1927,
      "ival": 1928,
      "▁weight": 1929,
      "▁lay": 1930,
      "urity": 1931,
      "▁inj": 1932,
      "▁connect": 1933,
      "▁taken": 1934,
      "▁reading": 1935,
      "▁tur": 1936,
      "▁wide": 1937,
      "▁answ": 1938,
      "▁thin": 1939,
      "▁phil": 1940,
      "▁exerc": 1941,
      "▁fire": 1942,
      "▁review": 1943,
      "gr": 1944,
      "▁materials": 1945,
      "idered": 1946,
      "▁liter": 1947,
      "ery": 1948,
      "▁opportun": 1949,
      "▁sent": 1950,
      "▁simple": 1951,
      "▁tar": 1952,
      "▁maintain": 1953,
      "ead": 1954,
      "▁pet": 1955,
      "▁online": 1956,
      "che": 1957,
      "way": 1958,
      "▁fat": 1959,
      "▁rom": 1960,
      "▁approach": 1961,
      "▁dest": 1962,
      "▁considered": 1963,
      "▁america": 1964,
      "acy": 1965,
      "▁river": 1966,
      "▁published": 1967,
      "▁created": 1968,
      "rict": 1969,
      "▁micro": 1970,
      "amin": 1971,
      "xic": 1972,
      "▁ju": 1973,
      "▁vers": 1974,
      "▁factors": 1975,
      "duct": 1976,
      "▁complex": 1977,
      "osis": 1978,
      "ened": 1979,
      "put": 1980,
      "▁island": 1981,
      "▁john": 1982,
      "▁relationship": 1983,
      "▁famil": 1984,
      "▁sometimes": 1985,
      "gest": 1986,
      "▁priv": 1987,
      "▁quick": 1988,
      "ference": 1989,
      "▁face": 1990,
      "▁almost": 1991,
      "▁bill": 1992,
      "▁actually": 1993,
      "▁princi": 1994,
      "▁parents": 1995,
      "ands": 1996,
      "▁church": 1997,
      "▁htt": 1998,
      "▁techni": 1999,
      "tem": 2000,
      "▁lives": 2001,
      "▁themselves": 2002,
      "▁clean": 2003,
      "▁came": 2004,
      "▁computer": 2005,
      "▁ast": 2006,
      "▁ox": 2007,
      "let": 2008,
      "▁action": 2009,
      "▁docu": 2010,
      "▁purp": 2011,
      "▁required": 2012,
      "▁cannot": 2013,
      "hol": 2014,
      "po": 2015,
      "▁condition": 2016,
      "new": 2017,
      "▁instead": 2018,
      "fact": 2019,
      "▁ability": 2020,
      "dle": 2021,
      "ensive": 2022,
      "▁thought": 2023,
      "▁personal": 2024,
      "acc": 2025,
      "▁money": 2026,
      "ax": 2027,
      "▁writing": 2028,
      "▁collect": 2029,
      "▁measure": 2030,
      "▁civil": 2031,
      "▁hab": 2032,
      "▁ang": 2033,
      "▁job": 2034,
      "▁chemical": 2035,
      "▁won": 2036,
      "▁training": 2037,
      "▁mach": 2038,
      "▁pan": 2039,
      "▁saf": 2040,
      "gar": 2041,
      "sequ": 2042,
      "▁needed": 2043,
      "▁individuals": 2044,
      "▁safe": 2045,
      "▁cra": 2046,
      "ried": 2047,
      "▁provides": 2048,
      "▁throughout": 2049,
      "chan": 2050,
      "aging": 2051,
      "ha": 2052,
      "illed": 2053,
      "epend": 2054,
      "▁forest": 2055,
      "▁sea": 2056,
      "▁check": 2057,
      "org": 2058,
      "like": 2059,
      "ls": 2060,
      "▁jew": 2061,
      "▁west": 2062,
      "▁entire": 2063,
      "itud": 2064,
      "▁idea": 2065,
      "ivity": 2066,
      "▁contact": 2067,
      "▁parts": 2068,
      "▁taking": 2069,
      "gre": 2070,
      "col": 2071,
      "onst": 2072,
      "▁comes": 2073,
      "▁term": 2074,
      "▁central": 2075,
      "▁disord": 2076,
      "▁sleep": 2077,
      "▁regard": 2078,
      "▁pen": 2079,
      "▁ever": 2080,
      "▁half": 2081,
      "ake": 2082,
      "▁behavior": 2083,
      "▁feed": 2084,
      "▁recent": 2085,
      "ered": 2086,
      "based": 2087,
      "▁region": 2088,
      "▁web": 2089,
      "▁commit": 2090,
      "▁wood": 2091,
      "hib": 2092,
      "▁popular": 2093,
      "▁president": 2094,
      "▁benefits": 2095,
      "acks": 2096,
      "ney": 2097,
      "▁necessary": 2098,
      "▁content": 2099,
      "pro": 2100,
      "▁schools": 2101,
      "▁york": 2102,
      "▁scientists": 2103,
      "▁arr": 2104,
      "▁journal": 2105,
      "wh": 2106,
      "ugh": 2107,
      "▁ec": 2108,
      "▁div": 2109,
      "ustain": 2110,
      "▁total": 2111,
      "▁industry": 2112,
      "▁diagn": 2113,
      "▁itself": 2114,
      "▁previous": 2115,
      "▁miss": 2116,
      "lying": 2117,
      "▁standard": 2118,
      "▁months": 2119,
      "ump": 2120,
      "▁pattern": 2121,
      "ii": 2122,
      "ises": 2123,
      "ift": 2124,
      "▁experim": 2125,
      "aged": 2126,
      "room": 2127,
      "nam": 2128,
      "▁music": 2129,
      "▁increasing": 2130,
      "rences": 2131,
      "izing": 2132,
      "▁heav": 2133,
      "▁ru": 2134,
      "▁fru": 2135,
      "▁sex": 2136,
      "▁produce": 2137,
      "urs": 2138,
      "▁link": 2139,
      "▁path": 2140,
      "itary": 2141,
      "▁fu": 2142,
      "hood": 2143,
      "ese": 2144,
      "▁safety": 2145,
      "light": 2146,
      "usion": 2147,
      "▁travel": 2148,
      "table": 2149,
      "▁six": 2150,
      "▁vide": 2151,
      "▁rul": 2152,
      "▁separ": 2153,
      "▁farm": 2154,
      "erve": 2155,
      "▁heat": 2156,
      "por": 2157,
      "▁policy": 2158,
      "vere": 2159,
      "▁led": 2160,
      "den": 2161,
      "cture": 2162,
      "alu": 2163,
      "▁regular": 2164,
      "ec": 2165,
      "▁causes": 2166,
      "▁temperature": 2167,
      "raph": 2168,
      "hreat": 2169,
      "threat": 2170,
      "▁fem": 2171,
      "uck": 2172,
      "▁began": 2173,
      "▁took": 2174,
      "▁conduct": 2175,
      "▁origin": 2176,
      "▁bab": 2177,
      "ply": 2178,
      "▁sil": 2179,
      "▁cus": 2180,
      "iation": 2181,
      "▁structure": 2182,
      "▁jud": 2183,
      "▁carbon": 2184,
      "▁sense": 2185,
      "▁emerg": 2186,
      "▁vit": 2187,
      "▁austr": 2188,
      "apt": 2189,
      "▁dou": 2190,
      "▁admin": 2191,
      "▁deep": 2192,
      "▁respon": 2193,
      "dom": 2194,
      "▁claim": 2195,
      "action": 2196,
      "▁force": 2197,
      "▁clin": 2198,
      "▁culture": 2199,
      "ime": 2200,
      "▁labor": 2201,
      "▁surv": 2202,
      "▁page": 2203,
      "▁terms": 2204,
      "▁true": 2205,
      "▁sustain": 2206,
      "▁love": 2207,
      "▁appear": 2208,
      "▁meaning": 2209,
      "▁built": 2210,
      "▁repl": 2211,
      "▁positive": 2212,
      "▁image": 2213,
      "▁therap": 2214,
      "▁cit": 2215,
      "▁position": 2216,
      "yle": 2217,
      "▁matter": 2218,
      "iction": 2219,
      "▁shows": 2220,
      "uted": 2221,
      "ils": 2222,
      "▁identify": 2223,
      "▁extre": 2224,
      "▁gard": 2225,
      "▁mechan": 2226,
      "▁issue": 2227,
      "▁canad": 2228,
      "ann": 2229,
      "▁longer": 2230,
      "▁eat": 2231,
      "▁easy": 2232,
      "erous": 2233,
      "▁methods": 2234,
      "ung": 2235,
      "▁british": 2236,
      "ront": 2237,
      "▁movement": 2238,
      "▁pie": 2239,
      "▁wall": 2240,
      "▁bot": 2241,
      "ching": 2242,
      "▁log": 2243,
      "ooking": 2244,
      "▁poll": 2245,
      "▁respect": 2246,
      "ume": 2247,
      "▁bring": 2248,
      "▁colon": 2249,
      "▁department": 2250,
      "▁tax": 2251,
      "▁lin": 2252,
      "▁court": 2253,
      "apan": 2254,
      "▁progress": 2255,
      "▁multip": 2256,
      "▁independ": 2257,
      "▁viol": 2258,
      "estern": 2259,
      "cient": 2260,
      "▁essential": 2261,
      "reng": 2262,
      "▁rich": 2263,
      "▁spread": 2264,
      "icles": 2265,
      "▁conte": 2266,
      "cies": 2267,
      "▁hours": 2268,
      "aut": 2269,
      "▁bacter": 2270,
      "▁security": 2271,
      "▁teachers": 2272,
      "▁caused": 2273,
      "▁ten": 2274,
      "▁programs": 2275,
      "▁spir": 2276,
      "▁hyd": 2277,
      "▁aff": 2278,
      "▁circ": 2279,
      "▁cross": 2280,
      "▁select": 2281,
      "ici": 2282,
      "▁kids": 2283,
      "▁electric": 2284,
      "▁encoura": 2285,
      "ively": 2286,
      "▁includes": 2287,
      "rown": 2288,
      "ulations": 2289,
      "▁mess": 2290,
      "▁provided": 2291,
      "aking": 2292,
      "▁night": 2293,
      "▁designed": 2294,
      "▁accept": 2295,
      "▁visit": 2296,
      "ched": 2297,
      "▁response": 2298,
      "▁average": 2299,
      "▁greater": 2300,
      "▁books": 2301,
      "▁deb": 2302,
      "ript": 2303,
      "▁dy": 2304,
      "▁sources": 2305,
      "▁surve": 2306,
      "▁generally": 2307,
      "▁simply": 2308,
      "▁note": 2309,
      "astic": 2310,
      "▁network": 2311,
      "▁gain": 2312,
      "▁ensure": 2313,
      "tered": 2314,
      "▁basic": 2315,
      "▁hor": 2316,
      "fully": 2317,
      "▁road": 2318,
      "▁conc": 2319,
      "▁threat": 2320,
      "aily": 2321,
      "thes": 2322,
      "▁media": 2323,
      "▁slow": 2324,
      "▁emot": 2325,
      "▁streng": 2326,
      "▁emb": 2327,
      "ze": 2328,
      "▁animal": 2329,
      "ricult": 2330,
      "▁capt": 2331,
      "▁shown": 2332,
      "▁manu": 2333,
      "▁helps": 2334,
      "▁hold": 2335,
      "oph": 2336,
      "▁finan": 2337,
      "ows": 2338,
      "▁assist": 2339,
      "▁pict": 2340,
      "▁poor": 2341,
      "▁compet": 2342,
      "tree": 2343,
      "▁middle": 2344,
      "tend": 2345,
      "▁mental": 2346,
      "hous": 2347,
      "▁variety": 2348,
      "lex": 2349,
      "▁relative": 2350,
      "▁fort": 2351,
      "▁foods": 2352,
      "▁damage": 2353,
      "▁japan": 2354,
      "▁challeng": 2355,
      "▁town": 2356,
      "▁india": 2357,
      "▁exc": 2358,
      "istics": 2359,
      "▁san": 2360,
      "▁pal": 2361,
      "▁etc": 2362,
      "▁agricult": 2363,
      "▁events": 2364,
      "▁written": 2365,
      "▁magn": 2366,
      "▁draw": 2367,
      "▁distrib": 2368,
      "▁letter": 2369,
      "▁solar": 2370,
      "▁doing": 2371,
      "▁uses": 2372,
      "▁share": 2373,
      "▁account": 2374,
      "tro": 2375,
      "ronic": 2376,
      "▁east": 2377,
      "▁acad": 2378,
      "▁normal": 2379,
      "ban": 2380,
      "pre": 2381,
      "▁original": 2382,
      "▁resist": 2383,
      "▁daily": 2384,
      "▁determ": 2385,
      "rior": 2386,
      "▁late": 2387,
      "▁mother": 2388,
      "▁believe": 2389,
      "▁implement": 2390,
      "▁park": 2391,
      "rought": 2392,
      "yl": 2393,
      "▁developing": 2394,
      "ister": 2395,
      "▁syn": 2396,
      "know": 2397,
      "emic": 2398,
      "▁defin": 2399,
      "imin": 2400,
      "▁squ": 2401,
      "oses": 2402,
      "▁compon": 2403,
      "▁webs": 2404,
      "▁series": 2405,
      "abet": 2406,
      "▁outside": 2407,
      "▁reported": 2408,
      "▁manufact": 2409,
      "▁growing": 2410,
      "aries": 2411,
      "▁table": 2412,
      "▁conserv": 2413,
      "rs": 2414,
      "ored": 2415,
      "▁virus": 2416,
      "▁getting": 2417,
      "▁scientific": 2418,
      "▁instru": 2419,
      "▁altern": 2420,
      "▁moun": 2421,
      "med": 2422,
      "▁third": 2423,
      "▁federal": 2424,
      "▁eye": 2425,
      "▁ho": 2426,
      "▁tree": 2427,
      "▁remem": 2428,
      "▁sof": 2429,
      "▁theory": 2430,
      "▁attention": 2431,
      "imately": 2432,
      "▁involved": 2433,
      "▁primary": 2434,
      "tempt": 2435,
      "▁particularly": 2436,
      "▁the\n": 2437,
      "ster": 2438,
      "ners": 2439,
      "ques": 2440,
      "▁displ": 2441,
      "▁forms": 2442,
      "▁scre": 2443,
      "▁constit": 2444,
      "▁appl": 2445,
      "▁continue": 2446,
      "ades": 2447,
      "▁ban": 2448,
      "tit": 2449,
      "▁card": 2450,
      "ush": 2451,
      "▁looking": 2452,
      "bo": 2453,
      "▁nation": 2454,
      "itation": 2455,
      "aling": 2456,
      "▁numbers": 2457,
      "ties": 2458,
      "▁extreme": 2459,
      "engt": 2460,
      "▁tend": 2461,
      "▁performance": 2462,
      "▁refer": 2463,
      "▁investig": 2464,
      "▁demonst": 2465,
      "▁patient": 2466,
      "▁traditional": 2467,
      "▁evalu": 2468,
      "wor": 2469,
      "▁austral": 2470,
      "▁veget": 2471,
      "▁reach": 2472,
      "▁vacc": 2473,
      "ials": 2474,
      "▁aug": 2475,
      "ug": 2476,
      "▁section": 2477,
      "▁college": 2478,
      "▁break": 2479,
      "rench": 2480,
      "▁express": 2481,
      "▁protection": 2482,
      "▁emp": 2483,
      "▁diseases": 2484,
      "val": 2485,
      "▁consist": 2486,
      "▁leaders": 2487,
      "aches": 2488,
      "▁serious": 2489,
      "do": 2490,
      "▁sus": 2491,
      "▁oce": 2492,
      "▁aud": 2493,
      "▁additional": 2494,
      "▁feet": 2495,
      "▁inn": 2496,
      "ucle": 2497,
      "▁ideas": 2498,
      "▁prep": 2499,
      "▁attempt": 2500,
      "▁bit": 2501,
      "▁produced": 2502,
      "▁lif": 2503,
      "ray": 2504,
      "▁probably": 2505,
      "iam": 2506,
      "umb": 2507,
      "aff": 2508,
      "bor": 2509,
      "view": 2510,
      "ging": 2511,
      "▁china": 2512,
      "▁included": 2513,
      "▁exce": 2514,
      "▁prior": 2515,
      "atives": 2516,
      "▁anti": 2517,
      "arily": 2518,
      "uge": 2519,
      "pri": 2520,
      "▁enter": 2521,
      "▁tools": 2522,
      "akes": 2523,
      "▁doesn": 2524,
      "osition": 2525,
      "▁der": 2526,
      "osure": 2527,
      "▁bud": 2528,
      "▁cover": 2529,
      "▁hot": 2530,
      "▁rob": 2531,
      "asc": 2532,
      "▁military": 2533,
      "idge": 2534,
      "arr": 2535,
      "▁teaching": 2536,
      "▁dry": 2537,
      "▁jan": 2538,
      "▁estim": 2539,
      "▁analy": 2540,
      "▁guid": 2541,
      "rel": 2542,
      "▁multiple": 2543,
      "ached": 2544,
      "▁fer": 2545,
      "▁answer": 2546,
      "▁waste": 2547,
      "▁someone": 2548,
      "▁minim": 2549,
      "▁month": 2550,
      "▁correct": 2551,
      "isions": 2552,
      "▁medicine": 2553,
      "enced": 2554,
      "pped": 2555,
      "▁lack": 2556,
      "▁bad": 2557,
      "osing": 2558,
      "▁exercise": 2559,
      "thous": 2560,
      "▁libr": 2561,
      "▁concent": 2562,
      "▁communities": 2563,
      "▁extra": 2564,
      "▁search": 2565,
      "▁ancient": 2566,
      "▁stay": 2567,
      "▁smo": 2568,
      "▁companies": 2569,
      "▁county": 2570,
      "▁takes": 2571,
      "▁gold": 2572,
      "ym": 2573,
      "▁difference": 2574,
      "▁ful": 2575,
      "▁western": 2576,
      "▁inside": 2577,
      "▁room": 2578,
      "▁determin": 2579,
      "▁transport": 2580,
      "▁broad": 2581,
      "▁appropri": 2582,
      "▁compared": 2583,
      "▁father": 2584,
      "▁dang": 2585,
      "▁coast": 2586,
      "▁humans": 2587,
      "oration": 2588,
      "▁trees": 2589,
      "▁determine": 2590,
      "rate": 2591,
      "▁wa": 2592,
      "bi": 2593,
      "anced": 2594,
      "▁critical": 2595,
      "▁administ": 2596,
      "▁decl": 2597,
      "▁easily": 2598,
      "▁thous": 2599,
      "▁offer": 2600,
      "▁document": 2601,
      "hr": 2602,
      "▁allows": 2603,
      "ground": 2604,
      "ems": 2605,
      "▁achieve": 2606,
      "inary": 2607,
      "▁son": 2608,
      "amed": 2609,
      "▁chap": 2610,
      "▁den": 2611,
      "▁march": 2612,
      "▁figure": 2613,
      "▁unique": 2614,
      "▁birt": 2615,
      "▁beginning": 2616,
      "▁hen": 2617,
      "eration": 2618,
      "bre": 2619,
      "▁quite": 2620,
      "▁soon": 2621,
      "▁front": 2622,
      "tiss": 2623,
      "▁active": 2624,
      "▁video": 2625,
      "▁internet": 2626,
      "ograph": 2627,
      "▁foot": 2628,
      "▁decre": 2629,
      "▁cred": 2630,
      "▁rock": 2631,
      "▁write": 2632,
      "ril": 2633,
      "▁points": 2634,
      "▁digital": 2635,
      "▁immedi": 2636,
      "▁started": 2637,
      "▁added": 2638,
      "▁bul": 2639,
      "▁office": 2640,
      "inc": 2641,
      "▁hosp": 2642,
      "▁attack": 2643,
      "tware": 2644,
      "ura": 2645,
      "where": 2646,
      "▁quant": 2647,
      "▁hun": 2648,
      "▁fav": 2649,
      "pan": 2650,
      "▁larger": 2651,
      "▁acid": 2652,
      "▁rap": 2653,
      "tin": 2654,
      "▁financial": 2655,
      "▁institute": 2656,
      "vi": 2657,
      "ension": 2658,
      "▁organization": 2659,
      "▁proced": 2660,
      "joy": 2661,
      "overed": 2662,
      "▁infection": 2663,
      "▁tiss": 2664,
      "▁severe": 2665,
      "▁code": 2666,
      "▁argu": 2667,
      "▁ago": 2668,
      "ror": 2669,
      "cks": 2670,
      "see": 2671,
      "▁disp": 2672,
      "asons": 2673,
      "▁software": 2674,
      "oles": 2675,
      "▁spirit": 2676,
      "▁families": 2677,
      "▁established": 2678,
      "▁custom": 2679,
      "▁european": 2680,
      "cil": 2681,
      "▁doctor": 2682,
      "▁behind": 2683,
      "▁indian": 2684,
      "itude": 2685,
      "haps": 2686,
      "▁nucle": 2687,
      "▁calif": 2688,
      "▁quickly": 2689,
      "▁negative": 2690,
      "▁tit": 2691,
      "▁highly": 2692,
      "▁reve": 2693,
      "▁host": 2694,
      "▁held": 2695,
      "iciency": 2696,
      "ops": 2697,
      "▁fight": 2698,
      "resh": 2699,
      "▁french": 2700,
      "▁habit": 2701,
      "▁talk": 2702,
      "▁base": 2703,
      "eding": 2704,
      "uary": 2705,
      "bur": 2706,
      "ille": 2707,
      "xim": 2708,
      "▁enjoy": 2709,
      "▁sold": 2710,
      "▁mis": 2711,
      "▁fit": 2712,
      "▁mom": 2713,
      "▁communication": 2714,
      "▁capital": 2715,
      "▁aspect": 2716,
      "▁dark": 2717,
      "ounts": 2718,
      "▁supply": 2719,
      "▁examples": 2720,
      "▁limited": 2721,
      "▁command": 2722,
      "ino": 2723,
      "ellow": 2724,
      "▁fast": 2725,
      "▁http": 2726,
      "▁leading": 2727,
      "▁reflect": 2728,
      "▁directly": 2729,
      "overy": 2730,
      "▁fib": 2731,
      "▁protein": 2732,
      "▁typically": 2733,
      "▁aim": 2734,
      "▁oc": 2735,
      "ffe": 2736,
      "www": 2737,
      "▁drug": 2738,
      "▁values": 2739,
      "▁images": 2740,
      "ying": 2741,
      "▁game": 2742,
      "▁native": 2743,
      "▁desp": 2744,
      "ament": 2745,
      "▁jes": 2746,
      "▁blue": 2747,
      "▁setting": 2748,
      "elling": 2749,
      "ender": 2750,
      "▁target": 2751,
      "what": 2752,
      "▁sav": 2753,
      "▁towards": 2754,
      "▁workers": 2755,
      "ancy": 2756,
      "tor": 2757,
      "▁application": 2758,
      "▁muse": 2759,
      "▁features": 2760,
      "log": 2761,
      "▁washing": 2762,
      "▁cultural": 2763,
      "▁californ": 2764,
      "▁monitor": 2765,
      "▁sn": 2766,
      "▁remember": 2767,
      "▁conne": 2768,
      "su": 2769,
      "▁shall": 2770,
      "▁cru": 2771,
      "▁purpose": 2772,
      "▁agree": 2773,
      "ana": 2774,
      "▁cold": 2775,
      "eter": 2776,
      "▁pack": 2777,
      "▁detect": 2778,
      "abetes": 2779,
      "▁private": 2780,
      "▁perhaps": 2781,
      "▁guide": 2782,
      "▁thinking": 2783,
      "▁birth": 2784,
      "▁association": 2785,
      "▁testing": 2786,
      "▁trade": 2787,
      "▁therapy": 2788,
      "▁useful": 2789,
      "▁overall": 2790,
      "▁summer": 2791,
      "▁elements": 2792,
      "▁mole": 2793,
      "undred": 2794,
      "▁nearly": 2795,
      "▁hands": 2796,
      "▁africa": 2797,
      "▁teacher": 2798,
      "▁mountain": 2799,
      "▁lost": 2800,
      "▁nav": 2801,
      "▁commer": 2802,
      "▁eating": 2803,
      "▁symb": 2804,
      "▁except": 2805,
      "▁obtain": 2806,
      "▁creating": 2807,
      "▁please": 2808,
      "▁adapt": 2809,
      "▁russ": 2810,
      "▁memory": 2811,
      "▁mel": 2812,
      "pper": 2813,
      "▁california": 2814,
      "aces": 2815,
      "▁historical": 2816,
      "▁q": 2817,
      "▁went": 2818,
      "ores": 2819,
      "▁importance": 2820,
      "ught": 2821,
      "▁museum": 2822,
      "▁else": 2823,
      "▁board": 2824,
      "▁imag": 2825,
      "▁veh": 2826,
      "▁fair": 2827,
      "▁star": 2828,
      "ograp": 2829,
      "▁transl": 2830,
      "▁adults": 2831,
      "▁consequ": 2832,
      "▁got": 2833,
      "▁lengt": 2834,
      "▁standards": 2835,
      "ounds": 2836,
      "yond": 2837,
      "▁mac": 2838,
      "▁hope": 2839,
      "water": 2840,
      "ses": 2841,
      "▁ice": 2842,
      "▁situation": 2843,
      "uries": 2844,
      "issions": 2845,
      "▁adj": 2846,
      "▁hundred": 2847,
      "▁african": 2848,
      "▁influence": 2849,
      "fort": 2850,
      "▁choose": 2851,
      "▁applications": 2852,
      "▁ii": 2853,
      "▁mix": 2854,
      "▁diabetes": 2855,
      "▁whose": 2856,
      "▁friends": 2857,
      "▁army": 2858,
      "lier": 2859,
      "▁poly": 2860,
      "▁speed": 2861,
      "oring": 2862,
      "▁professor": 2863,
      "▁rates": 2864,
      "▁leaves": 2865,
      "▁seems": 2866,
      "▁speak": 2867,
      "▁establish": 2868,
      "▁decision": 2869,
      "▁june": 2870,
      "olic": 2871,
      "▁ones": 2872,
      "gy": 2873,
      "▁union": 2874,
      "▁block": 2875,
      "▁egg": 2876,
      "▁born": 2877,
      "▁techniques": 2878,
      "▁dav": 2879,
      "▁autom": 2880,
      "▁stop": 2881,
      "▁currently": 2882,
      "term": 2883,
      "▁install": 2884,
      "▁requires": 2885,
      "▁date": 2886,
      "▁cool": 2887,
      "▁religious": 2888,
      "▁sugar": 2889,
      "▁solution": 2890,
      "▁capac": 2891,
      "▁tex": 2892,
      "ius": 2893,
      "▁prec": 2894,
      "pping": 2895,
      "fl": 2896,
      "▁devices": 2897,
      "ulate": 2898,
      "▁season": 2899,
      "▁demand": 2900,
      "▁ocean": 2901,
      "isms": 2902,
      "▁website": 2903,
      "▁stage": 2904,
      "▁construction": 2905,
      "▁beyond": 2906,
      "time": 2907,
      "▁citiz": 2908,
      "▁sep": 2909,
      "itis": 2910,
      "▁dead": 2911,
      "▁located": 2912,
      "▁adop": 2913,
      "▁exact": 2914,
      "▁mag": 2915,
      "▁projects": 2916,
      "▁minutes": 2917,
      "▁despite": 2918,
      "ream": 2919,
      "ham": 2920,
      "▁beaut": 2921,
      "▁processes": 2922,
      "▁places": 2923,
      "▁contains": 2924,
      "▁professional": 2925,
      "▁costs": 2926,
      "encies": 2927,
      "▁finally": 2928,
      "▁stru": 2929,
      "▁rapid": 2930,
      "▁property": 2931,
      "▁ber": 2932,
      "ria": 2933,
      "▁bacteria": 2934,
      "rition": 2935,
      "arm": 2936,
      "▁goal": 2937,
      "▁visual": 2938,
      "▁organiz": 2939,
      "▁sen": 2940,
      "▁tests": 2941,
      "▁calcul": 2942,
      "ai": 2943,
      "ously": 2944,
      "nes": 2945,
      "▁carry": 2946,
      "▁lines": 2947,
      "▁flo": 2948,
      "▁equip": 2949,
      "▁hous": 2950,
      "▁rain": 2951,
      "▁hydro": 2952,
      "▁dece": 2953,
      "oll": 2954,
      "▁recently": 2955,
      "▁august": 2956,
      "▁advant": 2957,
      "▁weather": 2958,
      "▁sites": 2959,
      "bit": 2960,
      "ologies": 2961,
      "estic": 2962,
      "▁gree": 2963,
      "▁received": 2964,
      "▁hon": 2965,
      "cra": 2966,
      "▁weeks": 2967,
      "▁exec": 2968,
      "▁april": 2969,
      "amp": 2970,
      "mpor": 2971,
      "▁cro": 2972,
      "▁appropriate": 2973,
      "gree": 2974,
      "▁everyone": 2975,
      "▁everything": 2976,
      "head": 2977,
      "bert": 2978,
      "▁rare": 2979,
      "mer": 2980,
      "▁practices": 2981,
      "▁gradu": 2982,
      "ields": 2983,
      "▁southern": 2984,
      "mission": 2985,
      "oming": 2986,
      "▁efforts": 2987,
      "▁virt": 2988,
      "▁legal": 2989,
      "▁final": 2990,
      "▁remo": 2991,
      "odies": 2992,
      "▁jesus": 2993,
      "▁cou": 2994,
      "year": 2995,
      "▁brought": 2996,
      "▁unf": 2997,
      "istry": 2998,
      "▁largest": 2999,
      "wise": 3000,
      "▁cele": 3001,
      "izes": 3002,
      "▁constant": 3003,
      "▁party": 3004,
      "vant": 3005,
      "▁eyes": 3006,
      "life": 3007,
      "▁behavi": 3008,
      "ription": 3009,
      "▁nothing": 3010,
      "▁fuel": 3011,
      "▁pow": 3012,
      "▁described": 3013,
      "used": 3014,
      "cohol": 3015,
      "▁ult": 3016,
      "▁july": 3017,
      "fs": 3018,
      "actions": 3019,
      "tember": 3020,
      "▁peace": 3021,
      "▁uk": 3022,
      "▁collection": 3023,
      "▁winter": 3024,
      "▁classroom": 3025,
      "▁william": 3026,
      "▁spring": 3027,
      "set": 3028,
      "ided": 3029,
      "▁ball": 3030,
      "▁becomes": 3031,
      "▁providing": 3032,
      "▁exposure": 3033,
      "▁himself": 3034,
      "▁surround": 3035,
      "inct": 3036,
      "back": 3037,
      "rote": 3038,
      "can": 3039,
      "▁swe": 3040,
      "come": 3041,
      "equ": 3042,
      "▁northern": 3043,
      "▁mention": 3044,
      "▁saw": 3045,
      "idents": 3046,
      "▁interesting": 3047,
      "▁forces": 3048,
      "▁integr": 3049,
      "▁garden": 3050,
      "ira": 3051,
      "bl": 3052,
      "▁weak": 3053,
      "▁survey": 3054,
      "▁planet": 3055,
      "▁gir": 3056,
      "▁philos": 3057,
      "▁mig": 3058,
      "▁user": 3059,
      "▁teeth": 3060,
      "▁conflic": 3061,
      "▁unit": 3062,
      "▁remains": 3063,
      "▁accom": 3064,
      "▁older": 3065,
      "▁equipment": 3066,
      "load": 3067,
      "▁christian": 3068,
      "▁americans": 3069,
      "▁laws": 3070,
      "▁economy": 3071,
      "tober": 3072,
      "rael": 3073,
      "▁birds": 3074,
      "oes": 3075,
      "▁mer": 3076,
      "▁miles": 3077,
      "▁controll": 3078,
      "▁celebr": 3079,
      "iot": 3080,
      "▁alcohol": 3081,
      "entially": 3082,
      "book": 3083,
      "▁anything": 3084,
      "▁file": 3085,
      "▁span": 3086,
      "iers": 3087,
      "▁location": 3088,
      "▁fear": 3089,
      "▁mob": 3090,
      "▁models": 3091,
      "▁canada": 3092,
      "ford": 3093,
      "▁reasons": 3094,
      "▁cry": 3095,
      "▁basis": 3096,
      "▁frame": 3097,
      "▁told": 3098,
      "▁print": 3099,
      "▁inse": 3100,
      "cles": 3101,
      "▁responsible": 3102,
      "▁england": 3103,
      "ublic": 3104,
      "▁scale": 3105,
      "▁aut": 3106,
      "▁pregn": 3107,
      "ography": 3108,
      "▁harm": 3109,
      "aly": 3110,
      "▁sequ": 3111,
      "▁recommend": 3112,
      "▁died": 3113,
      "▁gives": 3114,
      "top": 3115,
      "▁device": 3116,
      "▁vo": 3117,
      "oud": 3118,
      "ales": 3119,
      "inese": 3120,
      "▁clinical": 3121,
      "▁leave": 3122,
      "▁depend": 3123,
      "▁machine": 3124,
      "▁nations": 3125,
      "▁benefit": 3126,
      "▁users": 3127,
      "▁trib": 3128,
      "▁gene": 3129,
      "▁freed": 3130,
      "▁opportunity": 3131,
      "▁tele": 3132,
      "▁revolution": 3133,
      "▁lord": 3134,
      "▁evolution": 3135,
      "▁electr": 3136,
      "▁bank": 3137,
      "▁camp": 3138,
      "▁strengt": 3139,
      "▁genetic": 3140,
      "▁occup": 3141,
      "ulated": 3142,
      "tub": 3143,
      "▁drugs": 3144,
      "▁copy": 3145,
      "▁categ": 3146,
      "▁vill": 3147,
      "▁asked": 3148,
      "ellig": 3149,
      "▁member": 3150,
      "▁measures": 3151,
      "itable": 3152,
      "▁woman": 3153,
      "▁archite": 3154,
      "▁vitamin": 3155,
      "▁rules": 3156,
      "▁yourself": 3157,
      "▁educational": 3158,
      "son": 3159,
      "▁applied": 3160,
      "▁expected": 3161,
      "▁atm": 3162,
      "▁compar": 3163,
      "▁sand": 3164,
      "▁explore": 3165,
      "▁earlier": 3166,
      "▁foundation": 3167,
      "▁receive": 3168,
      "▁washington": 3169,
      "▁signs": 3170,
      "rated": 3171,
      "▁affected": 3172,
      "▁respond": 3173,
      "ka": 3174,
      "▁purch": 3175,
      "tee": 3176,
      "▁innov": 3177,
      "▁feb": 3178,
      "▁plat": 3179,
      "tery": 3180,
      "▁smaller": 3181,
      "▁differences": 3182,
      "▁rise": 3183,
      "▁rule": 3184,
      "ondon": 3185,
      "▁initi": 3186,
      "tes": 3187,
      "▁convent": 3188,
      "▁objects": 3189,
      "▁retr": 3190,
      "ech": 3191,
      "▁kill": 3192,
      "▁september": 3193,
      "▁library": 3194,
      "anc": 3195,
      "▁du": 3196,
      "right": 3197,
      "ries": 3198,
      "enge": 3199,
      "▁nutrition": 3200,
      "isl": 3201,
      "▁perfect": 3202,
      "ris": 3203,
      "▁deal": 3204,
      "▁successful": 3205,
      "ula": 3206,
      "▁shape": 3207,
      "hold": 3208,
      "▁democ": 3209,
      "▁iron": 3210,
      "▁infect": 3211,
      "▁degree": 3212,
      "▁steps": 3213,
      "▁followed": 3214,
      "▁fruit": 3215,
      "▁sac": 3216,
      "iar": 3217,
      "▁israel": 3218,
      "▁hom": 3219,
      "▁repe": 3220,
      "▁staff": 3221,
      "▁transform": 3222,
      "▁click": 3223,
      "▁schol": 3224,
      "▁sche": 3225,
      "▁mission": 3226,
      "▁length": 3227,
      "▁mathe": 3228,
      "▁battle": 3229,
      "ivers": 3230,
      "ama": 3231,
      "no": 3232,
      "▁box": 3233,
      "▁via": 3234,
      "hor": 3235,
      "iest": 3236,
      "cious": 3237,
      "▁rat": 3238,
      "▁rout": 3239,
      "▁chinese": 3240,
      "▁planning": 3241,
      "▁vic": 3242,
      "▁conservation": 3243,
      "▁former": 3244,
      "▁foreign": 3245,
      "▁status": 3246,
      "▁limit": 3247,
      "des": 3248,
      "▁january": 3249,
      "▁price": 3250,
      "hel": 3251,
      "hom": 3252,
      "▁reduced": 3253,
      "▁october": 3254,
      "house": 3255,
      "▁commonly": 3256,
      "▁alone": 3257,
      "▁engineering": 3258,
      "ience": 3259,
      "▁intellig": 3260,
      "▁trying": 3261,
      "xi": 3262,
      "▁illustr": 3263,
      "▁isn": 3264,
      "aks": 3265,
      "▁atmosp": 3266,
      "▁retrie": 3267,
      "▁promot": 3268,
      "▁version": 3269,
      "▁incor": 3270,
      "▁map": 3271,
      "▁element": 3272,
      "more": 3273,
      "uff": 3274,
      "▁assessment": 3275,
      "▁baby": 3276,
      "▁occurs": 3277,
      "▁acqu": 3278,
      "▁neigh": 3279,
      "men": 3280,
      "▁secret": 3281,
      "▁depression": 3282,
      "▁urban": 3283,
      "▁context": 3284,
      "ding": 3285,
      "▁eight": 3286,
      "▁conver": 3287,
      "rehe": 3288,
      "▁completely": 3289,
      "▁goes": 3290,
      "▁beg": 3291,
      "▁drin": 3292,
      "▁display": 3293,
      "lin": 3294,
      "▁challenges": 3295,
      "ctors": 3296,
      "▁symbol": 3297,
      "▁hair": 3298,
      "ste": 3299,
      "▁properties": 3300,
      "▁maxim": 3301,
      "▁effort": 3302,
      "▁named": 3303,
      "▁task": 3304,
      "▁cities": 3305,
      "▁approx": 3306,
      "aled": 3307,
      "▁names": 3308,
      "▁nutri": 3309,
      "▁milk": 3310,
      "▁industrial": 3311,
      "▁coming": 3312,
      "▁wrote": 3313,
      "cts": 3314,
      "▁billion": 3315,
      "▁collab": 3316,
      "▁female": 3317,
      "▁choice": 3318,
      "▁assign": 3319,
      "▁cast": 3320,
      "▁math": 3321,
      "ras": 3322,
      "▁neuro": 3323,
      "ensity": 3324,
      "erson": 3325,
      "▁fresh": 3326,
      "▁nas": 3327,
      "▁boy": 3328,
      "▁powerful": 3329,
      "▁stories": 3330,
      "wide": 3331,
      "hab": 3332,
      "mitted": 3333,
      "ero": 3334,
      "▁univers": 3335,
      "uk": 3336,
      "lim": 3337,
      "▁immune": 3338,
      "▁destro": 3339,
      "▁antib": 3340,
      "▁placed": 3341,
      "ection": 3342,
      "▁commission": 3343,
      "cop": 3344,
      "dr": 3345,
      "▁mut": 3346,
      "▁continued": 3347,
      "active": 3348,
      "sp": 3349,
      "▁mexic": 3350,
      "▁eventually": 3351,
      "▁council": 3352,
      "▁grand": 3353,
      "▁london": 3354,
      "▁hospital": 3355,
      "▁allowed": 3356,
      "▁factor": 3357,
      "▁proto": 3358,
      "▁disorder": 3359,
      "▁patterns": 3360,
      "▁alternative": 3361,
      "▁laun": 3362,
      "▁presence": 3363,
      "▁discovered": 3364,
      "alth": 3365,
      "▁emissions": 3366,
      "ara": 3367,
      "▁identified": 3368,
      "▁root": 3369,
      "▁stim": 3370,
      "lection": 3371,
      "craft": 3372,
      "▁resource": 3373,
      "▁illness": 3374,
      "▁convers": 3375,
      "▁ara": 3376,
      "▁congress": 3377,
      "▁vision": 3378,
      "▁strategies": 3379,
      "▁reports": 3380,
      "then": 3381,
      "▁spect": 3382,
      "care": 3383,
      "▁december": 3384,
      "▁moving": 3385,
      "▁efficient": 3386,
      "▁die": 3387,
      "▁photogra": 3388,
      "▁freedom": 3389,
      "▁capacity": 3390,
      "▁breast": 3391,
      "ca": 3392,
      "itch": 3393,
      "hest": 3394,
      "▁mas": 3395,
      "▁pp": 3396,
      "▁majority": 3397,
      "▁walk": 3398,
      "ss": 3399,
      "▁actions": 3400,
      "▁mouth": 3401,
      "▁dna": 3402,
      "▁balance": 3403,
      "app": 3404,
      "aren": 3405,
      "▁strugg": 3406,
      "▁transfer": 3407,
      "ica": 3408,
      "ios": 3409,
      "augh": 3410,
      "▁opportunities": 3411,
      "▁picture": 3412,
      "▁roman": 3413,
      "▁options": 3414,
      "▁increases": 3415,
      "▁lu": 3416,
      "▁kid": 3417,
      "ought": 3418,
      "▁constitution": 3419,
      "▁formed": 3420,
      "reg": 3421,
      "▁nove": 3422,
      "▁load": 3423,
      "▁goals": 3424,
      "▁lake": 3425,
      "▁harv": 3426,
      "▁components": 3427,
      "▁technologies": 3428,
      "enty": 3429,
      "▁brown": 3430,
      "▁programm": 3431,
      "▁upd": 3432,
      "▁breat": 3433,
      "▁excess": 3434,
      "▁ben": 3435,
      "▁resistance": 3436,
      "▁style": 3437,
      "▁bed": 3438,
      "▁optim": 3439,
      "wards": 3440,
      "▁november": 3441,
      "▁glass": 3442,
      "▁functions": 3443,
      "arian": 3444,
      "▁seven": 3445,
      "▁gal": 3446,
      "▁cand": 3447,
      "▁expand": 3448,
      "▁commercial": 3449,
      "hi": 3450,
      "▁fully": 3451,
      "▁comprehe": 3452,
      "▁showed": 3453,
      "ingu": 3454,
      "▁tissue": 3455,
      "▁inde": 3456,
      "ruary": 3457,
      "▁income": 3458,
      "▁giving": 3459,
      "▁volume": 3460,
      "▁gar": 3461,
      "▁legisl": 3462,
      "iles": 3463,
      "▁truth": 3464,
      "▁save": 3465,
      "▁mit": 3466,
      "▁gave": 3467,
      "▁distance": 3468,
      "▁offers": 3469,
      "▁relatively": 3470,
      "▁equal": 3471,
      "▁citizens": 3472,
      "▁ord": 3473,
      "phas": 3474,
      "▁qual": 3475,
      "orge": 3476,
      "▁existing": 3477,
      "▁consumption": 3478,
      "known": 3479,
      "▁pul": 3480,
      "▁dut": 3481,
      "▁nuclear": 3482,
      "▁pun": 3483,
      "▁didn": 3484,
      "gery": 3485,
      "▁apply": 3486,
      "edia": 3487,
      "▁depending": 3488,
      "▁core": 3489,
      "▁chapter": 3490,
      "▁rot": 3491,
      "▁radio": 3492,
      "▁findings": 3493,
      "▁tro": 3494,
      "▁chance": 3495,
      "lands": 3496,
      "▁changed": 3497,
      "▁thousands": 3498,
      "▁hit": 3499,
      "▁domin": 3500,
      "▁plastic": 3501,
      "▁exhib": 3502,
      "aving": 3503,
      "▁organizations": 3504,
      "▁chronic": 3505,
      "▁male": 3506,
      "▁running": 3507,
      "▁director": 3508,
      "▁bran": 3509,
      "thom": 3510,
      "▁assum": 3511,
      "▁generation": 3512,
      "▁plans": 3513,
      "▁trust": 3514,
      "▁faith": 3515,
      "▁perspect": 3516,
      "ibly": 3517,
      "▁advanced": 3518,
      "▁friend": 3519,
      "▁insp": 3520,
      "▁forward": 3521,
      "gl": 3522,
      "▁australia": 3523,
      "▁strength": 3524,
      "▁bound": 3525,
      "▁organic": 3526,
      "abilities": 3527,
      "▁literature": 3528,
      "▁util": 3529,
      "▁republic": 3530,
      "▁moment": 3531,
      "▁challenge": 3532,
      "▁muscle": 3533,
      "▁reference": 3534,
      "▁oxy": 3535,
      "▁dro": 3536,
      "▁upper": 3537,
      "▁significantly": 3538,
      "▁regions": 3539,
      "▁remove": 3540,
      "▁fix": 3541,
      "▁requirements": 3542,
      "▁accur": 3543,
      "▁disorders": 3544,
      "▁appears": 3545,
      "tical": 3546,
      "▁notes": 3547,
      "▁piece": 3548,
      "▁heavy": 3549,
      "▁genes": 3550,
      "resp": 3551,
      "▁jewish": 3552,
      "▁records": 3553,
      "pes": 3554,
      "▁tour": 3555,
      "spe": 3556,
      "▁absor": 3557,
      "▁interp": 3558,
      "▁sexual": 3559,
      "▁construct": 3560,
      "▁cogn": 3561,
      "▁feature": 3562,
      "ternal": 3563,
      "▁approximately": 3564,
      "▁mr": 3565,
      "lam": 3566,
      "▁grant": 3567,
      "force": 3568,
      "▁homes": 3569,
      "▁pap": 3570,
      "iful": 3571,
      "▁bone": 3572,
      "da": 3573,
      "▁graph": 3574,
      "▁direction": 3575,
      "▁germany": 3576,
      "emy": 3577,
      "▁master": 3578,
      "▁mathemat": 3579,
      "▁details": 3580,
      "▁sin": 3581,
      "▁solutions": 3582,
      "▁instance": 3583,
      "▁worked": 3584,
      "▁experiences": 3585,
      "sa": 3586,
      "ffic": 3587,
      "thr": 3588,
      "▁territ": 3589,
      "▁partners": 3590,
      "▁observed": 3591,
      "rome": 3592,
      "▁prevention": 3593,
      "▁reserv": 3594,
      "▁surpr": 3595,
      "▁sustainable": 3596,
      "semb": 3597,
      "▁intervent": 3598,
      "▁games": 3599,
      "▁ret": 3600,
      "lor": 3601,
      "▁wrong": 3602,
      "▁scot": 3603,
      "rupt": 3604,
      "▁pu": 3605,
      "▁spo": 3606,
      "▁speech": 3607,
      "▁station": 3608,
      "▁dogs": 3609,
      "▁tor": 3610,
      "▁james": 3611,
      "oe": 3612,
      "▁complic": 3613,
      "▁huge": 3614,
      "tm": 3615,
      "▁participants": 3616,
      "▁reality": 3617,
      "▁district": 3618,
      "▁experiment": 3619,
      "▁kn": 3620,
      "▁immediately": 3621,
      "▁distribution": 3622,
      "▁store": 3623,
      "▁independent": 3624,
      "paign": 3625,
      "▁flood": 3626,
      "▁france": 3627,
      "▁thom": 3628,
      "▁moon": 3629,
      "▁anxi": 3630,
      "▁esc": 3631,
      "▁cycle": 3632,
      "gypt": 3633,
      "▁fel": 3634,
      "▁employe": 3635,
      "▁structures": 3636,
      "tan": 3637,
      "▁february": 3638,
      "▁stri": 3639,
      "▁stream": 3640,
      "▁hur": 3641,
      "▁release": 3642,
      "char": 3643,
      "▁ign": 3644,
      "▁annual": 3645,
      "▁metal": 3646,
      "▁recommended": 3647,
      "▁operations": 3648,
      "▁topic": 3649,
      "▁buy": 3650,
      "▁administration": 3651,
      "▁mart": 3652,
      "▁yellow": 3653,
      "▁reducing": 3654,
      "▁minor": 3655,
      "▁hop": 3656,
      "ida": 3657,
      "▁essay": 3658,
      "▁liqu": 3659,
      "bed": 3660,
      "▁street": 3661,
      "orage": 3662,
      "▁ves": 3663,
      "trib": 3664,
      "▁starting": 3665,
      "▁divid": 3666,
      "▁items": 3667,
      "▁believed": 3668,
      "▁favor": 3669,
      "▁prepar": 3670,
      "▁ic": 3671,
      "▁defined": 3672,
      "▁frequently": 3673,
      "▁warm": 3674,
      "▁grade": 3675,
      "▁treated": 3676,
      "▁credit": 3677,
      "▁separate": 3678,
      "bal": 3679,
      "▁surgery": 3680,
      "▁thr": 3681,
      "▁numerous": 3682,
      "▁passed": 3683,
      "▁sample": 3684,
      "aced": 3685,
      "▁novel": 3686,
      "▁emphas": 3687,
      "▁alg": 3688,
      "▁engage": 3689,
      "oint": 3690,
      "ogen": 3691,
      "▁justice": 3692,
      "▁extremely": 3693,
      "cr": 3694,
      "works": 3695,
      "▁internal": 3696,
      "igen": 3697,
      "▁drive": 3698,
      "ceed": 3699,
      "▁anyone": 3700,
      "ifically": 3701,
      "▁suggests": 3702,
      "era": 3703,
      "▁dan": 3704,
      "mal": 3705,
      "ky": 3706,
      "▁violence": 3707,
      "▁email": 3708,
      "▁rail": 3709,
      "▁anxiety": 3710,
      "▁campaign": 3711,
      "nel": 3712,
      "▁risks": 3713,
      "cking": 3714,
      "▁chief": 3715,
      "▁decisions": 3716,
      "▁eastern": 3717,
      "▁changing": 3718,
      "athe": 3719,
      "▁shar": 3720,
      "▁electricity": 3721,
      "▁lun": 3722,
      "tum": 3723,
      "▁clearly": 3724,
      "▁creation": 3725,
      "▁tub": 3726,
      "odes": 3727,
      "▁philosop": 3728,
      "▁retrieved": 3729,
      "▁presented": 3730,
      "▁stem": 3731,
      "▁david": 3732,
      "related": 3733,
      "▁unlike": 3734,
      "▁highest": 3735,
      "vious": 3736,
      "▁carried": 3737,
      "▁principles": 3738,
      "▁encourage": 3739,
      "▁easier": 3740,
      "▁opin": 3741,
      "iring": 3742,
      "▁mich": 3743,
      "areness": 3744,
      "▁learned": 3745,
      "▁mary": 3746,
      "▁decades": 3747,
      "▁finding": 3748,
      "cast": 3749,
      "▁experts": 3750,
      "la": 3751,
      "▁vary": 3752,
      "▁trend": 3753,
      "▁academic": 3754,
      "oma": 3755,
      "▁characteristics": 3756,
      "▁salt": 3757,
      "yal": 3758,
      "▁oxygen": 3759,
      "▁famous": 3760,
      "▁serve": 3761,
      "▁physic": 3762,
      "▁contract": 3763,
      "▁agriculture": 3764,
      "▁coal": 3765,
      "▁becoming": 3766,
      "▁happen": 3767,
      "▁lic": 3768,
      "ued": 3769,
      "mic": 3770,
      "▁consult": 3771,
      "▁exch": 3772,
      "▁egypt": 3773,
      "▁fields": 3774,
      "▁failure": 3775,
      "omen": 3776,
      "▁cove": 3777,
      "▁joint": 3778,
      "▁confir": 3779,
      "ract": 3780,
      "▁worth": 3781,
      "▁temperatures": 3782,
      "▁discussion": 3783,
      "▁stone": 3784,
      "▁religion": 3785,
      "▁race": 3786,
      "▁buildings": 3787,
      "▁inflamm": 3788,
      "▁comprehens": 3789,
      "▁seed": 3790,
      "▁reb": 3791,
      "▁meeting": 3792,
      "▁pick": 3793,
      "▁shap": 3794,
      "▁agency": 3795,
      "▁concl": 3796,
      "▁py": 3797,
      "igation": 3798,
      "▁slight": 3799,
      "▁aspects": 3800,
      "sec": 3801,
      "▁populations": 3802,
      "▁vict": 3803,
      "iant": 3804,
      "▁conducted": 3805,
      "▁bodies": 3806,
      "▁layer": 3807,
      "▁statement": 3808,
      "asion": 3809,
      "▁gall": 3810,
      "▁track": 3811,
      "▁hall": 3812,
      "▁wonder": 3813,
      "▁bord": 3814,
      "▁bottom": 3815,
      "df": 3816,
      "▁japanese": 3817,
      "▁incorpor": 3818,
      "▁height": 3819,
      "ulum": 3820,
      "ws": 3821,
      "ogle": 3822,
      "▁excell": 3823,
      "▁datab": 3824,
      "how": 3825,
      "▁vul": 3826,
      "key": 3827,
      "▁yout": 3828,
      "▁background": 3829,
      "▁song": 3830,
      "▁actual": 3831,
      "▁storage": 3832,
      "▁pric": 3833,
      "▁reprodu": 3834,
      "osy": 3835,
      "▁ready": 3836,
      "▁trig": 3837,
      "▁aid": 3838,
      "▁ded": 3839,
      "▁introduced": 3840,
      "▁gender": 3841,
      "omy": 3842,
      "isation": 3843,
      "▁initial": 3844,
      "▁indeed": 3845,
      "ded": 3846,
      "▁adjust": 3847,
      "▁injury": 3848,
      "▁motor": 3849,
      "▁landsc": 3850,
      "▁articles": 3851,
      "▁film": 3852,
      "▁emotional": 3853,
      "▁isol": 3854,
      "gment": 3855,
      "▁fine": 3856,
      "▁destroy": 3857,
      "▁contrast": 3858,
      "▁policies": 3859,
      "mar": 3860,
      "▁pac": 3861,
      "▁horm": 3862,
      "▁connection": 3863,
      "▁performed": 3864,
      "▁attract": 3865,
      "bt": 3866,
      "▁radiation": 3867,
      "▁authors": 3868,
      "▁cris": 3869,
      "off": 3870,
      "▁square": 3871,
      "rim": 3872,
      "▁assemb": 3873,
      "hick": 3874,
      "▁wildlife": 3875,
      "▁estimated": 3876,
      "▁connected": 3877,
      "▁combination": 3878,
      "tips": 3879,
      "ests": 3880,
      "▁nar": 3881,
      "▁bird": 3882,
      "▁replace": 3883,
      "▁and\n": 3884,
      "▁phase": 3885,
      "▁synd": 3886,
      "▁george": 3887,
      "thick": 3888,
      "▁fis": 3889,
      "▁arg": 3890,
      "▁curric": 3891,
      "▁watch": 3892,
      "▁round": 3893,
      "▁bay": 3894,
      "antic": 3895,
      "▁authority": 3896,
      "▁grass": 3897,
      "▁spot": 3898,
      "▁cath": 3899,
      "▁mi": 3900,
      "▁prefer": 3901,
      "▁tooth": 3902,
      "▁infections": 3903,
      "▁strategy": 3904,
      "▁seeds": 3905,
      "▁predict": 3906,
      "▁flor": 3907,
      "▁fill": 3908,
      "▁counter": 3909,
      "▁id": 3910,
      "▁moved": 3911,
      "mes": 3912,
      "▁ham": 3913,
      "▁causing": 3914,
      "urally": 3915,
      "▁technique": 3916,
      "▁volun": 3917,
      "▁widely": 3918,
      "▁awareness": 3919,
      "omb": 3920,
      "▁technical": 3921,
      "hal": 3922,
      "▁feeling": 3923,
      "▁solid": 3924,
      "▁scen": 3925,
      "▁involves": 3926,
      "▁attrib": 3927,
      "▁ship": 3928,
      "▁released": 3929,
      "▁cert": 3930,
      "▁processing": 3931,
      "▁definition": 3932,
      "icial": 3933,
      "▁lesson": 3934,
      "ata": 3935,
      "imens": 3936,
      "▁operation": 3937,
      "▁hyper": 3938,
      "▁pages": 3939,
      "▁mur": 3940,
      "▁expert": 3941,
      "▁ly": 3942,
      "ga": 3943,
      "iling": 3944,
      "▁chain": 3945,
      "▁tum": 3946,
      "▁conflict": 3947,
      "▁od": 3948,
      "▁brother": 3949,
      "▁smart": 3950,
      "▁relationships": 3951,
      "▁ther": 3952,
      "▁mort": 3953,
      "▁tips": 3954,
      "▁mc": 3955,
      "▁rang": 3956,
      "▁pros": 3957,
      "▁pollution": 3958,
      "▁institutions": 3959,
      "▁aware": 3960,
      "zz": 3961,
      "▁emergency": 3962,
      "▁output": 3963,
      "gi": 3964,
      "▁profession": 3965,
      "▁preserv": 3966,
      "▁thick": 3967,
      "gal": 3968,
      "▁tin": 3969,
      "▁describe": 3970,
      "▁compl": 3971,
      "▁expression": 3972,
      "cons": 3973,
      "▁facts": 3974,
      "▁resulting": 3975,
      "▁notice": 3976,
      "▁phen": 3977,
      "▁obvious": 3978,
      "▁invent": 3979,
      "▁regarding": 3980,
      "▁gets": 3981,
      "▁discover": 3982,
      "pat": 3983,
      "▁multi": 3984,
      "▁introduction": 3985,
      "▁coop": 3986,
      "▁message": 3987,
      "ologist": 3988,
      "iter": 3989,
      "ager": 3990,
      "▁hear": 3991,
      "mporary": 3992,
      "▁amaz": 3993,
      "iveness": 3994,
      "▁haz": 3995,
      "▁option": 3996,
      "▁wis": 3997,
      "▁sud": 3998,
      "▁corpor": 3999,
      "▁killed": 4000,
      "grees": 4001,
      "▁reli": 4002,
      "▁classes": 4003,
      "▁agricultural": 4004,
      "▁improved": 4005,
      "▁pil": 4006,
      "▁rand": 4007,
      "▁spanish": 4008,
      "▁farmers": 4009,
      "▁bow": 4010,
      "▁units": 4011,
      "▁promote": 4012,
      "▁distinct": 4013,
      "▁mostly": 4014,
      "▁hearing": 4015,
      "▁greek": 4016,
      "▁lived": 4017,
      "ulf": 4018,
      "ole": 4019,
      "▁dangerous": 4020,
      "▁covered": 4021,
      "▁reform": 4022,
      "word": 4023,
      "▁conv": 4024,
      "pal": 4025,
      "▁paul": 4026,
      "part": 4027,
      "▁cook": 4028,
      "▁youth": 4029,
      "▁circum": 4030,
      "▁wet": 4031,
      "▁efficiency": 4032,
      "▁dynam": 4033,
      "ya": 4034,
      "▁exactly": 4035,
      "▁wanted": 4036,
      "▁interpret": 4037,
      "▁diagnosis": 4038,
      "amb": 4039,
      "▁vessel": 4040,
      "▁victim": 4041,
      "▁manufacture": 4042,
      "▁properly": 4043,
      "ram": 4044,
      "▁elimin": 4045,
      "▁laboratory": 4046,
      "▁previously": 4047,
      "▁official": 4048,
      "▁degrees": 4049,
      "urance": 4050,
      "▁noted": 4051,
      "eties": 4052,
      "▁vot": 4053,
      "iment": 4054,
      "▁coord": 4055,
      "▁comment": 4056,
      "▁astron": 4057,
      "ortion": 4058,
      "▁eth": 4059,
      "▁involve": 4060,
      "▁blog": 4061,
      "▁mist": 4062,
      "ware": 4063,
      "▁helping": 4064,
      "▁input": 4065,
      "▁dri": 4066,
      "▁renew": 4067,
      "▁meat": 4068,
      "▁fle": 4069,
      "▁happens": 4070,
      "take": 4071,
      "▁platform": 4072,
      "▁storm": 4073,
      "▁cere": 4074,
      "▁quar": 4075,
      "▁effectively": 4076,
      "▁beautiful": 4077,
      "elines": 4078,
      "net": 4079,
      "▁centre": 4080,
      "▁marine": 4081,
      "▁linked": 4082,
      "▁toxic": 4083,
      "▁turned": 4084,
      "▁languages": 4085,
      "cipl": 4086,
      "▁wel": 4087,
      "▁keeping": 4088,
      "ony": 4089,
      "enth": 4090,
      "uration": 4091,
      "▁flight": 4092,
      "▁virgin": 4093,
      "cular": 4094,
      "▁concerns": 4095,
      "iff": 4096,
      "▁aqu": 4097,
      "cers": 4098,
      "izon": 4099,
      "▁removed": 4100,
      "▁advantage": 4101,
      "▁ze": 4102,
      "▁voc": 4103,
      "▁electrical": 4104,
      "▁hiv": 4105,
      "▁seek": 4106,
      "olved": 4107,
      "▁prepared": 4108,
      "well": 4109,
      "▁committee": 4110,
      "▁oral": 4111,
      "tel": 4112,
      "▁monitoring": 4113,
      "▁roll": 4114,
      "▁specifically": 4115,
      "▁rid": 4116,
      "▁ran": 4117,
      "▁experienced": 4118,
      "▁biological": 4119,
      "▁eggs": 4120,
      "tun": 4121,
      "▁referred": 4122,
      "▁comfort": 4123,
      "▁immun": 4124,
      "▁kingdom": 4125,
      "▁sess": 4126,
      "▁presc": 4127,
      "▁rub": 4128,
      "osystem": 4129,
      "▁drinking": 4130,
      "▁whom": 4131,
      "▁mentioned": 4132,
      "ologists": 4133,
      "▁yes": 4134,
      "▁relevant": 4135,
      "ilit": 4136,
      "▁practical": 4137,
      "▁snow": 4138,
      "▁determined": 4139,
      "▁concepts": 4140,
      "▁flex": 4141,
      "▁brief": 4142,
      "▁highlight": 4143,
      "ares": 4144,
      "▁ip": 4145,
      "▁heard": 4146,
      "▁nan": 4147,
      "ocks": 4148,
      "▁circu": 4149,
      "▁helped": 4150,
      "▁clos": 4151,
      "▁index": 4152,
      "▁police": 4153,
      "bra": 4154,
      "▁sort": 4155,
      "▁reaction": 4156,
      "▁interested": 4157,
      "thesis": 4158,
      "▁exposed": 4159,
      "▁jer": 4160,
      "rows": 4161,
      "▁ages": 4162,
      "▁cognitive": 4163,
      "▁reduction": 4164,
      "eria": 4165,
      "tru": 4166,
      "▁belong": 4167,
      "▁waters": 4168,
      "▁lou": 4169,
      "thor": 4170,
      "▁fro": 4171,
      "▁vegetables": 4172,
      "▁liver": 4173,
      "▁leads": 4174,
      "▁owners": 4175,
      "▁signal": 4176,
      "▁of\n": 4177,
      "▁formation": 4178,
      "▁recy": 4179,
      "▁motiv": 4180,
      "▁\n": 4181,
      "▁rou": 4182,
      "mark": 4183,
      "iled": 4184,
      "▁frequency": 4185,
      "▁intelligence": 4186,
      "dule": 4187,
      "▁letters": 4188,
      "▁concern": 4189,
      "▁morning": 4190,
      "▁syndrome": 4191,
      "my": 4192,
      "▁division": 4193,
      "▁crucial": 4194,
      "▁touch": 4195,
      "▁amounts": 4196,
      "ship": 4197,
      "▁corn": 4198,
      "▁procedure": 4199,
      "ball": 4200,
      "▁nasa": 4201,
      "aint": 4202,
      "▁possess": 4203,
      "▁painting": 4204,
      "za": 4205,
      "ographic": 4206,
      "▁download": 4207,
      "▁domestic": 4208,
      "▁curriculum": 4209,
      "▁served": 4210,
      "trop": 4211,
      "▁advance": 4212,
      "▁royal": 4213,
      "▁links": 4214,
      "▁traffic": 4215,
      "▁saying": 4216,
      "▁vaccine": 4217,
      "▁chann": 4218,
      "▁ecosystem": 4219,
      "▁allowing": 4220,
      "▁kept": 4221,
      "▁digest": 4222,
      "encing": 4223,
      "there": 4224,
      "▁vulner": 4225,
      "umin": 4226,
      "▁fal": 4227,
      "▁bright": 4228,
      "▁chemicals": 4229,
      "har": 4230,
      "▁otherwise": 4231,
      "with": 4232,
      "▁contribute": 4233,
      "ception": 4234,
      "▁count": 4235,
      "▁foss": 4236,
      "▁thanks": 4237,
      "▁career": 4238,
      "▁https": 4239,
      "▁corresp": 4240,
      "enn": 4241,
      "▁nit": 4242,
      "▁wit": 4243,
      "greg": 4244,
      "▁double": 4245,
      "▁treatments": 4246,
      "▁vent": 4247,
      "▁jews": 4248,
      "cip": 4249,
      "orial": 4250,
      "ressed": 4251,
      "▁apart": 4252,
      "▁atmosphere": 4253,
      "▁identity": 4254,
      "▁asia": 4255,
      "▁diss": 4256,
      "▁diam": 4257,
      "▁flowers": 4258,
      "▁texas": 4259,
      "▁completed": 4260,
      "▁kil": 4261,
      "board": 4262,
      "ias": 4263,
      "▁thomas": 4264,
      "▁ideal": 4265,
      "▁suppl": 4266,
      "▁certainly": 4267,
      "umn": 4268,
      "▁band": 4269,
      "va": 4270,
      "cs": 4271,
      "name": 4272,
      "▁creative": 4273,
      "▁behaviour": 4274,
      "▁trou": 4275,
      "▁meant": 4276,
      "▁dental": 4277,
      "▁mexico": 4278,
      "ago": 4279,
      "▁combined": 4280,
      "▁spent": 4281,
      "▁none": 4282,
      "▁jobs": 4283,
      "▁shared": 4284,
      "west": 4285,
      "▁liquid": 4286,
      "▁decided": 4287,
      "▁charge": 4288,
      "▁extensive": 4289,
      "▁samples": 4290,
      "airs": 4291,
      "▁operating": 4292,
      "zing": 4293,
      "▁voice": 4294,
      "▁external": 4295,
      "▁sciences": 4296,
      "wood": 4297,
      "▁metab": 4298,
      "win": 4299,
      "▁manner": 4300,
      "arent": 4301,
      "▁unders": 4302,
      "▁drink": 4303,
      "▁valu": 4304,
      "▁pieces": 4305,
      "▁atl": 4306,
      "▁gun": 4307,
      "▁title": 4308,
      "▁islam": 4309,
      "fered": 4310,
      "▁vital": 4311,
      "▁proposed": 4312,
      "▁topics": 4313,
      "▁clim": 4314,
      "▁instruction": 4315,
      "▁stro": 4316,
      "▁pair": 4317,
      "▁conclud": 4318,
      "▁continues": 4319,
      "▁sector": 4320,
      "▁bio": 4321,
      "▁myt": 4322,
      "▁tasks": 4323,
      "ferences": 4324,
      "cal": 4325,
      "▁consequences": 4326,
      "▁spl": 4327,
      "▁crisis": 4328,
      "▁mainly": 4329,
      "wa": 4330,
      "▁shel": 4331,
      "▁supported": 4332,
      "▁perman": 4333,
      "▁purposes": 4334,
      "▁regional": 4335,
      "▁screen": 4336,
      "vert": 4337,
      "▁reached": 4338,
      "▁alle": 4339,
      "▁ing": 4340,
      "▁nurs": 4341,
      "ald": 4342,
      "▁windows": 4343,
      "▁looks": 4344,
      "▁imper": 4345,
      "▁colour": 4346,
      "comes": 4347,
      "▁habitat": 4348,
      "▁immig": 4349,
      "▁rural": 4350,
      "▁settle": 4351,
      "▁leader": 4352,
      "▁vehicle": 4353,
      "▁intended": 4354,
      "▁kit": 4355,
      "▁straight": 4356,
      "ev": 4357,
      "▁impacts": 4358,
      "▁nutrients": 4359,
      "verty": 4360,
      "▁onto": 4361,
      "▁subsequ": 4362,
      "▁send": 4363,
      "▁abuse": 4364,
      "▁situations": 4365,
      "▁subjects": 4366,
      "▁boo": 4367,
      "▁recorded": 4368,
      "▁pig": 4369,
      "▁stock": 4370,
      "▁poverty": 4371,
      "thy": 4372,
      "▁react": 4373,
      "▁healthcare": 4374,
      "icip": 4375,
      "ads": 4376,
      "▁primarily": 4377,
      "▁van": 4378,
      "▁phenomen": 4379,
      "▁persons": 4380,
      "otic": 4381,
      "▁sed": 4382,
      "▁ethn": 4383,
      "▁recovery": 4384,
      "ij": 4385,
      "rogen": 4386,
      "▁appoint": 4387,
      "▁ib": 4388,
      "▁flat": 4389,
      "▁girls": 4390,
      "▁tun": 4391,
      "▁responsibility": 4392,
      "▁rein": 4393,
      "ault": 4394,
      "▁adding": 4395,
      "▁doll": 4396,
      "▁sufficient": 4397,
      "▁begins": 4398,
      "▁typical": 4399,
      "▁implic": 4400,
      "▁tow": 4401,
      "▁flag": 4402,
      "▁excellent": 4403,
      "▁motion": 4404,
      "rastru": 4405,
      "▁impl": 4406,
      "but": 4407,
      "▁arab": 4408,
      "▁moist": 4409,
      "going": 4410,
      "▁interview": 4411,
      "▁mos": 4412,
      "▁perspective": 4413,
      "▁mobile": 4414,
      "▁valley": 4415,
      "▁cub": 4416,
      "▁dept": 4417,
      "▁bon": 4418,
      "vid": 4419,
      "amental": 4420,
      "▁discovery": 4421,
      "▁governments": 4422,
      "▁focused": 4423,
      "▁dial": 4424,
      "zy": 4425,
      "▁attacks": 4426,
      "mi": 4427,
      "▁apparent": 4428,
      "▁maximum": 4429,
      "▁showing": 4430,
      "berg": 4431,
      "▁centuries": 4432,
      "▁forced": 4433,
      "▁marria": 4434,
      "car": 4435,
      "▁aer": 4436,
      "▁advice": 4437,
      "iat": 4438,
      "yer": 4439,
      "▁spend": 4440,
      "osite": 4441,
      "▁infrastru": 4442,
      "▁muscles": 4443,
      "▁horse": 4444,
      "rete": 4445,
      "▁amb": 4446,
      "▁indicate": 4447,
      "▁nerv": 4448,
      "▁offered": 4449,
      "▁bor": 4450,
      "tion": 4451,
      "▁trial": 4452,
      "▁britain": 4453,
      "vity": 4454,
      "▁insight": 4455,
      "ishing": 4456,
      "▁ven": 4457,
      "▁fruits": 4458,
      "▁diversity": 4459,
      "ctic": 4460,
      "▁collected": 4461,
      "▁allerg": 4462,
      "▁detailed": 4463,
      "inger": 4464,
      "ounced": 4465,
      "down": 4466,
      "▁auto": 4467,
      "▁faster": 4468,
      "▁empire": 4469,
      "▁investment": 4470,
      "▁arts": 4471,
      "osa": 4472,
      "▁taught": 4473,
      "istan": 4474,
      "▁sounds": 4475,
      "▁wear": 4476,
      "▁neut": 4477,
      "▁cloud": 4478,
      "▁phone": 4479,
      "othe": 4480,
      "tag": 4481,
      "place": 4482,
      "▁bes": 4483,
      "▁wire": 4484,
      "tu": 4485,
      "body": 4486,
      "▁holy": 4487,
      "▁train": 4488,
      "▁sett": 4489,
      "▁roots": 4490,
      "▁explan": 4491,
      "matic": 4492,
      "▁regul": 4493,
      "▁existence": 4494,
      "▁soft": 4495,
      "▁accurate": 4496,
      "▁largely": 4497,
      "▁las": 4498,
      "rew": 4499,
      "▁democr": 4500,
      "▁latin": 4501,
      "▁universe": 4502,
      "▁mad": 4503,
      "▁extent": 4504,
      "▁stars": 4505,
      "▁intr": 4506,
      "▁km": 4507,
      "▁pregnancy": 4508,
      "▁remained": 4509,
      "▁kinds": 4510,
      "norm": 4511,
      "▁fundamental": 4512,
      "▁particles": 4513,
      "▁raised": 4514,
      "ing\n": 4515,
      "▁dedic": 4516,
      "▁guidelines": 4517,
      "▁facilities": 4518,
      "▁sports": 4519,
      "▁valid": 4520,
      "▁elev": 4521,
      "▁database": 4522,
      "free": 4523,
      "▁occurred": 4524,
      "▁vast": 4525,
      "▁muslim": 4526,
      "mas": 4527,
      "▁fluid": 4528,
      "▁bible": 4529,
      "▁islands": 4530,
      "▁random": 4531,
      "▁suggested": 4532,
      "rant": 4533,
      "▁inhe": 4534,
      "▁component": 4535,
      "met": 4536,
      "▁goods": 4537,
      "ifying": 4538,
      "▁rough": 4539,
      "▁cas": 4540,
      "▁wife": 4541,
      "hance": 4542,
      "▁biology": 4543,
      "unction": 4544,
      "mo": 4545,
      "▁crops": 4546,
      "▁instrument": 4547,
      "▁surrounding": 4548,
      "▁temple": 4549,
      "▁request": 4550,
      "▁lessons": 4551,
      "hist": 4552,
      "▁mand": 4553,
      "dis": 4554,
      "▁unfortun": 4555,
      "▁leadership": 4556,
      "▁budd": 4557,
      "▁originally": 4558,
      "▁playing": 4559,
      "acters": 4560,
      "▁affects": 4561,
      "▁proteins": 4562,
      "▁satell": 4563,
      "▁familiar": 4564,
      "▁advoc": 4565,
      "▁contra": 4566,
      "▁robert": 4567,
      "▁felt": 4568,
      "▁helpful": 4569,
      "▁script": 4570,
      "rum": 4571,
      "▁businesses": 4572,
      "▁refers": 4573,
      "▁protocol": 4574,
      "iance": 4575,
      "▁sky": 4576,
      "▁increasingly": 4577,
      "alled": 4578,
      "▁exchange": 4579,
      "olute": 4580,
      "▁secondary": 4581,
      "ael": 4582,
      "▁aren": 4583,
      "▁bag": 4584,
      "aughter": 4585,
      "▁enhance": 4586,
      "▁thoughts": 4587,
      "▁harvest": 4588,
      "▁outcomes": 4589,
      "▁acts": 4590,
      "fig": 4591,
      "▁characters": 4592,
      "▁satis": 4593,
      "▁medications": 4594,
      "▁format": 4595,
      "▁files": 4596,
      "▁principle": 4597,
      "▁controlled": 4598,
      "oxide": 4599,
      "▁fab": 4600,
      "▁measured": 4601,
      "▁thor": 4602,
      "▁agreement": 4603,
      "tons": 4604,
      "▁prison": 4605,
      "▁spiritual": 4606,
      "▁hundreds": 4607,
      "you": 4608,
      "▁prices": 4609,
      "▁ok": 4610,
      "ado": 4611,
      "▁barri": 4612,
      "▁naturally": 4613,
      "▁intel": 4614,
      "▁google": 4615,
      "▁officials": 4616,
      "▁artific": 4617,
      "uly": 4618,
      "▁medium": 4619,
      "▁periods": 4620,
      "rations": 4621,
      "▁weap": 4622,
      "▁pin": 4623,
      "reci": 4624,
      "tles": 4625,
      "▁latest": 4626,
      "band": 4627,
      "▁potentially": 4628,
      "▁secure": 4629,
      "▁narr": 4630,
      "▁pi": 4631,
      "▁employees": 4632,
      "ker": 4633,
      "▁infrastructure": 4634,
      "▁trip": 4635,
      "▁greatest": 4636,
      "▁ul": 4637,
      "▁pret": 4638,
      "▁smith": 4639,
      "uses": 4640,
      "▁mere": 4641,
      "▁slightly": 4642,
      "rich": 4643,
      "ville": 4644,
      "▁neighbor": 4645,
      "▁protected": 4646,
      "▁selected": 4647,
      "▁lose": 4648,
      "iday": 4649,
      "tenance": 4650,
      "▁prem": 4651,
      "ny": 4652,
      "▁pump": 4653,
      "▁explained": 4654,
      "▁tested": 4655,
      "▁residents": 4656,
      "ont": 4657,
      "▁jose": 4658,
      "▁pacific": 4659,
      "▁substant": 4660,
      "igenous": 4661,
      "▁played": 4662,
      "▁poet": 4663,
      "▁integ": 4664,
      "▁veter": 4665,
      "▁conference": 4666,
      "enses": 4667,
      "▁era": 4668,
      "▁village": 4669,
      "▁driving": 4670,
      "▁ton": 4671,
      "▁inflammation": 4672,
      "▁crow": 4673,
      "▁hence": 4674,
      "▁execut": 4675,
      "▁explains": 4676,
      "▁plate": 4677,
      "▁valuable": 4678,
      "▁approaches": 4679,
      "▁consid": 4680,
      "▁procedures": 4681,
      "▁supplement": 4682,
      "▁regularly": 4683,
      "▁feelings": 4684,
      "field": 4685,
      "dered": 4686,
      "▁doctors": 4687,
      "ota": 4688,
      "ki": 4689,
      "▁mamm": 4690,
      "▁stret": 4691,
      "eline": 4692,
      "▁comprehensive": 4693,
      "▁trop": 4694,
      "▁incl": 4695,
      "▁param": 4696,
      "war": 4697,
      "▁manufacturing": 4698,
      "ping": 4699,
      "▁grown": 4700,
      "▁ble": 4701,
      "▁interests": 4702,
      "uel": 4703,
      "▁divided": 4704,
      "▁physics": 4705,
      "▁depends": 4706,
      "▁ali": 4707,
      "▁tan": 4708,
      "▁tel": 4709,
      "thetic": 4710,
      "▁hero": 4711,
      "▁carol": 4712,
      "▁electronic": 4713,
      "▁improving": 4714,
      "▁funding": 4715,
      "▁minimum": 4716,
      "▁join": 4717,
      "▁herit": 4718,
      "▁deliver": 4719,
      "▁dream": 4720,
      "▁rab": 4721,
      "▁views": 4722,
      "▁correspond": 4723,
      "▁da": 4724,
      "▁concentration": 4725,
      "▁centers": 4726,
      "usive": 4727,
      "roll": 4728,
      "▁steel": 4729,
      "ensus": 4730,
      "▁ultimately": 4731,
      "mach": 4732,
      "▁franc": 4733,
      "▁speaking": 4734,
      "▁drop": 4735,
      "▁fertil": 4736,
      "▁philosophy": 4737,
      "▁independence": 4738,
      "▁bridge": 4739,
      "▁lad": 4740,
      "▁documents": 4741,
      "▁walls": 4742,
      "▁colors": 4743,
      "▁leaf": 4744,
      "alle": 4745,
      "▁framework": 4746,
      "▁sick": 4747,
      "iced": 4748,
      "▁leaving": 4749,
      "▁unless": 4750,
      "▁studied": 4751,
      "▁distingu": 4752,
      "▁ai": 4753,
      "▁catholic": 4754,
      "ague": 4755,
      "▁cd": 4756,
      "▁brand": 4757,
      "itors": 4758,
      "▁concerned": 4759,
      "▁moral": 4760,
      "▁description": 4761,
      "▁cos": 4762,
      "▁normally": 4763,
      "chool": 4764,
      "▁appearance": 4765,
      "which": 4766,
      "▁landscape": 4767,
      "▁visible": 4768,
      "▁millions": 4769,
      "▁pure": 4770,
      "▁happened": 4771,
      "rick": 4772,
      "fall": 4773,
      "aran": 4774,
      "▁pit": 4775,
      "▁decrease": 4776,
      "▁obtained": 4777,
      "▁hill": 4778,
      "uls": 4779,
      "▁anc": 4780,
      "▁substance": 4781,
      "▁prepare": 4782,
      "▁soldiers": 4783,
      "onic": 4784,
      "▁recognized": 4785,
      "▁charles": 4786,
      "▁lifest": 4787,
      "▁wave": 4788,
      "▁extract": 4789,
      "▁networks": 4790,
      "being": 4791,
      "tood": 4792,
      "▁ol": 4793,
      "▁institution": 4794,
      "▁parties": 4795,
      "▁recognize": 4796,
      "▁closely": 4797,
      "▁firm": 4798,
      "ipped": 4799,
      "▁claims": 4800,
      "▁containing": 4801,
      "▁selection": 4802,
      "▁follows": 4803,
      "▁sudden": 4804,
      "▁henry": 4805,
      "▁talking": 4806,
      "▁iv": 4807,
      "icted": 4808,
      "▁absolute": 4809,
      "▁kore": 4810,
      "▁returned": 4811,
      "▁floor": 4812,
      "▁termin": 4813,
      "▁rapidly": 4814,
      "▁sod": 4815,
      "▁suffering": 4816,
      "▁additionally": 4817,
      "▁spr": 4818,
      "▁hypo": 4819,
      "▁childhood": 4820,
      "▁deaths": 4821,
      "▁oh": 4822,
      "▁consists": 4823,
      "▁looked": 4824,
      "▁accompl": 4825,
      "inated": 4826,
      "▁represents": 4827,
      "▁battery": 4828,
      "▁ingred": 4829,
      "▁bear": 4830,
      "▁portion": 4831,
      "▁survival": 4832,
      "▁russian": 4833,
      "roid": 4834,
      "wing": 4835,
      "▁maintenance": 4836,
      "▁journey": 4837,
      "▁fo": 4838,
      "▁indigenous": 4839,
      "▁anth": 4840,
      "▁label": 4841,
      "▁movements": 4842,
      "bn": 4843,
      "▁antibiot": 4844,
      "▁computers": 4845,
      "▁chart": 4846,
      "▁russia": 4847,
      "▁collabor": 4848,
      "▁sweet": 4849,
      "burg": 4850,
      "▁guard": 4851,
      "▁facilit": 4852,
      "▁ken": 4853,
      "▁transition": 4854,
      "▁tried": 4855,
      "▁hyp": 4856,
      "▁arth": 4857,
      "▁din": 4858,
      "long": 4859,
      "vision": 4860,
      "▁inches": 4861,
      "ams": 4862,
      "▁adequ": 4863,
      "▁readers": 4864,
      "▁statistics": 4865,
      "▁argument": 4866,
      "▁copyright": 4867,
      "▁cm": 4868,
      "▁raise": 4869,
      "ti": 4870,
      "▁crop": 4871,
      "cript": 4872,
      "▁sides": 4873,
      "state": 4874,
      "▁heritage": 4875,
      "▁marriage": 4876,
      "▁infected": 4877,
      "▁virtual": 4878,
      "▁circumst": 4879,
      "▁vehicles": 4880,
      "dra": 4881,
      "▁imposs": 4882,
      "▁worldwide": 4883,
      "▁paid": 4884,
      "▁minister": 4885,
      "▁lands": 4886,
      "▁figures": 4887,
      "▁cutting": 4888,
      "▁appeared": 4889,
      "▁eu": 4890,
      "▁fell": 4891,
      "▁scholars": 4892,
      "▁protest": 4893,
      "▁happy": 4894,
      "▁experiments": 4895,
      "▁expensive": 4896,
      "▁answers": 4897,
      "ania": 4898,
      "▁evaluation": 4899,
      "▁discussed": 4900,
      "▁pictures": 4901,
      "tos": 4902,
      "▁assistance": 4903,
      "▁transportation": 4904,
      "tage": 4905,
      "▁sensitive": 4906,
      "ascular": 4907,
      "▁chic": 4908,
      "▁domain": 4909,
      "▁thy": 4910,
      "▁mun": 4911,
      "bing": 4912,
      "▁remote": 4913,
      "▁electro": 4914,
      "▁raw": 4915,
      "hem": 4916,
      "▁volunte": 4917,
      "▁forests": 4918,
      "▁ax": 4919,
      "▁stages": 4920,
      "▁uns": 4921,
      "ux": 4922,
      "▁dent": 4923,
      "▁photograph": 4924,
      "▁aircraft": 4925,
      "flow": 4926,
      "▁routine": 4927,
      "cium": 4928,
      "▁eld": 4929,
      "point": 4930,
      "lers": 4931,
      "▁enhan": 4932,
      "▁sets": 4933,
      "▁historic": 4934,
      "celer": 4935,
      "ander": 4936,
      "▁stated": 4937,
      "▁window": 4938,
      "▁pm": 4939,
      "teries": 4940,
      "▁sovi": 4941,
      "▁diverse": 4942,
      "▁archae": 4943,
      "▁cham": 4944,
      "▁artificial": 4945,
      "▁dust": 4946,
      "▁candid": 4947,
      "iding": 4948,
      "▁coffe": 4949,
      "▁medication": 4950,
      "▁afford": 4951,
      "pass": 4952,
      "▁warming": 4953,
      "▁traum": 4954,
      "▁hus": 4955,
      "▁knew": 4956,
      "▁wealth": 4957,
      "itz": 4958,
      "▁encoun": 4959,
      "▁opinion": 4960,
      "▁toler": 4961,
      "pet": 4962,
      "erals": 4963,
      "▁edge": 4964,
      "▁gather": 4965,
      "och": 4966,
      "▁precise": 4967,
      "cules": 4968,
      "ba": 4969,
      "stream": 4970,
      "▁suitable": 4971,
      "▁sight": 4972,
      "▁architecture": 4973,
      "▁abst": 4974,
      "▁professionals": 4975,
      "▁formal": 4976,
      "▁intake": 4977,
      "▁closed": 4978,
      "▁couple": 4979,
      "▁shell": 4980,
      "▁alex": 4981,
      "▁whatever": 4982,
      "▁massive": 4983,
      "▁courses": 4984,
      "cell": 4985,
      "▁award": 4986,
      "▁injuries": 4987,
      "ulin": 4988,
      "▁louis": 4989,
      "▁mars": 4990,
      "hu": 4991,
      "try": 4992,
      "▁sad": 4993,
      "▁conscious": 4994,
      "▁arms": 4995,
      "dy": 4996,
      "▁capable": 4997,
      "▁cultiv": 4998,
      "▁houses": 4999,
      "▁virginia": 5000,
      "orith": 5001,
      "▁accompan": 5002,
      "irt": 5003,
      "▁generate": 5004,
      "sm": 5005,
      "inations": 5006,
      "▁excl": 5007,
      "road": 5008,
      "▁zone": 5009,
      "▁restrict": 5010,
      "▁fly": 5011,
      "▁producing": 5012,
      "iet": 5013,
      "▁plain": 5014,
      "▁regulations": 5015,
      "ules": 5016,
      "▁unfortunately": 5017,
      "▁hat": 5018,
      "icit": 5019,
      "▁ancest": 5020,
      "▁circuit": 5021,
      "▁hem": 5022,
      "▁tea": 5023,
      "cling": 5024,
      "kin": 5025,
      "▁listen": 5026,
      "▁acceler": 5027,
      "cope": 5028,
      "▁respir": 5029,
      "▁cars": 5030,
      "▁phr": 5031,
      "▁gro": 5032,
      "▁suffer": 5033,
      "▁transmission": 5034,
      "▁interact": 5035,
      "▁possibly": 5036,
      "▁algorith": 5037,
      "faces": 5038,
      "rency": 5039,
      "▁tail": 5040,
      "▁ye": 5041,
      "▁narrow": 5042,
      "▁error": 5043,
      "▁calls": 5044,
      "▁impossible": 5045,
      "▁decline": 5046,
      "▁intellect": 5047,
      "▁satisf": 5048,
      "bu": 5049,
      "▁seeing": 5050,
      "▁francis": 5051,
      "▁territory": 5052,
      "▁intervention": 5053,
      "▁appreci": 5054,
      "▁wid": 5055,
      "▁indu": 5056,
      "▁plays": 5057,
      "▁bones": 5058,
      "▁coffee": 5059,
      "▁latter": 5060,
      "▁edition": 5061,
      "eters": 5062,
      "▁pull": 5063,
      "▁defense": 5064,
      "▁prophe": 5065,
      "▁server": 5066,
      "▁listed": 5067,
      "▁flav": 5068,
      "▁worse": 5069,
      "▁politics": 5070,
      "▁remind": 5071,
      "▁cot": 5072,
      "▁electron": 5073,
      "▁mov": 5074,
      "▁whereas": 5075,
      "▁tom": 5076,
      "▁entirely": 5077,
      "tml": 5078,
      "▁frank": 5079,
      "▁psychological": 5080,
      "esity": 5081,
      "▁nine": 5082,
      "lets": 5083,
      "uting": 5084,
      "ibilities": 5085,
      "▁accepted": 5086,
      "▁accounts": 5087,
      "gets": 5088,
      "rep": 5089,
      "▁harmful": 5090,
      "▁household": 5091,
      "▁choices": 5092,
      "▁fiber": 5093,
      "rect": 5094,
      "▁repeated": 5095,
      "istered": 5096,
      "▁stimul": 5097,
      "unk": 5098,
      "▁twenty": 5099,
      "▁revealed": 5100,
      "tall": 5101,
      "ola": 5102,
      "▁florida": 5103,
      "agers": 5104,
      "▁crime": 5105,
      "ili": 5106,
      "▁cats": 5107,
      "erate": 5108,
      "▁describes": 5109,
      "▁bee": 5110,
      "▁difficulty": 5111,
      "bel": 5112,
      "▁ped": 5113,
      "▁discipl": 5114,
      "▁boost": 5115,
      "▁calcium": 5116,
      "▁beneficial": 5117,
      "▁comments": 5118,
      "▁roof": 5119,
      "▁extended": 5120,
      "▁sell": 5121,
      "▁ren": 5122,
      "▁pretty": 5123,
      "▁consistent": 5124,
      "▁adopted": 5125,
      "▁mm": 5126,
      "bour": 5127,
      "▁mes": 5128,
      "▁solve": 5129,
      "▁plus": 5130,
      "▁belief": 5131,
      "▁pharm": 5132,
      "▁walking": 5133,
      "▁abund": 5134,
      "theless": 5135,
      "▁tiny": 5136,
      "▁lie": 5137,
      "americ": 5138,
      "▁housing": 5139,
      "▁doi": 5140,
      "▁agencies": 5141,
      "▁environments": 5142,
      "rine": 5143,
      "▁covid": 5144,
      "tering": 5145,
      "▁pip": 5146,
      "▁unknown": 5147,
      "organ": 5148,
      "▁paris": 5149,
      "▁outl": 5150,
      "sen": 5151,
      "eper": 5152,
      "▁stored": 5153,
      "▁tri": 5154,
      "▁smoking": 5155,
      "▁insurance": 5156,
      "▁cab": 5157,
      "▁struggle": 5158,
      "je": 5159,
      "▁understood": 5160,
      "▁composition": 5161,
      "teen": 5162,
      "▁opened": 5163,
      "▁comparison": 5164,
      "▁ethnic": 5165,
      "hm": 5166,
      "▁witness": 5167,
      "▁sequence": 5168,
      "▁inner": 5169,
      "▁possibility": 5170,
      "▁fossil": 5171,
      "▁ba": 5172,
      "osen": 5173,
      "▁obst": 5174,
      "tank": 5175,
      "▁permanent": 5176,
      "▁consumers": 5177,
      "olester": 5178,
      "rors": 5179,
      "▁implementation": 5180,
      "▁skill": 5181,
      "▁sharing": 5182,
      "▁depos": 5183,
      "▁waves": 5184,
      "▁lots": 5185,
      "▁lifestyle": 5186,
      "▁les": 5187,
      "▁clot": 5188,
      "▁achieved": 5189,
      "normal": 5190,
      "eless": 5191,
      "▁budget": 5192,
      "▁opening": 5193,
      "▁studying": 5194,
      "▁obesity": 5195,
      "▁density": 5196,
      "▁drawing": 5197,
      "▁assembly": 5198,
      "▁creates": 5199,
      "▁reader": 5200,
      "▁refuge": 5201,
      "▁mu": 5202,
      "▁administr": 5203,
      "ern": 5204,
      "last": 5205,
      "▁equival": 5206,
      "agues": 5207,
      "certain": 5208,
      "▁supre": 5209,
      "▁broken": 5210,
      "▁rice": 5211,
      "tut": 5212,
      "▁maybe": 5213,
      "▁perce": 5214,
      "▁insects": 5215,
      "▁aggress": 5216,
      "inet": 5217,
      "▁adoles": 5218,
      "▁door": 5219,
      "orter": 5220,
      "▁joseph": 5221,
      "▁hydrogen": 5222,
      "ada": 5223,
      "▁twice": 5224,
      "ifies": 5225,
      "alian": 5226,
      "lis": 5227,
      "▁canadian": 5228,
      "▁peter": 5229,
      "▁genet": 5230,
      "athy": 5231,
      "▁warning": 5232,
      "▁interaction": 5233,
      "▁ath": 5234,
      "▁satur": 5235,
      "▁shut": 5236,
      "idden": 5237,
      "using": 5238,
      "anes": 5239,
      "▁stomach": 5240,
      "▁gum": 5241,
      "rants": 5242,
      "▁emotions": 5243,
      "▁papers": 5244,
      "▁starts": 5245,
      "▁ash": 5246,
      "▁survive": 5247,
      "▁columb": 5248,
      "▁magnetic": 5249,
      "▁conclusion": 5250,
      "▁mixed": 5251,
      "▁moreover": 5252,
      "▁retain": 5253,
      "▁slowly": 5254,
      "▁stick": 5255,
      "▁chick": 5256,
      "osal": 5257,
      "▁ratio": 5258,
      "▁mild": 5259,
      "▁authorities": 5260,
      "▁enable": 5261,
      "ava": 5262,
      "▁cultures": 5263,
      "▁generated": 5264,
      "▁responses": 5265,
      "▁remaining": 5266,
      "racy": 5267,
      "▁myth": 5268,
      "▁supporting": 5269,
      "olesterol": 5270,
      "▁zero": 5271,
      "▁orient": 5272,
      "▁mechanism": 5273,
      "she": 5274,
      "▁improvement": 5275,
      "▁consumer": 5276,
      "▁maps": 5277,
      "▁feeding": 5278,
      "▁rivers": 5279,
      "hop": 5280,
      "▁locations": 5281,
      "▁maintaining": 5282,
      "▁expans": 5283,
      "illing": 5284,
      "▁critic": 5285,
      "▁purchase": 5286,
      "▁conventional": 5287,
      "appe": 5288,
      "▁resolution": 5289,
      "▁mir": 5290,
      "▁psychology": 5291,
      "▁programming": 5292,
      "▁filled": 5293,
      "▁noise": 5294,
      "▁false": 5295,
      "▁wol": 5296,
      "▁shop": 5297,
      "▁simpl": 5298,
      "▁rose": 5299,
      "▁decade": 5300,
      "▁to\n": 5301,
      "▁mathematics": 5302,
      "▁persist": 5303,
      "▁scenar": 5304,
      "▁silver": 5305,
      "▁pron": 5306,
      "▁resto": 5307,
      "▁acids": 5308,
      "vis": 5309,
      "hyd": 5310,
      "▁decide": 5311,
      "▁bib": 5312,
      "▁younger": 5313,
      "jo": 5314,
      "▁yield": 5315,
      "▁fixed": 5316,
      "▁shift": 5317,
      "▁soviet": 5318,
      "▁derived": 5319,
      "▁depth": 5320,
      "▁epid": 5321,
      "▁truly": 5322,
      "▁occasion": 5323,
      "ari": 5324,
      "▁carefully": 5325,
      "cher": 5326,
      "▁parli": 5327,
      "▁editor": 5328,
      "iform": 5329,
      "▁correl": 5330,
      "hand": 5331,
      "▁employment": 5332,
      "▁circumstances": 5333,
      "▁preval": 5334,
      "▁attend": 5335,
      "hns": 5336,
      "▁machines": 5337,
      "▁immediate": 5338,
      "▁successfully": 5339,
      "▁signals": 5340,
      "▁clus": 5341,
      "when": 5342,
      "▁pus": 5343,
      "ache": 5344,
      "oted": 5345,
      "▁expressed": 5346,
      "erative": 5347,
      "▁furthermore": 5348,
      "▁breathing": 5349,
      "▁diction": 5350,
      "▁acknow": 5351,
      "▁standing": 5352,
      "▁australian": 5353,
      "▁habits": 5354,
      "▁tall": 5355,
      "▁organized": 5356,
      "asive": 5357,
      "▁sheet": 5358,
      "▁cholesterol": 5359,
      "▁failed": 5360,
      "▁molecules": 5361,
      "▁powers": 5362,
      "▁neither": 5363,
      "▁fabric": 5364,
      "▁tells": 5365,
      "▁mountains": 5366,
      "ashion": 5367,
      "▁dys": 5368,
      "▁nest": 5369,
      "oking": 5370,
      "▁ms": 5371,
      "▁wik": 5372,
      "▁produces": 5373,
      "▁imagine": 5374,
      "▁butter": 5375,
      "▁obl": 5376,
      "▁ment": 5377,
      "▁wants": 5378,
      "bes": 5379,
      "hon": 5380,
      "▁recognition": 5381,
      "▁debate": 5382,
      "▁agre": 5383,
      "while": 5384,
      "▁tank": 5385,
      "▁fourt": 5386,
      "▁dedicated": 5387,
      "▁blo": 5388,
      "▁troops": 5389,
      "▁doubt": 5390,
      "▁sar": 5391,
      "▁publication": 5392,
      "▁knowing": 5393,
      "level": 5394,
      "▁audience": 5395,
      "▁scar": 5396,
      "hyl": 5397,
      "▁functional": 5398,
      "zen": 5399,
      "▁neck": 5400,
      "▁handle": 5401,
      "▁burn": 5402,
      "▁border": 5403,
      "▁pup": 5404,
      "tam": 5405,
      "▁dar": 5406,
      "hma": 5407,
      "▁opposite": 5408,
      "▁limits": 5409,
      "pected": 5410,
      "▁remark": 5411,
      "▁indo": 5412,
      "▁concrete": 5413,
      "▁molecular": 5414,
      "▁gluc": 5415,
      "▁thousand": 5416,
      "▁relax": 5417,
      "▁writer": 5418,
      "▁susp": 5419,
      "▁gut": 5420,
      "olve": 5421,
      "▁tut": 5422,
      "▁ort": 5423,
      "▁fourth": 5424,
      "▁feedback": 5425,
      "▁wish": 5426,
      "▁www": 5427,
      "▁inhib": 5428,
      "▁rising": 5429,
      "▁nerve": 5430,
      "▁camera": 5431,
      "quit": 5432,
      "▁pand": 5433,
      "▁epis": 5434,
      "▁fewer": 5435,
      "▁bind": 5436,
      "tension": 5437,
      "▁greatly": 5438,
      "▁parliament": 5439,
      "▁presentation": 5440,
      "▁bond": 5441,
      "▁teen": 5442,
      "▁usa": 5443,
      "irect": 5444,
      "▁marked": 5445,
      "▁sentence": 5446,
      "▁founded": 5447,
      "atically": 5448,
      "▁paralle": 5449,
      "▁fighting": 5450,
      "▁clar": 5451,
      "▁cup": 5452,
      "▁managed": 5453,
      "▁outdo": 5454,
      "▁indicates": 5455,
      "▁subs": 5456,
      "iversity": 5457,
      "▁universal": 5458,
      "▁communicate": 5459,
      "▁si": 5460,
      "gans": 5461,
      "tv": 5462,
      "cience": 5463,
      "▁rhy": 5464,
      "▁bread": 5465,
      "iger": 5466,
      "from": 5467,
      "inity": 5468,
      "▁unable": 5469,
      "▁daughter": 5470,
      "▁pool": 5471,
      "▁chrom": 5472,
      "▁rig": 5473,
      "▁tu": 5474,
      "▁club": 5475,
      "▁nic": 5476,
      "▁industries": 5477,
      "▁cu": 5478,
      "▁behaviors": 5479,
      "inction": 5480,
      "▁gap": 5481,
      "▁instructions": 5482,
      "▁cree": 5483,
      "▁willing": 5484,
      "▁stroke": 5485,
      "▁accum": 5486,
      "heim": 5487,
      "▁coc": 5488,
      "▁fest": 5489,
      "▁vessels": 5490,
      "▁fever": 5491,
      "gon": 5492,
      "▁greenhouse": 5493,
      "▁magaz": 5494,
      "▁gone": 5495,
      "▁earl": 5496,
      "wal": 5497,
      "aria": 5498,
      "irus": 5499,
      "▁estimates": 5500,
      "▁compr": 5501,
      "▁mechanisms": 5502,
      "▁closer": 5503,
      "▁competition": 5504,
      "▁desire": 5505,
      "▁integrated": 5506,
      "itudes": 5507,
      "▁inhab": 5508,
      "▁variable": 5509,
      "▁confidence": 5510,
      "▁entry": 5511,
      "▁accident": 5512,
      "▁cod": 5513,
      "▁underlying": 5514,
      "nat": 5515,
      "▁promin": 5516,
      "tight": 5517,
      "ented": 5518,
      "▁lung": 5519,
      "▁academy": 5520,
      "▁represented": 5521,
      "tock": 5522,
      "▁supports": 5523,
      "▁poison": 5524,
      "▁instruct": 5525,
      "stone": 5526,
      "▁route": 5527,
      "▁compare": 5528,
      "▁instruments": 5529,
      "stein": 5530,
      "▁richard": 5531,
      "▁fisher": 5532,
      "▁contamin": 5533,
      "▁objective": 5534,
      "▁scan": 5535,
      "▁observations": 5536,
      "▁panel": 5537,
      "▁rome": 5538,
      "▁deli": 5539,
      "iac": 5540,
      "▁taste": 5541,
      "▁replaced": 5542,
      "▁unus": 5543,
      "▁merc": 5544,
      "▁johns": 5545,
      "▁biggest": 5546,
      "▁banks": 5547,
      "fish": 5548,
      "▁kar": 5549,
      "▁married": 5550,
      "▁cryst": 5551,
      "exam": 5552,
      "▁coastal": 5553,
      "▁mining": 5554,
      "▁chemistry": 5555,
      "gers": 5556,
      "▁ring": 5557,
      "itative": 5558,
      "▁connections": 5559,
      "▁marg": 5560,
      "▁pas": 5561,
      "▁supplies": 5562,
      "isp": 5563,
      "▁kidney": 5564,
      "usal": 5565,
      "▁prompt": 5566,
      "rain": 5567,
      "▁swim": 5568,
      "▁bell": 5569,
      "▁isbn": 5570,
      "ogue": 5571,
      "▁renewable": 5572,
      "umes": 5573,
      "▁horizon": 5574,
      "rian": 5575,
      "▁ends": 5576,
      "▁peak": 5577,
      "▁vulnerable": 5578,
      "zil": 5579,
      "▁ire": 5580,
      "▁seat": 5581,
      "▁vs": 5582,
      "▁coron": 5583,
      "▁stands": 5584,
      "▁victor": 5585,
      "▁partner": 5586,
      "▁trials": 5587,
      "▁innovation": 5588,
      "indu": 5589,
      "▁percentage": 5590,
      "▁mode": 5591,
      "ifications": 5592,
      "▁destroyed": 5593,
      "▁defe": 5594,
      "▁delay": 5595,
      "▁necessarily": 5596,
      "▁chosen": 5597,
      "▁honor": 5598,
      "rat": 5599,
      "▁fasc": 5600,
      "▁literacy": 5601,
      "phone": 5602,
      "▁participate": 5603,
      "fit": 5604,
      "▁examine": 5605,
      "▁manif": 5606,
      "sey": 5607,
      "▁considering": 5608,
      "▁queen": 5609,
      "rapy": 5610,
      "▁define": 5611,
      "cur": 5612,
      "▁iii": 5613,
      "▁mice": 5614,
      "▁micros": 5615,
      "kins": 5616,
      "▁hors": 5617,
      "bon": 5618,
      "▁delivery": 5619,
      "▁matters": 5620,
      "▁compounds": 5621,
      "▁customers": 5622,
      "▁ships": 5623,
      "▁reactions": 5624,
      "▁michael": 5625,
      "▁mechanical": 5626,
      "rates": 5627,
      "▁relief": 5628,
      "▁ourselves": 5629,
      "▁senior": 5630,
      "▁executive": 5631,
      "▁angel": 5632,
      "ribed": 5633,
      "▁arrived": 5634,
      "▁putting": 5635,
      "iology": 5636,
      "▁dioxide": 5637,
      "▁substances": 5638,
      "bac": 5639,
      "▁crim": 5640,
      "▁interactions": 5641,
      "▁ts": 5642,
      "▁capture": 5643,
      "▁players": 5644,
      "▁ahead": 5645,
      "▁remov": 5646,
      "ked": 5647,
      "▁organisms": 5648,
      "▁stable": 5649,
      "▁frequent": 5650,
      "onia": 5651,
      "▁smoke": 5652,
      "▁yog": 5653,
      "▁blind": 5654,
      "▁colleagues": 5655,
      "▁que": 5656,
      "born": 5657,
      "icks": 5658,
      "▁measurement": 5659,
      "▁category": 5660,
      "▁falls": 5661,
      "▁volcan": 5662,
      "▁vote": 5663,
      "uous": 5664,
      "▁lies": 5665,
      "▁partnership": 5666,
      "▁workshe": 5667,
      "▁turns": 5668,
      "▁hole": 5669,
      "▁tag": 5670,
      "▁trained": 5671,
      "▁attached": 5672,
      "▁significance": 5673,
      "▁string": 5674,
      "▁exercises": 5675,
      "▁a\n": 5676,
      "ini": 5677,
      "▁italy": 5678,
      "▁demonstrate": 5679,
      "▁pleas": 5680,
      "▁participation": 5681,
      "▁initiative": 5682,
      "▁prime": 5683,
      "bridge": 5684,
      "▁generations": 5685,
      "▁theore": 5686,
      "▁wed": 5687,
      "hum": 5688,
      "▁vac": 5689,
      "▁circle": 5690,
      "▁distur": 5691,
      "▁paras": 5692,
      "▁exists": 5693,
      "▁judge": 5694,
      "▁membr": 5695,
      "acking": 5696,
      "▁biom": 5697,
      "tab": 5698,
      "elled": 5699,
      "▁usage": 5700,
      "▁liber": 5701,
      "▁publish": 5702,
      "weight": 5703,
      "▁cards": 5704,
      "▁males": 5705,
      "▁catch": 5706,
      "type": 5707,
      "▁beliefs": 5708,
      "a\n": 5709,
      "▁funds": 5710,
      "theast": 5711,
      "hro": 5712,
      "aker": 5713,
      "orous": 5714,
      "▁settings": 5715,
      "▁engineers": 5716,
      "bc": 5717,
      "bar": 5718,
      "▁relation": 5719,
      "▁recommendations": 5720,
      "▁match": 5721,
      "▁bc": 5722,
      "▁facility": 5723,
      "▁sla": 5724,
      "▁ireland": 5725,
      "▁cyber": 5726,
      "ediat": 5727,
      "▁channel": 5728,
      "rd": 5729,
      "▁babies": 5730,
      "they": 5731,
      "▁markets": 5732,
      "▁spain": 5733,
      "▁carolina": 5734,
      "gov": 5735,
      "▁equivalent": 5736,
      "▁shot": 5737,
      "▁advantages": 5738,
      "▁challenging": 5739,
      "▁fashion": 5740,
      "▁arrange": 5741,
      "▁artists": 5742,
      "▁layers": 5743,
      "▁scene": 5744,
      "▁recept": 5745,
      "▁scott": 5746,
      "▁wait": 5747,
      "▁align": 5748,
      "▁ske": 5749,
      "▁suffe": 5750,
      "▁alph": 5751,
      "▁programme": 5752,
      "isters": 5753,
      "ctive": 5754,
      "▁repair": 5755,
      "▁nearby": 5756,
      "▁boys": 5757,
      "▁debt": 5758,
      "▁guaran": 5759,
      "isto": 5760,
      "▁contemporary": 5761,
      "▁proceed": 5762,
      "▁categories": 5763,
      "▁everyday": 5764,
      "rene": 5765,
      "▁detection": 5766,
      "▁preventing": 5767,
      "▁spending": 5768,
      "▁preparation": 5769,
      "▁initially": 5770,
      "▁contained": 5771,
      "ston": 5772,
      "▁minerals": 5773,
      "▁adm": 5774,
      "▁acute": 5775,
      "▁insulin": 5776,
      "▁cord": 5777,
      "▁supreme": 5778,
      "▁meal": 5779,
      "▁legislation": 5780,
      "asp": 5781,
      "▁smooth": 5782,
      "▁regardless": 5783,
      "▁females": 5784,
      "▁explanation": 5785,
      "oty": 5786,
      "▁expansion": 5787,
      "▁bure": 5788,
      "▁collaboration": 5789,
      "▁ps": 5790,
      "▁explo": 5791,
      "bles": 5792,
      "▁intellectual": 5793,
      "▁guidance": 5794,
      "▁kne": 5795,
      "▁diagnosed": 5796,
      "▁scholar": 5797,
      "ek": 5798,
      "▁copper": 5799,
      "lements": 5800,
      "▁branch": 5801,
      "▁democratic": 5802,
      "▁excessive": 5803,
      "under": 5804,
      "▁grew": 5805,
      "▁autism": 5806,
      "▁resulted": 5807,
      "▁passage": 5808,
      "▁knows": 5809,
      "▁outbre": 5810,
      "▁scientist": 5811,
      "lar": 5812,
      "▁advert": 5813,
      "▁honey": 5814,
      "▁examination": 5815,
      "▁enab": 5816,
      "▁bol": 5817,
      "▁joined": 5818,
      "anta": 5819,
      "aped": 5820,
      "▁demonstrated": 5821,
      "enue": 5822,
      "▁similarly": 5823,
      "▁satellite": 5824,
      "yles": 5825,
      "▁spin": 5826,
      "▁tropical": 5827,
      "▁continuous": 5828,
      "▁chicago": 5829,
      "▁sole": 5830,
      "▁neur": 5831,
      "▁burning": 5832,
      "▁adequate": 5833,
      "▁voltage": 5834,
      "phy": 5835,
      "▁config": 5836,
      "▁issued": 5837,
      "▁atom": 5838,
      "▁respiratory": 5839,
      "▁prove": 5840,
      "▁rend": 5841,
      "icking": 5842,
      "▁ongoing": 5843,
      "▁legs": 5844,
      "▁election": 5845,
      "cycl": 5846,
      "▁beauty": 5847,
      "▁statist": 5848,
      "ipping": 5849,
      "anda": 5850,
      "▁earthqu": 5851,
      "making": 5852,
      "▁extension": 5853,
      "▁chlor": 5854,
      "▁sharp": 5855,
      "▁advis": 5856,
      "▁advent": 5857,
      "▁thorough": 5858,
      "▁reduces": 5859,
      "usions": 5860,
      "▁convention": 5861,
      "osion": 5862,
      "def": 5863,
      "▁shad": 5864,
      "ocy": 5865,
      "icide": 5866,
      "▁supposed": 5867,
      "ione": 5868,
      "▁manip": 5869,
      "▁sections": 5870,
      "▁spaces": 5871,
      "▁coordin": 5872,
      "▁horses": 5873,
      "▁reliable": 5874,
      "▁mood": 5875,
      "▁turning": 5876,
      "pread": 5877,
      "▁seeking": 5878,
      "▁disappe": 5879,
      "▁resident": 5880,
      "▁os": 5881,
      "▁fif": 5882,
      "produ": 5883,
      "▁moisture": 5884,
      "▁launched": 5885,
      "▁accessible": 5886,
      "▁na": 5887,
      "▁breath": 5888,
      "▁viruses": 5889,
      "▁measurements": 5890,
      "▁summary": 5891,
      "tip": 5892,
      "oul": 5893,
      "▁column": 5894,
      "▁zeal": 5895,
      "ella": 5896,
      "itivity": 5897,
      "▁shif": 5898,
      "▁blocks": 5899,
      "▁evaluate": 5900,
      "▁sales": 5901,
      "▁brazil": 5902,
      "▁missing": 5903,
      "idespread": 5904,
      "tense": 5905,
      "▁furn": 5906,
      "▁danger": 5907,
      "▁implications": 5908,
      "▁offering": 5909,
      "icians": 5910,
      "▁farming": 5911,
      "▁prince": 5912,
      "hrow": 5913,
      "▁georg": 5914,
      "▁essentially": 5915,
      "▁texts": 5916,
      "▁experimental": 5917,
      "luding": 5918,
      "mod": 5919,
      "throw": 5920,
      "izer": 5921,
      "▁amend": 5922,
      "▁disaster": 5923,
      "iov": 5924,
      "▁vel": 5925,
      "▁conve": 5926,
      "▁chest": 5927,
      "▁visitors": 5928,
      "▁apple": 5929,
      "called": 5930,
      "▁principal": 5931,
      "▁session": 5932,
      "▁breeding": 5933,
      "plant": 5934,
      "gments": 5935,
      "att": 5936,
      "▁holding": 5937,
      "writ": 5938,
      "▁tight": 5939,
      "▁widespread": 5940,
      "▁operate": 5941,
      "oned": 5942,
      "▁mortality": 5943,
      "▁victims": 5944,
      "▁accura": 5945,
      "ishment": 5946,
      "▁involving": 5947,
      "▁positions": 5948,
      "▁employed": 5949,
      "▁criteria": 5950,
      "althy": 5951,
      "anged": 5952,
      "▁dictionary": 5953,
      "▁pursu": 5954,
      "mun": 5955,
      "▁trends": 5956,
      "▁mg": 5957,
      "▁clo": 5958,
      "▁controls": 5959,
      "▁push": 5960,
      "don": 5961,
      "ita": 5962,
      "▁dele": 5963,
      "▁forget": 5964,
      "▁tissues": 5965,
      "▁sport": 5966,
      "▁controvers": 5967,
      "zed": 5968,
      "▁approved": 5969,
      "▁chair": 5970,
      "▁governor": 5971,
      "▁criminal": 5972,
      "▁asthma": 5973,
      "▁sir": 5974,
      "rimination": 5975,
      "▁wasn": 5976,
      "▁in\n": 5977,
      "▁accuracy": 5978,
      "▁forg": 5979,
      "▁removal": 5980,
      "town": 5981,
      "▁photos": 5982,
      "scale": 5983,
      "▁ille": 5984,
      "▁covers": 5985,
      "▁trouble": 5986,
      "▁steam": 5987,
      "▁estimate": 5988,
      "trans": 5989,
      "▁holds": 5990,
      "▁tube": 5991,
      "▁glucose": 5992,
      "▁jump": 5993,
      "▁pregnant": 5994,
      "abul": 5995,
      "ediatric": 5996,
      "▁galax": 5997,
      "▁ga": 5998,
      "▁identification": 5999,
      "▁learners": 6000,
      "▁destruction": 6001,
      "▁slavery": 6002,
      "▁proof": 6003,
      "▁negot": 6004,
      "▁artist": 6005,
      "▁sacr": 6006,
      "▁receiving": 6007,
      "▁mol": 6008,
      "▁officers": 6009,
      "▁thank": 6010,
      "▁variables": 6011,
      "▁forth": 6012,
      "▁metabol": 6013,
      "▁communications": 6014,
      "▁damaged": 6015,
      "▁discrimination": 6016,
      "▁theories": 6017,
      "▁score": 6018,
      "▁fost": 6019,
      "thro": 6020,
      "urt": 6021,
      "▁architect": 6022,
      "▁tons": 6023,
      "▁italian": 6024,
      "ighter": 6025,
      "▁vib": 6026,
      "▁weapons": 6027,
      "▁wound": 6028,
      "▁distributed": 6029,
      "▁flower": 6030,
      "pto": 6031,
      "ritis": 6032,
      "▁switch": 6033,
      "▁meters": 6034,
      "icate": 6035,
      "▁abnormal": 6036,
      "▁asking": 6037,
      "▁rocks": 6038,
      "▁cleaning": 6039,
      "▁grid": 6040,
      "▁ov": 6041,
      "▁schedule": 6042,
      "▁hazard": 6043,
      "▁organs": 6044,
      "▁drawn": 6045,
      "standing": 6046,
      "sis": 6047,
      "▁updated": 6048,
      "tens": 6049,
      "▁screening": 6050,
      "▁manual": 6051,
      "▁definite": 6052,
      "igan": 6053,
      "▁conversation": 6054,
      "▁fulf": 6055,
      "▁outer": 6056,
      "▁committed": 6057,
      "aching": 6058,
      "▁reci": 6059,
      "umps": 6060,
      "▁wheel": 6061,
      "▁installed": 6062,
      "▁uncertain": 6063,
      "▁regulation": 6064,
      "▁quarter": 6065,
      "▁conven": 6066,
      "▁aband": 6067,
      "▁roles": 6068,
      "akers": 6069,
      "▁nervous": 6070,
      "▁prohib": 6071,
      "▁accoun": 6072,
      "▁brings": 6073,
      "▁worry": 6074,
      "▁treating": 6075,
      "▁subsequent": 6076,
      "▁succeed": 6077,
      "▁officer": 6078,
      "▁aids": 6079,
      "▁monu": 6080,
      "ressive": 6081,
      "▁wars": 6082,
      "▁spectrum": 6083,
      "▁investigation": 6084,
      "▁intense": 6085,
      "▁drain": 6086,
      "contro": 6087,
      "▁calories": 6088,
      "▁formula": 6089,
      "iah": 6090,
      "▁hind": 6091,
      "▁item": 6092,
      "▁healing": 6093,
      "▁indians": 6094,
      "▁launch": 6095,
      "▁indicated": 6096,
      "▁manager": 6097,
      "▁combat": 6098,
      "▁enemy": 6099,
      "▁surprising": 6100,
      "outs": 6101,
      "▁runs": 6102,
      "▁constructed": 6103,
      "▁gradually": 6104,
      "▁angle": 6105,
      "▁printing": 6106,
      "▁agreed": 6107,
      "▁disabilities": 6108,
      "▁plenty": 6109,
      "▁surfaces": 6110,
      "▁somewhat": 6111,
      "gical": 6112,
      "▁irr": 6113,
      "▁martin": 6114,
      "oral": 6115,
      "▁amazing": 6116,
      "▁gent": 6117,
      "▁loved": 6118,
      "▁ow": 6119,
      "▁outcome": 6120,
      "▁sund": 6121,
      "▁agents": 6122,
      "▁pel": 6123,
      "▁ended": 6124,
      "▁ingredients": 6125,
      "dd": 6126,
      "class": 6127,
      "pdf": 6128,
      "▁parallel": 6129,
      "▁mineral": 6130,
      "▁designs": 6131,
      "▁dietary": 6132,
      "ano": 6133,
      "▁hal": 6134,
      "▁cooking": 6135,
      "▁emper": 6136,
      "aur": 6137,
      "▁structural": 6138,
      "gram": 6139,
      "▁polar": 6140,
      "▁informed": 6141,
      "▁effectiveness": 6142,
      "▁nose": 6143,
      "▁irish": 6144,
      "▁facing": 6145,
      "cin": 6146,
      "▁overl": 6147,
      "▁constantly": 6148,
      "such": 6149,
      "▁careful": 6150,
      "▁colonial": 6151,
      "▁pc": 6152,
      "chen": 6153,
      "▁clothing": 6154,
      "▁identifying": 6155,
      "paper": 6156,
      "▁province": 6157,
      "▁filter": 6158,
      "▁irrit": 6159,
      "idity": 6160,
      "▁pestic": 6161,
      "▁strongly": 6162,
      "▁defect": 6163,
      "▁dollars": 6164,
      "▁orbit": 6165,
      "▁deploy": 6166,
      "vol": 6167,
      "▁bringing": 6168,
      "▁radical": 6169,
      "▁teams": 6170,
      "▁theme": 6171,
      "▁imaging": 6172,
      "agn": 6173,
      "▁enforce": 6174,
      "▁entered": 6175,
      "▁mine": 6176,
      "▁terror": 6177,
      "▁heating": 6178,
      "▁proportion": 6179,
      "▁wine": 6180,
      "▁declared": 6181,
      "▁peoples": 6182,
      "▁cel": 6183,
      "▁favorite": 6184,
      "▁nitrogen": 6185,
      "▁atlantic": 6186,
      "amins": 6187,
      "▁respectively": 6188,
      "▁gam": 6189,
      "▁dischar": 6190,
      "▁announced": 6191,
      "▁writers": 6192,
      "icious": 6193,
      "tong": 6194,
      "ulty": 6195,
      "▁managing": 6196,
      "▁incred": 6197,
      "▁cash": 6198,
      "antly": 6199,
      "▁jun": 6200,
      "ih": 6201,
      "▁composed": 6202,
      "▁strict": 6203,
      "▁intest": 6204,
      "▁substit": 6205,
      "▁rarely": 6206,
      "▁rely": 6207,
      "▁bomb": 6208,
      "▁racial": 6209,
      "▁interpretation": 6210,
      "▁ot": 6211,
      "▁husband": 6212,
      "omin": 6213,
      "▁fishing": 6214,
      "▁reject": 6215,
      "▁dynamic": 6216,
      "▁owner": 6217,
      "▁influenced": 6218,
      "▁arrest": 6219,
      "▁antio": 6220,
      "▁laser": 6221,
      "▁dose": 6222,
      "▁escape": 6223,
      "▁measuring": 6224,
      "▁tip": 6225,
      "▁turb": 6226,
      "▁labour": 6227,
      "▁modified": 6228,
      "tact": 6229,
      "▁messages": 6230,
      "▁desert": 6231,
      "oh": 6232,
      "▁evil": 6233,
      "onom": 6234,
      "▁md": 6235,
      "▁listening": 6236,
      "mony": 6237,
      "▁bath": 6238,
      "▁dealing": 6239,
      "▁serving": 6240,
      "▁tv": 6241,
      "▁shapes": 6242,
      "acing": 6243,
      "▁gramm": 6244,
      "▁translation": 6245,
      "▁counsel": 6246,
      "abulary": 6247,
      "▁pounds": 6248,
      "▁gh": 6249,
      "▁engaged": 6250,
      "▁teles": 6251,
      "▁giant": 6252,
      "▁roads": 6253,
      "inson": 6254,
      "▁lakes": 6255,
      "oms": 6256,
      "▁elder": 6257,
      "▁dependent": 6258,
      "▁buff": 6259,
      "iration": 6260,
      "▁interpre": 6261,
      "igue": 6262,
      "▁asp": 6263,
      "▁attempts": 6264,
      "example": 6265,
      "▁naz": 6266,
      "▁proven": 6267,
      "nut": 6268,
      "▁hunting": 6269,
      "▁ram": 6270,
      "▁girl": 6271,
      "▁asian": 6272,
      "▁realize": 6273,
      "tent": 6274,
      "▁lights": 6275,
      "rad": 6276,
      "▁lip": 6277,
      "▁empt": 6278,
      "▁desired": 6279,
      "▁television": 6280,
      "▁equally": 6281,
      "▁inherit": 6282,
      "▁robot": 6283,
      "▁wheat": 6284,
      "▁biod": 6285,
      "▁democracy": 6286,
      "▁behavioral": 6287,
      "▁haw": 6288,
      "▁parad": 6289,
      "▁dim": 6290,
      "▁hormone": 6291,
      "▁seemed": 6292,
      "▁varieties": 6293,
      "▁ministry": 6294,
      "▁breed": 6295,
      "▁aims": 6296,
      "▁complicated": 6297,
      "▁tab": 6298,
      "▁soul": 6299,
      "▁sought": 6300,
      "▁compound": 6301,
      "▁plot": 6302,
      "▁dance": 6303,
      "▁merely": 6304,
      "▁concerning": 6305,
      "▁ric": 6306,
      "▁passing": 6307,
      "▁carrying": 6308,
      "forest": 6309,
      "▁paint": 6310,
      "▁viet": 6311,
      "ude": 6312,
      "▁joy": 6313,
      "▁saint": 6314,
      "▁grain": 6315,
      "▁roughly": 6316,
      "▁secretary": 6317,
      "▁encycl": 6318,
      "▁treaty": 6319,
      "▁oxford": 6320,
      "apse": 6321,
      "vin": 6322,
      "▁reward": 6323,
      "▁maintained": 6324,
      "▁captured": 6325,
      "▁physician": 6326,
      "▁cotton": 6327,
      "tables": 6328,
      "▁ensuring": 6329,
      "▁errors": 6330,
      "▁mixt": 6331,
      "▁mold": 6332,
      "▁stronger": 6333,
      "▁pak": 6334,
      "▁slave": 6335,
      "was": 6336,
      "▁jac": 6337,
      "print": 6338,
      "▁interactive": 6339,
      "astro": 6340,
      "▁superior": 6341,
      "▁cow": 6342,
      "▁complications": 6343,
      "▁bless": 6344,
      "▁christmas": 6345,
      "▁mount": 6346,
      "▁ree": 6347,
      "▁bron": 6348,
      "▁observe": 6349,
      "▁decor": 6350,
      "▁branches": 6351,
      "▁phenomenon": 6352,
      "▁moves": 6353,
      "▁newly": 6354,
      "▁orange": 6355,
      "▁difficulties": 6356,
      "▁objectives": 6357,
      "american": 6358,
      "▁ell": 6359,
      "▁rit": 6360,
      "▁marks": 6361,
      "▁absence": 6362,
      "ivered": 6363,
      "phic": 6364,
      "▁videos": 6365,
      "▁surge": 6366,
      "▁presents": 6367,
      "▁decreased": 6368,
      "▁flour": 6369,
      "▁beings": 6370,
      "▁deeper": 6371,
      "▁implemented": 6372,
      "▁vocabulary": 6373,
      "heric": 6374,
      "▁threats": 6375,
      "▁planned": 6376,
      "bacco": 6377,
      "▁hu": 6378,
      "▁compens": 6379,
      "▁confirmed": 6380,
      "▁jur": 6381,
      "igate": 6382,
      "▁affairs": 6383,
      "▁corner": 6384,
      "▁printed": 6385,
      "▁atta": 6386,
      "▁split": 6387,
      "▁protecting": 6388,
      "▁seconds": 6389,
      "▁considerable": 6390,
      "▁references": 6391,
      "▁computing": 6392,
      "▁signed": 6393,
      "▁bees": 6394,
      "press": 6395,
      "▁hang": 6396,
      "ey": 6397,
      "▁drought": 6398,
      "effect": 6399,
      "▁thermal": 6400,
      "▁assume": 6401,
      "▁comfortable": 6402,
      "▁beach": 6403,
      "mont": 6404,
      "▁sevent": 6405,
      "▁eliminate": 6406,
      "▁potat": 6407,
      "▁census": 6408,
      "itals": 6409,
      "▁tong": 6410,
      "▁classical": 6411,
      "▁provider": 6412,
      "thentic": 6413,
      "▁row": 6414,
      "tail": 6415,
      "▁focuses": 6416,
      "▁minute": 6417,
      "▁astronom": 6418,
      "▁jack": 6419,
      "▁opposed": 6420,
      "▁kilomet": 6421,
      "▁fairly": 6422,
      "▁stability": 6423,
      "▁unusual": 6424,
      "▁lee": 6425,
      "▁cann": 6426,
      "▁pla": 6427,
      "▁variation": 6428,
      "▁sel": 6429,
      "▁encouraged": 6430,
      "world": 6431,
      "hd": 6432,
      "▁quantum": 6433,
      "▁prominent": 6434,
      "▁heaven": 6435,
      "▁sustainability": 6436,
      "▁defend": 6437,
      "▁inqu": 6438,
      "▁targets": 6439,
      "▁exploration": 6440,
      "▁traditions": 6441,
      "olving": 6442,
      "rin": 6443,
      "pling": 6444,
      "▁migration": 6445,
      "▁magazine": 6446,
      "▁golden": 6447,
      "▁interior": 6448,
      "rating": 6449,
      "oon": 6450,
      "▁serves": 6451,
      "▁bacterial": 6452,
      "▁cattle": 6453,
      "▁economics": 6454,
      "▁lam": 6455,
      "aked": 6456,
      "▁observation": 6457,
      "▁treas": 6458,
      "aska": 6459,
      "▁array": 6460,
      "▁characterized": 6461,
      "▁dates": 6462,
      "▁bull": 6463,
      "asty": 6464,
      "▁plane": 6465,
      "▁neighborhood": 6466,
      "▁jul": 6467,
      "▁encyclop": 6468,
      "▁reserve": 6469,
      "▁antibiotics": 6470,
      "▁stead": 6471,
      "iated": 6472,
      "olit": 6473,
      "▁planting": 6474,
      "▁trigger": 6475,
      "fts": 6476,
      "▁alter": 6477,
      "▁plas": 6478,
      "▁player": 6479,
      "ommod": 6480,
      "oston": 6481,
      "▁vitamins": 6482,
      "▁delivered": 6483,
      "▁wisdom": 6484,
      "▁pediatric": 6485,
      "▁educators": 6486,
      "▁disability": 6487,
      "▁accommod": 6488,
      "▁biodiversity": 6489,
      "▁agent": 6490,
      "▁besides": 6491,
      "▁sitting": 6492,
      "▁finger": 6493,
      "▁myst": 6494,
      "▁tobacco": 6495,
      "▁parag": 6496,
      "▁contents": 6497,
      "▁trail": 6498,
      "▁faced": 6499,
      "▁substantial": 6500,
      "mann": 6501,
      "▁inspired": 6502,
      "▁swed": 6503,
      "▁zealand": 6504,
      "▁tables": 6505,
      "▁consideration": 6506,
      "▁personality": 6507,
      "▁statements": 6508,
      "▁worship": 6509,
      "holds": 6510,
      "▁mosquit": 6511,
      "yn": 6512,
      "▁gained": 6513,
      "mental": 6514,
      "▁intent": 6515,
      "▁fellow": 6516,
      "▁johnson": 6517,
      "▁los": 6518,
      "▁uniform": 6519,
      "▁disrupt": 6520,
      "▁stuff": 6521,
      "▁musical": 6522,
      "▁reporting": 6523,
      "▁holes": 6524,
      "▁innovative": 6525,
      "▁coverage": 6526,
      "▁hidden": 6527,
      "▁beat": 6528,
      "▁enterpr": 6529,
      "fri": 6530,
      "ette": 6531,
      "▁abstract": 6532,
      "▁navy": 6533,
      "heimer": 6534,
      "kers": 6535,
      "▁claimed": 6536,
      "▁laid": 6537,
      "inter": 6538,
      "▁audio": 6539,
      "▁associate": 6540,
      "▁moderate": 6541,
      "▁mathematical": 6542,
      "▁exception": 6543,
      "▁recover": 6544,
      "coming": 6545,
      "ymph": 6546,
      "▁slaves": 6547,
      "ails": 6548,
      "▁stations": 6549,
      "ruption": 6550,
      "▁elected": 6551,
      "▁degra": 6552,
      "▁diameter": 6553,
      "abil": 6554,
      "▁ecological": 6555,
      "▁sunlight": 6556,
      "▁herb": 6557,
      "▁driven": 6558,
      "▁compost": 6559,
      "▁luck": 6560,
      "xid": 6561,
      "▁replic": 6562,
      "▁consume": 6563,
      "▁bigger": 6564,
      "▁proved": 6565,
      "▁heads": 6566,
      "oir": 6567,
      "▁nice": 6568,
      "▁spat": 6569,
      "▁interface": 6570,
      "▁demands": 6571,
      "▁authentic": 6572,
      "▁divine": 6573,
      "iovascular": 6574,
      "lu": 6575,
      "list": 6576,
      "▁adolesc": 6577,
      "▁gate": 6578,
      "▁driver": 6579,
      "▁anywhere": 6580,
      "ptic": 6581,
      "▁jeff": 6582,
      "iana": 6583,
      "ilation": 6584,
      "ostic": 6585,
      "▁examined": 6586,
      "▁finished": 6587,
      "▁throw": 6588,
      "▁tox": 6589,
      "▁geomet": 6590,
      "▁customer": 6591,
      "▁nevertheless": 6592,
      "parent": 6593,
      "▁password": 6594,
      "alog": 6595,
      "▁remed": 6596,
      "▁happening": 6597,
      "▁overview": 6598,
      "ipedia": 6599,
      "▁brows": 6600,
      "▁intensity": 6601,
      "▁stores": 6602,
      "▁bish": 6603,
      "▁protective": 6604,
      "▁providers": 6605,
      "▁perception": 6606,
      "▁rod": 6607,
      "ylv": 6608,
      "▁assigned": 6609,
      "rial": 6610,
      "▁marketing": 6611,
      "▁manufacturers": 6612,
      "▁settlement": 6613,
      "▁client": 6614,
      "▁usual": 6615,
      "tick": 6616,
      "▁isolated": 6617,
      "▁clay": 6618,
      "▁logic": 6619,
      "▁wash": 6620,
      "▁withdra": 6621,
      "▁commitment": 6622,
      "▁technological": 6623,
      "▁integration": 6624,
      "ounce": 6625,
      "▁sum": 6626,
      "▁earliest": 6627,
      "▁fert": 6628,
      "haust": 6629,
      "▁stake": 6630,
      "▁exped": 6631,
      "▁productivity": 6632,
      "itter": 6633,
      "▁emperor": 6634,
      "airy": 6635,
      "▁abdom": 6636,
      "▁poem": 6637,
      "▁phy": 6638,
      "▁cardiovascular": 6639,
      "▁fatty": 6640,
      "▁strain": 6641,
      "medi": 6642,
      "▁chat": 6643,
      "▁cart": 6644,
      "iate": 6645,
      "▁columbia": 6646,
      "books": 6647,
      "▁adds": 6648,
      "▁granted": 6649,
      "▁rational": 6650,
      "▁representation": 6651,
      "▁detected": 6652,
      "▁adverse": 6653,
      "rid": 6654,
      "emia": 6655,
      "▁wil": 6656,
      "▁contribution": 6657,
      "▁thro": 6658,
      "till": 6659,
      "auth": 6660,
      "▁supplements": 6661,
      "▁flying": 6662,
      "rape": 6663,
      "▁processed": 6664,
      "▁cooling": 6665,
      "sl": 6666,
      "▁hardware": 6667,
      "▁towns": 6668,
      "▁elementary": 6669,
      "▁suffered": 6670,
      "ading": 6671,
      "▁hybr": 6672,
      "▁emphasis": 6673,
      "▁evolved": 6674,
      "▁ohio": 6675,
      "coln": 6676,
      "cond": 6677,
      "▁perm": 6678,
      "▁correctly": 6679,
      "▁ordered": 6680,
      "▁caught": 6681,
      "ifth": 6682,
      "▁conj": 6683,
      "arn": 6684,
      "▁conce": 6685,
      "▁farms": 6686,
      "▁sensitivity": 6687,
      "ricts": 6688,
      "▁poetry": 6689,
      "▁availability": 6690,
      "▁preserve": 6691,
      "▁literary": 6692,
      "▁trauma": 6693,
      "▁taxes": 6694,
      "otes": 6695,
      "▁imperial": 6696,
      "▁meals": 6697,
      "▁recycling": 6698,
      "▁pakistan": 6699,
      "▁engaging": 6700,
      "▁heavily": 6701,
      "sell": 6702,
      "▁linear": 6703,
      "▁pad": 6704,
      "▁overcome": 6705,
      "▁suscept": 6706,
      "▁emerging": 6707,
      "▁ampl": 6708,
      "▁duty": 6709,
      "▁experiencing": 6710,
      "▁ethical": 6711,
      "▁soph": 6712,
      "▁abilities": 6713,
      "▁genome": 6714,
      "▁analyze": 6715,
      "▁vertical": 6716,
      "▁sensors": 6717,
      "▁reaching": 6718,
      "hread": 6719,
      "▁christians": 6720,
      "▁eliz": 6721,
      "▁promoting": 6722,
      "▁cha": 6723,
      "▁confident": 6724,
      "▁boston": 6725,
      "ultane": 6726,
      "olate": 6727,
      "▁inequ": 6728,
      "▁canal": 6729,
      "▁interventions": 6730,
      "▁choosing": 6731,
      "▁narrative": 6732,
      "▁nutrient": 6733,
      "▁iran": 6734,
      "▁antioxid": 6735,
      "thread": 6736,
      "▁az": 6737,
      "mans": 6738,
      "▁stan": 6739,
      "html": 6740,
      "▁dress": 6741,
      "▁embra": 6742,
      "▁addiction": 6743,
      "▁courts": 6744,
      "cut": 6745,
      "▁worst": 6746,
      "▁vaccines": 6747,
      "▁psychiat": 6748,
      "▁uncom": 6749,
      "▁overw": 6750,
      "▁descript": 6751,
      "▁parks": 6752,
      "▁shock": 6753,
      "▁profit": 6754,
      "▁flash": 6755,
      "▁stones": 6756,
      "▁achievement": 6757,
      "▁propag": 6758,
      "▁manifest": 6759,
      "htt": 6760,
      "elfare": 6761,
      "▁resid": 6762,
      "bir": 6763,
      "▁extend": 6764,
      "▁arctic": 6765,
      "▁register": 6766,
      "▁reconst": 6767,
      "▁recre": 6768,
      "▁simultane": 6769,
      "aret": 6770,
      "▁acquired": 6771,
      "▁municip": 6772,
      "▁finds": 6773,
      "▁rhe": 6774,
      "ylvania": 6775,
      "▁boat": 6776,
      "len": 6777,
      "including": 6778,
      "▁reveal": 6779,
      "▁decay": 6780,
      "century": 6781,
      "▁hung": 6782,
      "▁viewed": 6783,
      "▁aged": 6784,
      "▁pale": 6785,
      "▁confed": 6786,
      "▁calling": 6787,
      "▁grows": 6788,
      "spec": 6789,
      "▁ker": 6790,
      "▁tribes": 6791,
      "▁salmon": 6792,
      "aded": 6793,
      "▁gardens": 6794,
      "▁sched": 6795,
      "ctures": 6796,
      "▁bang": 6797,
      "▁variations": 6798,
      "ho": 6799,
      "▁tract": 6800,
      "▁facebook": 6801,
      "▁nov": 6802,
      "▁lens": 6803,
      "▁basically": 6804,
      "▁carbo": 6805,
      "cor": 6806,
      "▁rhyt": 6807,
      "▁batteries": 6808,
      "▁deficiency": 6809,
      "▁equality": 6810,
      "kel": 6811,
      "▁confirm": 6812,
      "▁directed": 6813,
      "▁swit": 6814,
      "inating": 6815,
      "eff": 6816,
      "▁panels": 6817,
      "▁incident": 6818,
      "fol": 6819,
      "onds": 6820,
      "▁alz": 6821,
      "ala": 6822,
      "▁rect": 6823,
      "▁prospect": 6824,
      "▁relie": 6825,
      "▁humanity": 6826,
      "▁spray": 6827,
      "▁unw": 6828,
      "▁cure": 6829,
      "▁assets": 6830,
      "▁parameters": 6831,
      "▁tick": 6832,
      "orig": 6833,
      "▁orders": 6834,
      "angered": 6835,
      "▁lob": 6836,
      "▁gly": 6837,
      "▁enorm": 6838,
      "▁weakness": 6839,
      "▁functioning": 6840,
      "▁ion": 6841,
      "▁exhaust": 6842,
      "▁kings": 6843,
      "▁tens": 6844,
      "▁flows": 6845,
      "▁pilot": 6846,
      "▁covering": 6847,
      "ja": 6848,
      "▁acres": 6849,
      "high": 6850,
      "▁writes": 6851,
      "▁strategic": 6852,
      "▁comprom": 6853,
      "▁scores": 6854,
      "cd": 6855,
      "rays": 6856,
      "▁chances": 6857,
      "▁sensor": 6858,
      "▁inhabit": 6859,
      "▁concluded": 6860,
      "▁mothers": 6861,
      "▁universities": 6862,
      "▁quantity": 6863,
      "▁applying": 6864,
      "enger": 6865,
      "▁dimens": 6866,
      "▁posted": 6867,
      "▁affecting": 6868,
      "etts": 6869,
      "onym": 6870,
      "▁concentrations": 6871,
      "▁lincoln": 6872,
      "▁welfare": 6873,
      "▁contributed": 6874,
      "▁tower": 6875,
      "▁societies": 6876,
      "ansas": 6877,
      "▁apparently": 6878,
      "▁cul": 6879,
      "▁equation": 6880,
      "▁occurring": 6881,
      "▁provin": 6882,
      "▁introduce": 6883,
      "▁origins": 6884,
      "ieval": 6885,
      "fir": 6886,
      "▁sodium": 6887,
      "tally": 6888,
      "tone": 6889,
      "▁hay": 6890,
      "▁falling": 6891,
      "▁researcher": 6892,
      "▁oldest": 6893,
      "▁automatically": 6894,
      "▁aging": 6895,
      "▁shoot": 6896,
      "▁attain": 6897,
      "▁enables": 6898,
      "▁entertain": 6899,
      "▁tumor": 6900,
      "▁gases": 6901,
      "▁threatened": 6902,
      "▁ira": 6903,
      "▁resil": 6904,
      "▁doct": 6905,
      "after": 6906,
      "iture": 6907,
      "oured": 6908,
      "▁ft": 6909,
      "▁haven": 6910,
      "kind": 6911,
      "▁rank": 6912,
      "▁fet": 6913,
      "sts": 6914,
      "aa": 6915,
      "▁scotland": 6916,
      "▁ritual": 6917,
      "rane": 6918,
      "▁neutral": 6919,
      "fr": 6920,
      "▁scope": 6921,
      "▁hebre": 6922,
      "ained": 6923,
      "▁accessed": 6924,
      "▁rac": 6925,
      "who": 6926,
      "▁opposition": 6927,
      "▁edward": 6928,
      "▁dairy": 6929,
      "▁por": 6930,
      "▁ordinary": 6931,
      "▁subsc": 6932,
      "nas": 6933,
      "▁forming": 6934,
      "▁attach": 6935,
      "▁neu": 6936,
      "▁penns": 6937,
      "holders": 6938,
      "▁sacred": 6939,
      "▁grades": 6940,
      "▁bush": 6941,
      "▁determining": 6942,
      "▁addressed": 6943,
      "▁mercury": 6944,
      "▁focusing": 6945,
      "▁infants": 6946,
      "▁directions": 6947,
      "illa": 6948,
      "▁overwhel": 6949,
      "▁restoration": 6950,
      "psy": 6951,
      "just": 6952,
      "▁consciousness": 6953,
      "▁oste": 6954,
      "▁planets": 6955,
      "▁smell": 6956,
      "▁tam": 6957,
      "▁anthrop": 6958,
      "▁performing": 6959,
      "▁cooperation": 6960,
      "▁armed": 6961,
      "▁flexible": 6962,
      "▁button": 6963,
      "▁illegal": 6964,
      "▁reverse": 6965,
      "bec": 6966,
      "▁phrase": 6967,
      "▁permission": 6968,
      "▁killing": 6969,
      "▁boundaries": 6970,
      "▁georgia": 6971,
      "icing": 6972,
      "pm": 6973,
      "▁fatigue": 6974,
      "▁improvements": 6975,
      "pres": 6976,
      "▁marsh": 6977,
      "▁testament": 6978,
      "▁thereby": 6979,
      "▁removing": 6980,
      "▁gods": 6981,
      "▁duration": 6982,
      "▁peer": 6983,
      "▁alzheimer": 6984,
      "▁declar": 6985,
      "▁websites": 6986,
      "ums": 6987,
      "▁pill": 6988,
      "▁lap": 6989,
      "▁exploring": 6990,
      "▁lists": 6991,
      "ee": 6992,
      "itarian": 6993,
      "umber": 6994,
      "▁characteristic": 6995,
      "▁dil": 6996,
      "▁endangered": 6997,
      "▁sizes": 6998,
      "▁preced": 6999,
      "▁mixture": 7000,
      "vit": 7001,
      "mia": 7002,
      "▁urine": 7003,
      "olar": 7004,
      "str": 7005,
      "achus": 7006,
      "▁cambridge": 7007,
      "▁sor": 7008,
      "copy": 7009,
      "▁glac": 7010,
      "ysis": 7011,
      "izz": 7012,
      "pub": 7013,
      "usalem": 7014,
      "▁crew": 7015,
      "▁creek": 7016,
      "▁evening": 7017,
      "▁michigan": 7018,
      "abeth": 7019,
      "▁twel": 7020,
      "▁metals": 7021,
      "▁vegetation": 7022,
      "▁pandemic": 7023,
      "▁streets": 7024,
      "logy": 7025,
      "▁colony": 7026,
      "▁gray": 7027,
      "▁argue": 7028,
      "▁gif": 7029,
      "▁elsewhere": 7030,
      "▁lighting": 7031,
      "▁mete": 7032,
      "ols": 7033,
      "jection": 7034,
      "▁pione": 7035,
      "tang": 7036,
      "▁hygi": 7037,
      "uten": 7038,
      "▁exhibit": 7039,
      "▁intra": 7040,
      "▁colonies": 7041,
      "▁ease": 7042,
      "▁nutritional": 7043,
      "▁drivers": 7044,
      "▁losses": 7045,
      "▁expanded": 7046,
      "▁fats": 7047,
      "▁publis": 7048,
      "▁graduate": 7049,
      "athered": 7050,
      "▁sons": 7051,
      "▁alive": 7052,
      "▁crown": 7053,
      "▁recall": 7054,
      "unt": 7055,
      "▁grains": 7056,
      "▁temporary": 7057,
      "▁tech": 7058,
      "▁statistical": 7059,
      "rend": 7060,
      "▁profile": 7061,
      "ulating": 7062,
      "osph": 7063,
      "soft": 7064,
      "▁emotion": 7065,
      "▁versions": 7066,
      "▁shore": 7067,
      "box": 7068,
      "▁saving": 7069,
      "▁fuels": 7070,
      "cho": 7071,
      "ref": 7072,
      "▁clock": 7073,
      "▁separated": 7074,
      "▁medieval": 7075,
      "pled": 7076,
      "▁regarded": 7077,
      "hou": 7078,
      "ped": 7079,
      "▁continuing": 7080,
      "▁expectations": 7081,
      "employ": 7082,
      "▁hi": 7083,
      "▁hurric": 7084,
      "iological": 7085,
      "▁ecosystems": 7086,
      "▁dies": 7087,
      "▁oxid": 7088,
      "wan": 7089,
      "▁appointed": 7090,
      "▁gravity": 7091,
      "▁establishment": 7092,
      "▁triang": 7093,
      "▁styles": 7094,
      "ket": 7095,
      "▁capabilities": 7096,
      "▁creatures": 7097,
      "▁castle": 7098,
      "ographical": 7099,
      "▁ny": 7100,
      "▁bac": 7101,
      "▁thread": 7102,
      "ctu": 7103,
      "▁privacy": 7104,
      "lines": 7105,
      "fection": 7106,
      "▁wing": 7107,
      "child": 7108,
      "ancing": 7109,
      "▁alt": 7110,
      "▁whenever": 7111,
      "▁aside": 7112,
      "▁bapt": 7113,
      "▁scul": 7114,
      "▁buried": 7115,
      "▁watching": 7116,
      "▁chron": 7117,
      "fast": 7118,
      "▁korea": 7119,
      "▁exciting": 7120,
      "▁unex": 7121,
      "onal": 7122,
      "cus": 7123,
      "▁aimed": 7124,
      "▁ster": 7125,
      "▁som": 7126,
      "▁pennsylvania": 7127,
      "▁priority": 7128,
      "▁dipl": 7129,
      "▁consumed": 7130,
      "▁oct": 7131,
      "onto": 7132,
      "ders": 7133,
      "▁lungs": 7134,
      "adel": 7135,
      "▁engagement": 7136,
      "▁prayer": 7137,
      "▁minds": 7138,
      "▁faculty": 7139,
      "green": 7140,
      "▁dutch": 7141,
      "▁assistant": 7142,
      "▁attitude": 7143,
      "▁corresponding": 7144,
      "▁waiting": 7145,
      "▁tempor": 7146,
      "▁palest": 7147,
      "▁calculated": 7148,
      "▁representative": 7149,
      "▁passion": 7150,
      "▁container": 7151,
      "▁jerusalem": 7152,
      "rapeut": 7153,
      "▁dc": 7154,
      "▁paragraph": 7155,
      "▁lifet": 7156,
      "▁arguments": 7157,
      "▁visited": 7158,
      "apor": 7159,
      "▁vice": 7160,
      "▁chamber": 7161,
      "ptions": 7162,
      "▁mouse": 7163,
      "▁quiet": 7164,
      "▁raising": 7165,
      "▁contributions": 7166,
      "▁sentences": 7167,
      "otherapy": 7168,
      "▁till": 7169,
      "▁digestive": 7170,
      "▁fifth": 7171,
      "ali": 7172,
      "▁mcc": 7173,
      "ribe": 7174,
      "▁colorado": 7175,
      "▁wonderful": 7176,
      "▁districts": 7177,
      "▁anat": 7178,
      "▁license": 7179,
      "▁faces": 7180,
      "▁insect": 7181,
      "▁evident": 7182,
      "iva": 7183,
      "▁dramatic": 7184,
      "▁accord": 7185,
      "▁charged": 7186,
      "▁balanced": 7187,
      "neys": 7188,
      "▁recon": 7189,
      "▁classic": 7190,
      "▁physically": 7191,
      "achusetts": 7192,
      "▁wise": 7193,
      "itory": 7194,
      "▁entr": 7195,
      "icy": 7196,
      "▁limitations": 7197,
      "▁cough": 7198,
      "cel": 7199,
      "iber": 7200,
      "▁pyt": 7201,
      "▁sulf": 7202,
      "▁holiday": 7203,
      "▁wearing": 7204,
      "mn": 7205,
      "▁gulf": 7206,
      "▁fires": 7207,
      "▁atmospheric": 7208,
      "▁insights": 7209,
      "▁harder": 7210,
      "▁specialist": 7211,
      "▁restric": 7212,
      "▁transmit": 7213,
      "▁islamic": 7214,
      "▁anne": 7215,
      "▁scheme": 7216,
      "▁promise": 7217,
      "▁repeat": 7218,
      "▁handling": 7219,
      "▁cancers": 7220,
      "erted": 7221,
      "▁remarkable": 7222,
      "▁infant": 7223,
      "berry": 7224,
      "bered": 7225,
      "▁gran": 7226,
      "▁soy": 7227,
      "▁strike": 7228,
      "▁pine": 7229,
      "▁investigate": 7230,
      "orted": 7231,
      "▁keeps": 7232,
      "▁calend": 7233,
      "ua": 7234,
      "▁oz": 7235,
      "▁sculpt": 7236,
      "▁fault": 7237,
      "▁spinal": 7238,
      "▁rib": 7239,
      "▁hormones": 7240,
      "▁believes": 7241,
      "▁viral": 7242,
      "▁prevalence": 7243,
      "▁churches": 7244,
      "▁solving": 7245,
      "lings": 7246,
      "alities": 7247,
      "▁pointed": 7248,
      "▁dol": 7249,
      "▁movie": 7250,
      "▁stopped": 7251,
      "ocation": 7252,
      "▁newspaper": 7253,
      "▁globe": 7254,
      "▁module": 7255,
      "▁analog": 7256,
      "▁hypothesis": 7257,
      "▁eru": 7258,
      "foot": 7259,
      "tack": 7260,
      "▁fortun": 7261,
      "▁shed": 7262,
      "any": 7263,
      "▁membrane": 7264,
      "▁telling": 7265,
      "▁losing": 7266,
      "▁surgical": 7267,
      "archy": 7268,
      "▁preferred": 7269,
      "jan": 7270,
      "tex": 7271,
      "teenth": 7272,
      "▁acting": 7273,
      "▁representatives": 7274,
      "▁owned": 7275,
      "▁barrier": 7276,
      "▁carri": 7277,
      "▁captain": 7278,
      "chain": 7279,
      "ocking": 7280,
      "tics": 7281,
      "▁hospitals": 7282,
      "▁trace": 7283,
      "▁recru": 7284,
      "▁massachusetts": 7285,
      "▁medicines": 7286,
      "▁gosp": 7287,
      "oli": 7288,
      "▁reasonable": 7289,
      "▁households": 7290,
      "▁classification": 7291,
      "▁sab": 7292,
      "▁sna": 7293,
      "▁prey": 7294,
      "▁breaking": 7295,
      "▁hub": 7296,
      "▁embry": 7297,
      "▁empty": 7298,
      "▁underground": 7299,
      "ourage": 7300,
      "▁guess": 7301,
      "▁convert": 7302,
      "▁engines": 7303,
      "▁barriers": 7304,
      "▁spoken": 7305,
      "rey": 7306,
      "▁safely": 7307,
      "▁dun": 7308,
      "▁victory": 7309,
      "enza": 7310,
      "▁uncle": 7311,
      "▁finance": 7312,
      "▁pray": 7313,
      "dp": 7314,
      "eenth": 7315,
      "▁argued": 7316,
      "▁earn": 7317,
      "▁adapted": 7318,
      "▁strip": 7319,
      "▁turkey": 7320,
      "▁lowest": 7321,
      "▁lymph": 7322,
      "▁entering": 7323,
      "▁creativity": 7324,
      "advant": 7325,
      "▁epa": 7326,
      "ogenic": 7327,
      "uce": 7328,
      "▁developmental": 7329,
      "friend": 7330,
      "▁certific": 7331,
      "logical": 7332,
      "cre": 7333,
      "▁dominant": 7334,
      "ji": 7335,
      "rous": 7336,
      "▁nom": 7337,
      "▁bare": 7338,
      "▁advances": 7339,
      "▁basin": 7340,
      "▁tomat": 7341,
      "▁athe": 7342,
      "▁deeply": 7343,
      "▁classified": 7344,
      "▁symbols": 7345,
      "▁transc": 7346,
      "▁trick": 7347,
      "▁han": 7348,
      "section": 7349,
      "▁lecture": 7350,
      "▁targeted": 7351,
      "▁songs": 7352,
      "▁pets": 7353,
      "▁controlling": 7354,
      "▁clinic": 7355,
      "▁tact": 7356,
      "cat": 7357,
      "▁forecast": 7358,
      "▁vegetable": 7359,
      "▁preparing": 7360,
      "▁sessions": 7361,
      "▁probability": 7362,
      "▁occas": 7363,
      "▁powder": 7364,
      "▁circulation": 7365,
      "ourse": 7366,
      "zym": 7367,
      "▁saved": 7368,
      "▁spots": 7369,
      "▁optical": 7370,
      "▁dense": 7371,
      "orthy": 7372,
      "ation\n": 7373,
      "▁versus": 7374,
      "▁harvard": 7375,
      "▁calculate": 7376,
      "▁savings": 7377,
      "ami": 7378,
      "▁fought": 7379,
      "▁evolutionary": 7380,
      "▁verb": 7381,
      "▁weigh": 7382,
      "▁definitely": 7383,
      "▁virtually": 7384,
      "▁workplace": 7385,
      "▁lith": 7386,
      "▁beans": 7387,
      "▁friendly": 7388,
      "▁crus": 7389,
      "▁tack": 7390,
      "▁publishing": 7391,
      "▁choc": 7392,
      "▁infectious": 7393,
      "▁pdf": 7394,
      "▁christianity": 7395,
      "▁strengthe": 7396,
      "▁expertise": 7397,
      "asts": 7398,
      "ule": 7399,
      "▁sale": 7400,
      "▁reserved": 7401,
      "hire": 7402,
      "▁replacement": 7403,
      "ora": 7404,
      "▁collective": 7405,
      "▁ranging": 7406,
      "▁loose": 7407,
      "▁nursing": 7408,
      "▁winds": 7409,
      "▁wider": 7410,
      "▁orb": 7411,
      "owing": 7412,
      "fulness": 7413,
      "hea": 7414,
      "▁diarr": 7415,
      "▁perceived": 7416,
      "▁attitudes": 7417,
      "▁requirement": 7418,
      "▁lingu": 7419,
      "▁personnel": 7420,
      "▁bureau": 7421,
      "▁discussions": 7422,
      "▁reput": 7423,
      "▁settled": 7424,
      "▁folk": 7425,
      "▁disas": 7426,
      "zo": 7427,
      "▁ans": 7428,
      "▁elizabeth": 7429,
      "▁anticip": 7430,
      "▁eleph": 7431,
      "▁dism": 7432,
      "▁mature": 7433,
      "▁alexander": 7434,
      "▁wouldn": 7435,
      "▁clients": 7436,
      "▁jr": 7437,
      "▁arthritis": 7438,
      "quar": 7439,
      "▁chicken": 7440,
      "eries": 7441,
      "▁gear": 7442,
      "▁chris": 7443,
      "▁habitats": 7444,
      "▁prize": 7445,
      "ena": 7446,
      "bean": 7447,
      "idal": 7448,
      "▁tang": 7449,
      "▁optimal": 7450,
      "▁grounds": 7451,
      "▁celebrated": 7452,
      "▁teens": 7453,
      "▁specialized": 7454,
      "fa": 7455,
      "▁fan": 7456,
      "▁dub": 7457,
      "▁practition": 7458,
      "▁outdoor": 7459,
      "▁painful": 7460,
      "▁spatial": 7461,
      "▁compass": 7462,
      "▁rus": 7463,
      "▁radi": 7464,
      "▁clothes": 7465,
      "▁geographic": 7466,
      "▁cla": 7467,
      "▁trem": 7468,
      "▁update": 7469,
      "▁enormous": 7470,
      "▁addressing": 7471,
      "▁bun": 7472,
      "▁explicit": 7473,
      "pers": 7474,
      "▁bleeding": 7475,
      "rog": 7476,
      "▁photographs": 7477,
      "▁conversion": 7478,
      "▁ka": 7479,
      "▁engineer": 7480,
      "elect": 7481,
      "▁amendment": 7482,
      "▁daniel": 7483,
      "▁reign": 7484,
      "▁complexity": 7485,
      "rix": 7486,
      "▁wikipedia": 7487,
      "eland": 7488,
      "▁vig": 7489,
      "▁encyclopedia": 7490,
      "▁happiness": 7491,
      "▁suicide": 7492,
      "▁traits": 7493,
      "▁joints": 7494,
      "▁scat": 7495,
      "▁pope": 7496,
      "▁restaur": 7497,
      "▁assumed": 7498,
      "▁thyroid": 7499,
      "▁involvement": 7500,
      "etary": 7501,
      "▁francisco": 7502,
      "▁fred": 7503,
      "▁licens": 7504,
      "▁pace": 7505,
      "▁liberty": 7506,
      "rison": 7507,
      "▁occasionally": 7508,
      "▁sheep": 7509,
      "ori": 7510,
      "▁celebrate": 7511,
      "▁diagnostic": 7512,
      "▁abra": 7513,
      "▁facilitate": 7514,
      "acts": 7515,
      "▁violent": 7516,
      "▁bru": 7517,
      "▁obviously": 7518,
      "▁pupils": 7519,
      "gregation": 7520,
      "▁accounting": 7521,
      "mmet": 7522,
      "▁metap": 7523,
      "▁transmitted": 7524,
      "borne": 7525,
      "▁microbi": 7526,
      "▁hills": 7527,
      "▁livestock": 7528,
      "▁memorial": 7529,
      "▁cave": 7530,
      "requ": 7531,
      "▁differ": 7532,
      "gent": 7533,
      "▁conqu": 7534,
      "▁devast": 7535,
      "▁pod": 7536,
      "▁precip": 7537,
      "▁deer": 7538,
      "▁thirty": 7539,
      "▁juice": 7540,
      "▁actively": 7541,
      "cm": 7542,
      "▁disadvant": 7543,
      "▁feels": 7544,
      "imm": 7545,
      "▁corps": 7546,
      "▁strange": 7547,
      "▁entit": 7548,
      "▁lifetime": 7549,
      "▁acknowled": 7550,
      "▁liberal": 7551,
      "▁terr": 7552,
      "▁collections": 7553,
      "▁scenario": 7554,
      "▁complement": 7555,
      "▁differently": 7556,
      "▁shaped": 7557,
      "▁volunteers": 7558,
      "ople": 7559,
      "sex": 7560,
      "▁assignment": 7561,
      "▁therapeut": 7562,
      "▁grace": 7563,
      "▁iraq": 7564,
      "▁tone": 7565,
      "▁accompanied": 7566,
      "▁restore": 7567,
      "▁suddenly": 7568,
      "▁sunday": 7569,
      "▁meteor": 7570,
      "▁estate": 7571,
      "iny": 7572,
      "▁anger": 7573,
      "▁constra": 7574,
      "▁philosoph": 7575,
      "▁chromos": 7576,
      "▁lady": 7577,
      "▁publications": 7578,
      "▁festival": 7579,
      "▁gest": 7580,
      "▁drinks": 7581,
      "▁buck": 7582,
      "▁aggressive": 7583,
      "▁gift": 7584,
      "▁til": 7585,
      "bial": 7586,
      "▁crypto": 7587,
      "▁mira": 7588,
      "▁bet": 7589,
      "▁prophet": 7590,
      "▁salv": 7591,
      "power": 7592,
      "anted": 7593,
      "▁corporate": 7594,
      "▁opinions": 7595,
      "▁doub": 7596,
      "▁puzz": 7597,
      "▁converted": 7598,
      "▁recording": 7599,
      "omp": 7600,
      "▁dement": 7601,
      "ema": 7602,
      "▁caps": 7603,
      "▁meaningful": 7604,
      "▁atoms": 7605,
      "yr": 7606,
      "rol": 7607,
      "ranean": 7608,
      "▁cp": 7609,
      "wis": 7610,
      "western": 7611,
      "▁currency": 7612,
      "▁metabolism": 7613,
      "▁veloc": 7614,
      "neum": 7615,
      "▁cher": 7616,
      "▁outbreak": 7617,
      "▁max": 7618,
      "▁discipline": 7619,
      "▁returns": 7620,
      "▁resistant": 7621,
      "▁embed": 7622,
      "▁legend": 7623,
      "▁commons": 7624,
      "▁grammar": 7625,
      "night": 7626,
      "▁bears": 7627,
      "fin": 7628,
      "▁manus": 7629,
      "▁enthus": 7630,
      "▁alumin": 7631,
      "▁therm": 7632,
      "▁soils": 7633,
      "aints": 7634,
      "▁intim": 7635,
      "ng": 7636,
      "▁nick": 7637,
      "▁default": 7638,
      "▁intention": 7639,
      "▁immigrants": 7640,
      "▁senate": 7641,
      "ml": 7642,
      "▁genetics": 7643,
      "▁jacks": 7644,
      "▁neural": 7645,
      "ima": 7646,
      "▁priest": 7647,
      "▁ultimate": 7648,
      "figure": 7649,
      "di": 7650,
      "▁emerged": 7651,
      "▁registered": 7652,
      "▁revolutionary": 7653,
      "▁brothers": 7654,
      "▁amazon": 7655,
      "▁oak": 7656,
      "ipe": 7657,
      "▁myself": 7658,
      "▁revenue": 7659,
      "exp": 7660,
      "inting": 7661,
      "▁shorter": 7662,
      "▁meanwhile": 7663,
      "▁mammals": 7664,
      "▁regulatory": 7665,
      "made": 7666,
      "▁invention": 7667,
      "▁incent": 7668,
      "▁judgment": 7669,
      "lind": 7670,
      "▁oblig": 7671,
      "▁indirect": 7672,
      "▁sister": 7673,
      "▁seriously": 7674,
      "ucks": 7675,
      "▁buying": 7676,
      "▁suit": 7677,
      "inois": 7678,
      "▁cellular": 7679,
      "▁hybrid": 7680,
      "er\n": 7681,
      "▁begun": 7682,
      "eness": 7683,
      "▁cheap": 7684,
      "▁competitive": 7685,
      "▁minority": 7686,
      "▁workshop": 7687,
      "▁indones": 7688,
      "▁physicians": 7689,
      "▁mrs": 7690,
      "▁pink": 7691,
      "raine": 7692,
      "▁fing": 7693,
      "▁literally": 7694,
      "▁paying": 7695,
      "▁zo": 7696,
      "▁hebrew": 7697,
      "▁dynamics": 7698,
      "connect": 7699,
      "td": 7700,
      "▁cycl": 7701,
      "▁enzym": 7702,
      "▁funded": 7703,
      "▁privile": 7704,
      "erts": 7705,
      "▁citizen": 7706,
      "▁merch": 7707,
      "▁developments": 7708,
      "▁memor": 7709,
      "▁transplant": 7710,
      "specific": 7711,
      "▁il": 7712,
      "▁managers": 7713,
      "▁brus": 7714,
      "lymp": 7715,
      "▁debr": 7716,
      "▁declaration": 7717,
      "▁patri": 7718,
      "▁addresses": 7719,
      "▁athlet": 7720,
      "▁tension": 7721,
      "▁utility": 7722,
      "aws": 7723,
      "cia": 7724,
      "▁existed": 7725,
      "▁posts": 7726,
      "▁seal": 7727,
      "▁invasive": 7728,
      "▁mud": 7729,
      "▁earthquake": 7730,
      "ani": 7731,
      "hane": 7732,
      "▁frustr": 7733,
      "▁telescope": 7734,
      "▁minimal": 7735,
      "▁dramat": 7736,
      "▁hier": 7737,
      "working": 7738,
      "▁zones": 7739,
      "▁stood": 7740,
      "▁burden": 7741,
      "▁worker": 7742,
      "▁tongue": 7743,
      "▁bias": 7744,
      "▁readily": 7745,
      "▁stere": 7746,
      "▁establishing": 7747,
      "▁reproductive": 7748,
      "▁portug": 7749,
      "▁minimize": 7750,
      "▁motivation": 7751,
      "cule": 7752,
      "▁dimensions": 7753,
      "imp": 7754,
      "▁constitutional": 7755,
      "▁notion": 7756,
      "▁dict": 7757,
      "▁penet": 7758,
      "▁muslims": 7759,
      "▁everywhere": 7760,
      "▁logical": 7761,
      "▁purchased": 7762,
      "▁influences": 7763,
      "contin": 7764,
      "▁rehab": 7765,
      "person": 7766,
      "▁tes": 7767,
      "▁rating": 7768,
      "▁manuscript": 7769,
      "▁incidence": 7770,
      "hamm": 7771,
      "▁ethics": 7772,
      "▁theoretical": 7773,
      "▁cathe": 7774,
      "phia": 7775,
      "▁realized": 7776,
      "▁chose": 7777,
      "▁gathered": 7778,
      "▁hygiene": 7779,
      "▁curve": 7780,
      "▁initiatives": 7781,
      "▁spacecraft": 7782,
      "▁absorb": 7783,
      "▁enforcement": 7784,
      "▁systematic": 7785,
      "▁flexibility": 7786,
      "▁welcome": 7787,
      "▁particle": 7788,
      "▁dyn": 7789,
      "▁ears": 7790,
      "▁accurately": 7791,
      "▁ownership": 7792,
      "▁dementia": 7793,
      "about": 7794,
      "▁dating": 7795,
      "grade": 7796,
      "▁planted": 7797,
      "agan": 7798,
      "amine": 7799,
      "alty": 7800,
      "▁philipp": 7801,
      "worm": 7802,
      "▁payment": 7803,
      "▁enhanced": 7804,
      "▁kg": 7805,
      "vereign": 7806,
      "▁permit": 7807,
      "▁twelve": 7808,
      "oke": 7809,
      "▁neurons": 7810,
      "▁breaks": 7811,
      "▁phosph": 7812,
      "▁influenza": 7813,
      "▁varies": 7814,
      "▁occupied": 7815,
      "▁convin": 7816,
      "▁weekly": 7817,
      "▁specified": 7818,
      "▁enroll": 7819,
      "▁revers": 7820,
      "▁contributing": 7821,
      "urable": 7822,
      "▁representing": 7823,
      "▁railroad": 7824,
      "hips": 7825,
      "▁essays": 7826,
      "▁annually": 7827,
      "mill": 7828,
      "▁develops": 7829,
      "infl": 7830,
      "▁severity": 7831,
      "ifice": 7832,
      "▁compos": 7833,
      "nia": 7834,
      "▁reaches": 7835,
      "▁profound": 7836,
      "▁qualities": 7837,
      "izations": 7838,
      "▁pest": 7839,
      "▁discl": 7840,
      "ologically": 7841,
      "▁ecology": 7842,
      "▁jacob": 7843,
      "▁throat": 7844,
      "▁camer": 7845,
      "▁varied": 7846,
      "▁brush": 7847,
      "page": 7848,
      "▁sensory": 7849,
      "una": 7850,
      "▁reveals": 7851,
      "▁prescribed": 7852,
      "▁cosm": 7853,
      "roud": 7854,
      "▁libraries": 7855,
      "▁impair": 7856,
      "▁craft": 7857,
      "▁sees": 7858,
      "▁theat": 7859,
      "sub": 7860,
      "ila": 7861,
      "▁strengthen": 7862,
      "▁chocolate": 7863,
      "adder": 7864,
      "▁wings": 7865,
      "zyme": 7866,
      "▁pairs": 7867,
      "▁consequently": 7868,
      "▁illnesses": 7869,
      "▁fox": 7870,
      "▁aes": 7871,
      "▁nuts": 7872,
      "▁ak": 7873,
      "▁tap": 7874,
      "▁noticed": 7875,
      "▁arise": 7876,
      "▁whit": 7877,
      "▁adopt": 7878,
      "▁illinois": 7879,
      "aming": 7880,
      "▁restrictions": 7881,
      "▁arc": 7882,
      "▁meetings": 7883,
      "▁tourism": 7884,
      "aka": 7885,
      "▁transformation": 7886,
      "▁algorithm": 7887,
      "ouds": 7888,
      "iments": 7889,
      "▁stal": 7890,
      "▁wake": 7891,
      "tends": 7892,
      "▁emit": 7893,
      "ishes": 7894,
      "▁analyses": 7895,
      "▁is\n": 7896,
      "▁kh": 7897,
      "▁loop": 7898,
      "▁neglect": 7899,
      "▁alternatives": 7900,
      "keep": 7901,
      "▁possibilities": 7902,
      "▁brid": 7903,
      "bell": 7904,
      "▁package": 7905,
      "▁organisation": 7906,
      "▁themes": 7907,
      "▁productive": 7908,
      "▁civilization": 7909,
      "▁conflicts": 7910,
      "turning": 7911,
      "▁cig": 7912,
      "rub": 7913,
      "▁beneath": 7914,
      "▁speaker": 7915,
      "▁candidate": 7916,
      "▁underta": 7917,
      "▁bin": 7918,
      "▁spoke": 7919,
      "▁kent": 7920,
      "agen": 7921,
      "▁unlikely": 7922,
      "▁divide": 7923,
      "▁vietnam": 7924,
      "▁orthod": 7925,
      "▁oceans": 7926,
      "ochem": 7927,
      "▁ultra": 7928,
      "▁tends": 7929,
      "▁implementing": 7930,
      "▁surveys": 7931,
      "▁olymp": 7932,
      "▁yoga": 7933,
      "▁mile": 7934,
      "▁exem": 7935,
      "▁employee": 7936,
      "▁couldn": 7937,
      "▁achieving": 7938,
      "▁oils": 7939,
      "▁campus": 7940,
      "iro": 7941,
      "▁borrow": 7942,
      "issipp": 7943,
      "esium": 7944,
      "▁swelling": 7945,
      "ups": 7946,
      "▁visiting": 7947,
      "▁incorporated": 7948,
      "▁avoiding": 7949,
      "may": 7950,
      "▁appeal": 7951,
      "▁uv": 7952,
      "▁encouraging": 7953,
      "▁traditionally": 7954,
      "non": 7955,
      "▁consent": 7956,
      "amination": 7957,
      "▁factory": 7958,
      "▁reflected": 7959,
      "▁malaria": 7960,
      "▁tracking": 7961,
      "rem": 7962,
      "▁archives": 7963,
      "even": 7964,
      "▁analyzed": 7965,
      "▁segment": 7966,
      "▁isolation": 7967,
      "quality": 7968,
      "▁separation": 7969,
      "▁hindu": 7970,
      "ilson": 7971,
      "wat": 7972,
      "▁dropped": 7973,
      "▁jackson": 7974,
      "ashes": 7975,
      "plate": 7976,
      "▁pipe": 7977,
      "wall": 7978,
      "▁subsequently": 7979,
      "▁prosper": 7980,
      "some": 7981,
      "▁absolutely": 7982,
      "▁displayed": 7983,
      "▁juris": 7984,
      "▁designated": 7985,
      "▁streams": 7986,
      "▁fitness": 7987,
      "▁irrigation": 7988,
      "assium": 7989,
      "▁sleeping": 7990,
      "▁reviews": 7991,
      "▁luc": 7992,
      "step": 7993,
      "▁fluor": 7994,
      "▁sovereign": 7995,
      "▁noun": 7996,
      "▁amino": 7997,
      "▁tape": 7998,
      "▁sq": 7999,
      "▁summar": 8000,
      "▁calendar": 8001,
      "▁allergies": 8002,
      "▁knee": 8003,
      "▁disk": 8004,
      "▁paintings": 8005,
      "adelphia": 8006,
      "▁unemploy": 8007,
      "▁fant": 8008,
      "▁simultaneously": 8009,
      "▁predicted": 8010,
      "▁dinosa": 8011,
      "▁calm": 8012,
      "icts": 8013,
      "▁translated": 8014,
      "▁quantities": 8015,
      "mented": 8016,
      "▁microsoft": 8017,
      "▁bonds": 8018,
      "▁epidem": 8019,
      "▁cream": 8020,
      "dl": 8021,
      "aneous": 8022,
      "bow": 8023,
      "▁silic": 8024,
      "▁provision": 8025,
      "▁administrative": 8026,
      "acent": 8027,
      "▁moses": 8028,
      "dict": 8029,
      "▁pesticides": 8030,
      "▁elections": 8031,
      "▁fraction": 8032,
      "▁inch": 8033,
      "edu": 8034,
      "▁partial": 8035,
      "▁cable": 8036,
      "▁friday": 8037,
      "▁blank": 8038,
      "▁accomplish": 8039,
      "▁allergy": 8040,
      "▁finish": 8041,
      "▁patent": 8042,
      "▁fiction": 8043,
      "▁energ": 8044,
      "▁abraham": 8045,
      "agon": 8046,
      "mus": 8047,
      "▁nap": 8048,
      "▁adam": 8049,
      "mble": 8050,
      "▁identical": 8051,
      "▁regime": 8052,
      "▁hepat": 8053,
      "onomy": 8054,
      "▁wireless": 8055,
      "▁channels": 8056,
      "▁metabolic": 8057,
      "ilst": 8058,
      "▁preserved": 8059,
      "▁ace": 8060,
      "rh": 8061,
      "▁reinforce": 8062,
      "shaped": 8063,
      "▁pneum": 8064,
      "▁mexican": 8065,
      "tib": 8066,
      "▁cited": 8067,
      "orate": 8068,
      "▁codes": 8069,
      "▁alongside": 8070,
      "hydr": 8071,
      "▁perspectives": 8072,
      "▁suspect": 8073,
      "▁ranges": 8074,
      "▁continent": 8075,
      "commun": 8076,
      "▁installation": 8077,
      "▁requiring": 8078,
      "▁obama": 8079,
      "▁fascinating": 8080,
      "▁regulate": 8081,
      "▁dimin": 8082,
      "▁descend": 8083,
      "▁synthetic": 8084,
      "▁varying": 8085,
      "▁transferred": 8086,
      "▁contamination": 8087,
      "▁greece": 8088,
      "▁corporation": 8089,
      "▁nur": 8090,
      "▁bub": 8091,
      "▁legit": 8092,
      "▁hip": 8093,
      "▁contrary": 8094,
      "▁honest": 8095,
      "▁surprise": 8096,
      "▁incom": 8097,
      "▁wooden": 8098,
      "▁loy": 8099,
      "▁adolescents": 8100,
      "▁exhibition": 8101,
      "iry": 8102,
      "▁definitions": 8103,
      "▁instances": 8104,
      "▁rainfall": 8105,
      "▁trading": 8106,
      "▁favour": 8107,
      "▁persu": 8108,
      "▁mississipp": 8109,
      "▁invasion": 8110,
      "▁elevated": 8111,
      "pap": 8112,
      "erior": 8113,
      "▁diets": 8114,
      "▁beet": 8115,
      "▁collaborative": 8116,
      "▁combine": 8117,
      "▁kitchen": 8118,
      "play": 8119,
      "gged": 8120,
      "▁inev": 8121,
      "▁preservation": 8122,
      "▁algorithms": 8123,
      "▁mail": 8124,
      "irable": 8125,
      "function": 8126,
      "▁fran": 8127,
      "▁bibl": 8128,
      "▁pose": 8129,
      "also": 8130,
      "▁convey": 8131,
      "▁worksheets": 8132,
      "▁bullying": 8133,
      "▁foster": 8134,
      "▁rooms": 8135,
      "▁reviewed": 8136,
      "▁scales": 8137,
      "▁sheets": 8138,
      "author": 8139,
      "▁procl": 8140,
      "▁reflection": 8141,
      "▁incorporate": 8142,
      "ifier": 8143,
      "▁villages": 8144,
      "▁trump": 8145,
      "chem": 8146,
      "▁refused": 8147,
      "▁diagram": 8148,
      "▁integrity": 8149,
      "▁clouds": 8150,
      "▁debris": 8151,
      "▁popularity": 8152,
      "▁enjoyed": 8153,
      "iterranean": 8154,
      "▁recur": 8155,
      "▁visits": 8156,
      "▁discharge": 8157,
      "▁stabil": 8158,
      "▁landing": 8159,
      "▁apps": 8160,
      "▁semi": 8161,
      "▁conclusions": 8162,
      "ott": 8163,
      "▁sediment": 8164,
      "▁cycles": 8165,
      "▁progressive": 8166,
      "▁perpet": 8167,
      "▁monthly": 8168,
      "▁encl": 8169,
      "▁perfectly": 8170,
      "▁naval": 8171,
      "▁sending": 8172,
      "inte": 8173,
      "▁mapping": 8174,
      "▁meditation": 8175,
      "▁passes": 8176,
      "first": 8177,
      "▁prolong": 8178,
      "▁excav": 8179,
      "▁geography": 8180,
      "▁assessments": 8181,
      "▁distinguish": 8182,
      "▁lock": 8183,
      "▁coral": 8184,
      "▁efficiently": 8185,
      "tet": 8186,
      "jud": 8187,
      "▁electrons": 8188,
      "▁robust": 8189,
      "▁developers": 8190,
      "http": 8191,
      "▁tumors": 8192,
      "▁fleet": 8193,
      "▁expanding": 8194,
      "▁organis": 8195,
      "▁restricted": 8196,
      "▁cort": 8197,
      "▁morph": 8198,
      "▁adoption": 8199,
      "inth": 8200,
      "sk": 8201,
      "phe": 8202,
      "▁documented": 8203,
      "▁alliance": 8204,
      "▁amongst": 8205,
      "▁susceptible": 8206,
      "▁potassium": 8207,
      "▁disturb": 8208,
      "▁intermedi": 8209,
      "lick": 8210,
      "▁ome": 8211,
      "stit": 8212,
      "cp": 8213,
      "▁magnitude": 8214,
      "▁residential": 8215,
      "▁antar": 8216,
      "health": 8217,
      "▁healthier": 8218,
      "▁swimming": 8219,
      "coun": 8220,
      "▁palm": 8221,
      "▁inhabitants": 8222,
      "▁bishop": 8223,
      "icular": 8224,
      "▁stain": 8225,
      "▁myster": 8226,
      "kal": 8227,
      "▁circul": 8228,
      "▁symptom": 8229,
      "▁vom": 8230,
      "▁adaptation": 8231,
      "▁films": 8232,
      "▁dried": 8233,
      "▁axis": 8234,
      "▁improves": 8235,
      "ogens": 8236,
      "▁isa": 8237,
      "controll": 8238,
      "▁league": 8239,
      "conomic": 8240,
      "▁punishment": 8241,
      "▁surviv": 8242,
      "▁acceptable": 8243,
      "tebr": 8244,
      "▁femin": 8245,
      "makers": 8246,
      "▁absorption": 8247,
      "▁repet": 8248,
      "▁puts": 8249,
      "▁calc": 8250,
      "▁confusion": 8251,
      "▁muc": 8252,
      "reprene": 8253,
      "▁encounter": 8254,
      "▁loan": 8255,
      "▁elderly": 8256,
      "zer": 8257,
      "▁phones": 8258,
      "▁pear": 8259,
      "▁suggestions": 8260,
      "▁modeling": 8261,
      "▁southeast": 8262,
      "py": 8263,
      "▁exclud": 8264,
      "efficient": 8265,
      "spr": 8266,
      "stud": 8267,
      "▁rna": 8268,
      "▁sug": 8269,
      "▁candidates": 8270,
      "thew": 8271,
      "▁oreg": 8272,
      "▁philadelphia": 8273,
      "▁enzymes": 8274,
      "▁distant": 8275,
      "▁submit": 8276,
      "▁consuming": 8277,
      "▁twitter": 8278,
      "▁copies": 8279,
      "tay": 8280,
      "diction": 8281,
      "regular": 8282,
      "▁legacy": 8283,
      "▁consequence": 8284,
      "▁historians": 8285,
      "issance": 8286,
      "▁platforms": 8287,
      "▁santa": 8288,
      "▁producers": 8289,
      "▁sophistic": 8290,
      "▁mediterranean": 8291,
      "▁subsid": 8292,
      "mination": 8293,
      "arium": 8294,
      "bury": 8295,
      "ructive": 8296,
      "▁phon": 8297,
      "▁pier": 8298,
      "▁oregon": 8299,
      "▁abundance": 8300,
      "ipher": 8301,
      "▁cad": 8302,
      "mail": 8303,
      "▁homework": 8304,
      "uing": 8305,
      "atus": 8306,
      "▁proposal": 8307,
      "▁broadcast": 8308,
      "▁pic": 8309,
      "▁inherent": 8310,
      "▁applies": 8311,
      "▁indoor": 8312,
      "▁mississippi": 8313,
      "▁ending": 8314,
      "▁unre": 8315,
      "▁vine": 8316,
      "aug": 8317,
      "▁commod": 8318,
      "▁valve": 8319,
      "▁precisely": 8320,
      "▁circular": 8321,
      "▁regist": 8322,
      "astern": 8323,
      "▁abandoned": 8324,
      "▁tribe": 8325,
      "▁fda": 8326,
      "▁intelligent": 8327,
      "▁cheese": 8328,
      "▁ninet": 8329,
      "▁crack": 8330,
      "orus": 8331,
      "▁totally": 8332,
      "▁sew": 8333,
      "▁sib": 8334,
      "uled": 8335,
      "▁whilst": 8336,
      "aved": 8337,
      "▁neuros": 8338,
      "▁athletes": 8339,
      "▁desk": 8340,
      "▁velocity": 8341,
      "▁erosion": 8342,
      "▁hack": 8343,
      "▁brains": 8344,
      "arsh": 8345,
      "natural": 8346,
      "▁entitled": 8347,
      "▁gi": 8348,
      "▁gentle": 8349,
      "▁mistakes": 8350,
      "ghan": 8351,
      "▁kin": 8352,
      "▁alaska": 8353,
      "▁herself": 8354,
      "▁pollut": 8355,
      "▁hazards": 8356,
      "▁unto": 8357,
      "grow": 8358,
      "▁collapse": 8359,
      "▁thesis": 8360,
      "▁therapeutic": 8361,
      "▁milit": 8362,
      "▁likewise": 8363,
      "human": 8364,
      "▁attributed": 8365,
      "▁plates": 8366,
      "▁bought": 8367,
      "▁peers": 8368,
      "▁cdc": 8369,
      "▁doses": 8370,
      "▁cylind": 8371,
      "▁ultr": 8372,
      "▁encry": 8373,
      "▁sper": 8374,
      "▁inject": 8375,
      "▁accidents": 8376,
      "▁ancestors": 8377,
      "▁portra": 8378,
      "▁inflation": 8379,
      "tees": 8380,
      "post": 8381,
      "▁horizontal": 8382,
      "▁palace": 8383,
      "▁hurt": 8384,
      "▁entreprene": 8385,
      "▁wilson": 8386,
      "▁egyptian": 8387,
      "▁lac": 8388,
      "▁imagination": 8389,
      "▁reasoning": 8390,
      "▁hopes": 8391,
      "▁magnesium": 8392,
      "▁spreading": 8393,
      "▁doors": 8394,
      "▁immigration": 8395,
      "▁diver": 8396,
      "imen": 8397,
      "▁seasonal": 8398,
      "▁relate": 8399,
      "▁attempted": 8400,
      "▁bottle": 8401,
      "friendly": 8402,
      "▁northwest": 8403,
      "▁aristo": 8404,
      "▁relating": 8405,
      "▁mul": 8406,
      "terior": 8407,
      "▁importantly": 8408,
      "▁wolf": 8409,
      "▁containers": 8410,
      "▁historically": 8411,
      "▁alb": 8412,
      "▁atomic": 8413,
      "emies": 8414,
      "▁crimes": 8415,
      "▁plasma": 8416,
      "▁vaccination": 8417,
      "▁attractive": 8418,
      "▁prevents": 8419,
      "▁cluster": 8420,
      "▁alert": 8421,
      "▁pharmac": 8422,
      "▁extraord": 8423,
      "▁responsibilities": 8424,
      "cue": 8425,
      "▁gross": 8426,
      "▁refugees": 8427,
      "pher": 8428,
      "aya": 8429,
      "fire": 8430,
      "auc": 8431,
      "stra": 8432,
      "izona": 8433,
      "▁designing": 8434,
      "▁loud": 8435,
      "▁sher": 8436,
      "▁railway": 8437,
      "avirus": 8438,
      "▁distinction": 8439,
      "fra": 8440,
      "▁tolerance": 8441,
      "▁doctrine": 8442,
      "▁ruled": 8443,
      "ingly": 8444,
      "▁seiz": 8445,
      "▁reservoir": 8446,
      "▁dentist": 8447,
      "▁cem": 8448,
      "ique": 8449,
      "▁electronics": 8450,
      "▁bil": 8451,
      "▁expedition": 8452,
      "apes": 8453,
      "▁spine": 8454,
      "ika": 8455,
      "▁shoulder": 8456,
      "rose": 8457,
      "▁strains": 8458,
      "▁operated": 8459,
      "▁shakes": 8460,
      "rics": 8461,
      "bro": 8462,
      "▁rays": 8463,
      "torn": 8464,
      "▁exceed": 8465,
      "▁operational": 8466,
      "▁shoes": 8467,
      "▁vag": 8468,
      "▁dramatically": 8469,
      "▁obstac": 8470,
      "▁straw": 8471,
      "▁java": 8472,
      "▁monday": 8473,
      "rus": 8474,
      "▁contaminated": 8475,
      "▁tough": 8476,
      "ours": 8477,
      "rical": 8478,
      "naissance": 8479,
      "▁python": 8480,
      "found": 8481,
      "sters": 8482,
      "▁illustrated": 8483,
      "▁boundary": 8484,
      "▁sectors": 8485,
      "▁interv": 8486,
      "astics": 8487,
      "▁mutations": 8488,
      "fo": 8489,
      "▁offices": 8490,
      "esis": 8491,
      "▁duties": 8492,
      "ologic": 8493,
      "▁suggesting": 8494,
      "▁painted": 8495,
      "▁surrounded": 8496,
      "ador": 8497,
      "▁chi": 8498,
      "▁nu": 8499,
      "▁likel": 8500,
      "▁widt": 8501,
      "▁gang": 8502,
      "▁tib": 8503,
      "lan": 8504,
      "▁equipped": 8505,
      "▁gastro": 8506,
      "▁shelter": 8507,
      "stru": 8508,
      "▁blacks": 8509,
      "▁burned": 8510,
      "▁deposits": 8511,
      "▁bark": 8512,
      "▁returning": 8513,
      "profit": 8514,
      "ifer": 8515,
      "▁allergic": 8516,
      "▁partly": 8517,
      "▁resemb": 8518,
      "▁camps": 8519,
      "▁ros": 8520,
      "▁tendency": 8521,
      "▁abundant": 8522,
      "▁inspe": 8523,
      "▁godd": 8524,
      "▁conservative": 8525,
      "▁beam": 8526,
      "oids": 8527,
      "ko": 8528,
      "▁arrival": 8529,
      "▁comparing": 8530,
      "▁cuts": 8531,
      "▁blockchain": 8532,
      "▁semin": 8533,
      "▁selling": 8534,
      "▁guarantee": 8535,
      "▁murder": 8536,
      "▁pock": 8537,
      "▁vacu": 8538,
      "hism": 8539,
      "isons": 8540,
      "these": 8541,
      "▁describing": 8542,
      "▁memories": 8543,
      "aired": 8544,
      "▁collecting": 8545,
      "doi": 8546,
      "ateral": 8547,
      "ouri": 8548,
      "▁abol": 8549,
      "anium": 8550,
      "▁colored": 8551,
      "▁biblical": 8552,
      "▁retail": 8553,
      "nis": 8554,
      "run": 8555,
      "▁emer": 8556,
      "cult": 8557,
      "▁peas": 8558,
      "▁approval": 8559,
      "▁gospel": 8560,
      "▁keys": 8561,
      "▁williams": 8562,
      "▁export": 8563,
      "▁omega": 8564,
      "▁bite": 8565,
      "▁comparative": 8566,
      "▁striking": 8567,
      "▁predators": 8568,
      "▁disag": 8569,
      "▁cerv": 8570,
      "▁notable": 8571,
      "▁divers": 8572,
      "lock": 8573,
      "▁gaz": 8574,
      "▁shortly": 8575,
      "▁asc": 8576,
      "▁angeles": 8577,
      "▁affordable": 8578,
      "▁invented": 8579,
      "▁ng": 8580,
      "▁eb": 8581,
      "original": 8582,
      "▁andrew": 8583,
      "▁gy": 8584,
      "alties": 8585,
      "note": 8586,
      "▁connecting": 8587,
      "▁predomin": 8588,
      "▁stretch": 8589,
      "▁broke": 8590,
      "▁phd": 8591,
      "▁submitted": 8592,
      "tomy": 8593,
      "▁smok": 8594,
      "▁hob": 8595,
      "ran": 8596,
      "treated": 8597,
      "▁mini": 8598,
      "▁sail": 8599,
      "▁enzyme": 8600,
      "ihood": 8601,
      "▁mirror": 8602,
      "▁missions": 8603,
      "▁turk": 8604,
      "▁intensive": 8605,
      "enda": 8606,
      "▁wales": 8607,
      "olis": 8608,
      "▁flavor": 8609,
      "▁carib": 8610,
      "▁sampling": 8611,
      "text": 8612,
      "▁autonom": 8613,
      "▁magic": 8614,
      "▁vector": 8615,
      "▁zinc": 8616,
      "▁reflects": 8617,
      "rer": 8618,
      "▁broader": 8619,
      "▁berlin": 8620,
      "▁verse": 8621,
      "aine": 8622,
      "▁purs": 8623,
      "▁neighbour": 8624,
      "tb": 8625,
      "▁arizona": 8626,
      "enti": 8627,
      "▁hunt": 8628,
      "school": 8629,
      "▁hide": 8630,
      "inform": 8631,
      "▁onset": 8632,
      "▁highlights": 8633,
      "▁consistently": 8634,
      "▁dying": 8635,
      "▁attributes": 8636,
      "▁shares": 8637,
      "▁highway": 8638,
      "▁binding": 8639,
      "▁champ": 8640,
      "olds": 8641,
      "▁lean": 8642,
      "▁borders": 8643,
      "alysis": 8644,
      "isa": 8645,
      "▁attor": 8646,
      "▁jones": 8647,
      "▁placing": 8648,
      "▁upl": 8649,
      "▁proud": 8650,
      "▁orientation": 8651,
      "▁prescription": 8652,
      "healthy": 8653,
      "▁speakers": 8654,
      "▁humidity": 8655,
      "▁sem": 8656,
      "bage": 8657,
      "▁empower": 8658,
      "▁prol": 8659,
      "▁spelling": 8660,
      "bul": 8661,
      "ceptions": 8662,
      "▁belt": 8663,
      "▁von": 8664,
      "iral": 8665,
      "▁robots": 8666,
      "copic": 8667,
      "▁spark": 8668,
      "orters": 8669,
      "▁officially": 8670,
      "▁shade": 8671,
      "▁mobility": 8672,
      "▁transactions": 8673,
      "▁bh": 8674,
      "▁survived": 8675,
      "▁organism": 8676,
      "▁compliance": 8677,
      "elly": 8678,
      "lab": 8679,
      "plan": 8680,
      "yan": 8681,
      "▁fertilizer": 8682,
      "▁scrat": 8683,
      "law": 8684,
      "▁enterprise": 8685,
      "▁appointment": 8686,
      "▁bom": 8687,
      "oding": 8688,
      "▁dialogue": 8689,
      "▁indicators": 8690,
      "▁grams": 8691,
      "iano": 8692,
      "▁displays": 8693,
      "isition": 8694,
      "iner": 8695,
      "▁injured": 8696,
      "▁grey": 8697,
      "erness": 8698,
      "▁obser": 8699,
      "▁mystery": 8700,
      "iage": 8701,
      "▁ride": 8702,
      "▁likelihood": 8703,
      "▁nurse": 8704,
      "▁preschool": 8705,
      "▁regen": 8706,
      "▁eco": 8707,
      "thal": 8708,
      "fly": 8709,
      "▁pole": 8710,
      "▁wage": 8711,
      "good": 8712,
      "▁erect": 8713,
      "igible": 8714,
      "hydrates": 8715,
      "▁participating": 8716,
      "▁entrance": 8717,
      "▁scal": 8718,
      "▁macro": 8719,
      "▁fingers": 8720,
      "▁reputation": 8721,
      "▁appreciate": 8722,
      "▁rats": 8723,
      "▁counties": 8724,
      "▁assault": 8725,
      "▁founder": 8726,
      "▁hunger": 8727,
      "▁somewhere": 8728,
      "▁persistent": 8729,
      "cled": 8730,
      "▁pests": 8731,
      "oline": 8732,
      "▁reson": 8733,
      "▁synthesis": 8734,
      "▁prisoners": 8735,
      "▁ig": 8736,
      "▁distinguished": 8737,
      "▁eag": 8738,
      "▁evaluated": 8739,
      "lear": 8740,
      "▁tay": 8741,
      "▁minnes": 8742,
      "▁eaten": 8743,
      "▁toile": 8744,
      "engers": 8745,
      "pie": 8746,
      "conscious": 8747,
      "▁draft": 8748,
      "▁ml": 8749,
      "▁charges": 8750,
      "▁wells": 8751,
      "erb": 8752,
      "▁heter": 8753,
      "▁busy": 8754,
      "▁swall": 8755,
      "uv": 8756,
      "▁phenomena": 8757,
      "papers": 8758,
      "▁revol": 8759,
      "▁investments": 8760,
      "develop": 8761,
      "▁cin": 8762,
      "sch": 8763,
      "▁molecule": 8764,
      "▁outline": 8765,
      "▁adjacent": 8766,
      "▁melan": 8767,
      "▁employers": 8768,
      "utical": 8769,
      "build": 8770,
      "▁historian": 8771,
      "▁torn": 8772,
      "▁jos": 8773,
      "▁fatal": 8774,
      "olf": 8775,
      "▁utilized": 8776,
      "▁sword": 8777,
      "compass": 8778,
      "▁snake": 8779,
      "▁bern": 8780,
      "xual": 8781,
      "▁negoti": 8782,
      "▁fles": 8783,
      "▁refr": 8784,
      "▁pleasure": 8785,
      "igned": 8786,
      "▁anch": 8787,
      "peare": 8788,
      "teem": 8789,
      "▁featured": 8790,
      "▁ss": 8791,
      "▁republican": 8792,
      "▁jet": 8793,
      "▁reproduction": 8794,
      "▁consisting": 8795,
      "cession": 8796,
      "▁coat": 8797,
      "▁forum": 8798,
      "letter": 8799,
      "▁algae": 8800,
      "syn": 8801,
      "oly": 8802,
      "▁inclusion": 8803,
      "▁adhd": 8804,
      "▁fibers": 8805,
      "isted": 8806,
      "▁geological": 8807,
      "illance": 8808,
      "▁hazardous": 8809,
      "▁unity": 8810,
      "▁sequences": 8811,
      "▁chip": 8812,
      "▁equations": 8813,
      "▁extinction": 8814,
      "▁precision": 8815,
      "▁attended": 8816,
      "▁wool": 8817,
      "▁charl": 8818,
      "▁discom": 8819,
      "oric": 8820,
      "▁galaxy": 8821,
      "▁partially": 8822,
      "▁receives": 8823,
      "▁courage": 8824,
      "cos": 8825,
      "wered": 8826,
      "▁todd": 8827,
      "▁bags": 8828,
      "itzer": 8829,
      "▁hurricane": 8830,
      "▁cloth": 8831,
      "▁quad": 8832,
      "▁jersey": 8833,
      "▁injection": 8834,
      "▁cass": 8835,
      "▁independently": 8836,
      "▁tanks": 8837,
      "▁thoroughly": 8838,
      "▁nodes": 8839,
      "▁lewis": 8840,
      "necess": 8841,
      "▁artistic": 8842,
      "▁struck": 8843,
      "▁convenient": 8844,
      "▁basics": 8845,
      "▁fertility": 8846,
      "▁archaeological": 8847,
      "ilitation": 8848,
      "izers": 8849,
      "▁beta": 8850,
      "▁dw": 8851,
      "▁sket": 8852,
      "▁antibodies": 8853,
      "mid": 8854,
      "pow": 8855,
      "▁nether": 8856,
      "case": 8857,
      "▁traveling": 8858,
      "▁lig": 8859,
      "▁jim": 8860,
      "▁osc": 8861,
      "▁width": 8862,
      "▁gay": 8863,
      "▁depr": 8864,
      "berries": 8865,
      "▁carbohydrates": 8866,
      "▁maryland": 8867,
      "grou": 8868,
      "▁rebu": 8869,
      "▁acceptance": 8870,
      "▁heal": 8871,
      "▁jon": 8872,
      "▁diplom": 8873,
      "▁lawn": 8874,
      "▁minnesota": 8875,
      "effective": 8876,
      "▁settlers": 8877,
      "▁missouri": 8878,
      "prote": 8879,
      "owed": 8880,
      "inery": 8881,
      "white": 8882,
      "▁bloom": 8883,
      "▁proceedings": 8884,
      "▁stems": 8885,
      "▁deleg": 8886,
      "▁territories": 8887,
      "▁petro": 8888,
      "resist": 8889,
      "▁ark": 8890,
      "▁bob": 8891,
      "bet": 8892,
      "▁dispers": 8893,
      "iders": 8894,
      "anger": 8895,
      "▁forever": 8896,
      "▁diarrhea": 8897,
      "▁rubber": 8898,
      "▁unexpected": 8899,
      "why": 8900,
      "ela": 8901,
      "agnetic": 8902,
      "▁cape": 8903,
      "▁enabling": 8904,
      "▁luther": 8905,
      "▁allah": 8906,
      "▁absorbed": 8907,
      "▁matrix": 8908,
      "▁unc": 8909,
      "▁browser": 8910,
      "▁edges": 8911,
      "▁condu": 8912,
      "aware": 8913,
      "▁coating": 8914,
      "▁irregular": 8915,
      "▁chim": 8916,
      "source": 8917,
      "govern": 8918,
      "▁struggling": 8919,
      "▁occupation": 8920,
      "▁configuration": 8921,
      "▁dual": 8922,
      "▁darwin": 8923,
      "oning": 8924,
      "▁lon": 8925,
      "▁associations": 8926,
      "▁feather": 8927,
      "▁genus": 8928,
      "pted": 8929,
      "chnology": 8930,
      "lete": 8931,
      "▁yard": 8932,
      "▁hitler": 8933,
      "▁toxins": 8934,
      "▁gaps": 8935,
      "▁sha": 8936,
      "▁bills": 8937,
      "▁bearing": 8938,
      "▁elab": 8939,
      "▁rocket": 8940,
      "adequ": 8941,
      "oton": 8942,
      "▁drives": 8943,
      "imensional": 8944,
      "▁awarded": 8945,
      "▁drops": 8946,
      "▁attacked": 8947,
      "▁insert": 8948,
      "▁boxes": 8949,
      "▁kat": 8950,
      "▁kim": 8951,
      "oa": 8952,
      "olid": 8953,
      "▁celebration": 8954,
      "▁promotes": 8955,
      "▁carp": 8956,
      "▁sacrifice": 8957,
      "▁criticism": 8958,
      "▁refe": 8959,
      "whe": 8960,
      "▁fung": 8961,
      "▁bod": 8962,
      "obic": 8963,
      "▁penins": 8964,
      "enter": 8965,
      "▁manufacturer": 8966,
      "▁commander": 8967,
      "▁completion": 8968,
      "▁poland": 8969,
      "▁fifty": 8970,
      "▁expressions": 8971,
      "▁pride": 8972,
      "▁toys": 8973,
      "▁dollar": 8974,
      "▁resilience": 8975,
      "▁horn": 8976,
      "▁routes": 8977,
      "▁lasting": 8978,
      "tario": 8979,
      "hurs": 8980,
      "▁surveillance": 8981,
[...]
